{
  "version": "1.0",
  "truncation": null,
  "padding": null,
  "added_tokens": [
    {
      "id": 0,
      "content": "<s>",
      "single_word": false,
      "lstrip": false,
      "rstrip": false,
      "normalized": false,
      "special": true
    },
    {
      "id": 1,
      "content": "</s>",
      "single_word": false,
      "lstrip": false,
      "rstrip": false,
      "normalized": false,
      "special": true
    },
    {
      "id": 2,
      "content": "<unk>",
      "single_word": false,
      "lstrip": false,
      "rstrip": false,
      "normalized": false,
      "special": true
    },
    {
      "id": 3,
      "content": "<pad>",
      "single_word": false,
      "lstrip": false,
      "rstrip": false,
      "normalized": false,
      "special": true
    }
  ],
  "normalizer": null,
  "pre_tokenizer": {
    "type": "ByteLevel",
    "add_prefix_space": true,
    "trim_offsets": true,
    "use_regex": true
  },
  "post_processor": {
    "type": "TemplateProcessing",
    "single": [
      {
        "SpecialToken": {
          "id": "<s>",
          "type_id": 0
        }
      },
      {
        "Sequence": {
          "id": "A",
          "type_id": 0
        }
      },
      {
        "SpecialToken": {
          "id": "</s>",
          "type_id": 0
        }
      }
    ],
    "pair": [
      {
        "Sequence": {
          "id": "A",
          "type_id": 0
        }
      },
      {
        "Sequence": {
          "id": "B",
          "type_id": 1
        }
      }
    ],
    "special_tokens": {
      "</s>": {
        "id": "</s>",
        "ids": [
          1
        ],
        "tokens": [
          "</s>"
        ]
      },
      "<s>": {
        "id": "<s>",
        "ids": [
          0
        ],
        "tokens": [
          "<s>"
        ]
      }
    }
  },
  "decoder": {
    "type": "ByteLevel",
    "add_prefix_space": true,
    "trim_offsets": true,
    "use_regex": true
  },
  "model": {
    "type": "BPE",
    "dropout": null,
    "unk_token": "<unk>",
    "continuing_subword_prefix": null,
    "end_of_word_suffix": null,
    "fuse_unk": false,
    "vocab": {
      "<s>": 0,
      "</s>": 1,
      "<unk>": 2,
      "<pad>": 3,
      "!": 4,
      "\"": 5,
      "#": 6,
      "$": 7,
      "%": 8,
      "&": 9,
      "'": 10,
      "(": 11,
      ")": 12,
      "*": 13,
      "+": 14,
      ",": 15,
      "-": 16,
      ".": 17,
      "/": 18,
      "0": 19,
      "1": 20,
      "2": 21,
      "3": 22,
      "4": 23,
      "5": 24,
      "6": 25,
      "7": 26,
      "8": 27,
      "9": 28,
      ":": 29,
      ";": 30,
      "=": 31,
      "?": 32,
      "@": 33,
      "[": 34,
      "]": 35,
      "^": 36,
      "_": 37,
      "a": 38,
      "b": 39,
      "c": 40,
      "d": 41,
      "e": 42,
      "f": 43,
      "g": 44,
      "h": 45,
      "i": 46,
      "j": 47,
      "k": 48,
      "l": 49,
      "m": 50,
      "n": 51,
      "o": 52,
      "p": 53,
      "q": 54,
      "r": 55,
      "s": 56,
      "t": 57,
      "u": 58,
      "v": 59,
      "w": 60,
      "x": 61,
      "y": 62,
      "z": 63,
      "¡": 64,
      "¢": 65,
      "£": 66,
      "¤": 67,
      "¥": 68,
      "¦": 69,
      "§": 70,
      "¨": 71,
      "©": 72,
      "ª": 73,
      "«": 74,
      "¬": 75,
      "¯": 76,
      "±": 77,
      "²": 78,
      "³": 79,
      "´": 80,
      "¶": 81,
      "¸": 82,
      "¹": 83,
      "º": 84,
      "»": 85,
      "¼": 86,
      "½": 87,
      "¿": 88,
      "Â": 89,
      "Ã": 90,
      "Ä": 91,
      "Å": 92,
      "Ë": 93,
      "Ï": 94,
      "à": 95,
      "â": 96,
      "ä": 97,
      "è": 98,
      "é": 99,
      "Ġ": 100,
      "Ģ": 101,
      "ģ": 102,
      "Ĥ": 103,
      "Ħ": 104,
      "ĩ": 105,
      "Ī": 106,
      "į": 107,
      "ĳ": 108,
      "ĵ": 109,
      "Ķ": 110,
      "ĺ": 111,
      "Ļ": 112,
      "ļ": 113,
      "Ľ": 114,
      "ľ": 115,
      "Ŀ": 116,
      "ł": 117,
      "Ń": 118,
      "Ġt": 119,
      "Ġth": 120,
      "Ġa": 121,
      "Ġi": 122,
      "Ġw": 123,
      "Ġthe": 124,
      "Ġs": 125,
      "re": 126,
      "Ġo": 127,
      "in": 128,
      "at": 129,
      "nd": 130,
      "er": 131,
      "ou": 132,
      "Ġc": 133,
      "Ġb": 134,
      "Ġm": 135,
      "Ġh": 136,
      "ing": 137,
      "Ġand": 138,
      "en": 139,
      "Ġto": 140,
      "Ġp": 141,
      "on": 142,
      "Ġf": 143,
      "Ġd": 144,
      "an": 145,
      "es": 146,
      "Ġof": 147,
      "or": 148,
      "ll": 149,
      "Ġin": 150,
      "Ġl": 151,
      "ed": 152,
      "is": 153,
      "Ġy": 154,
      "it": 155,
      "ar": 156,
      "Ġthat": 157,
      "Ġg": 158,
      "Ġwe": 159,
      "Ġn": 160,
      "om": 161,
      "Ġyou": 162,
      "as": 163,
      "Ġwh": 164,
      "Ġit": 165,
      "ic": 166,
      "le": 167,
      "ve": 168,
      "al": 169,
      "Ġe": 170,
      "Ġbe": 171,
      "Ġis": 172,
      "ow": 173,
      "us": 174,
      "ut": 175,
      "ion": 176,
      "ot": 177,
      "'s": 178,
      "et": 179,
      "Ġre": 180,
      "Ġon": 181,
      "Ġha": 182,
      "ent": 183,
      "ct": 184,
      "Ġthis": 185,
      "ld": 186,
      "ver": 187,
      "Ġso": 188,
      "ay": 189,
      "se": 190,
      "all": 191,
      "Ġst": 192,
      "st": 193,
      "ro": 194,
      "id": 195,
      "ig": 196,
      "ur": 197,
      "ly": 198,
      "ch": 199,
      "Ġhe": 200,
      "ke": 201,
      "Ġfor": 202,
      "ce": 203,
      "Ġthey": 204,
      "Ġwas": 205,
      "ra": 206,
      "Ġan": 207,
      "im": 208,
      "Ġdo": 209,
      "ir": 210,
      "Ġare": 211,
      "Ġu": 212,
      "Ġli": 213,
      "th": 214,
      "Ġgo": 215,
      "ith": 216,
      "op": 217,
      "ally": 218,
      "Ġk": 219,
      "am": 220,
      "Ġwith": 221,
      "Ġhave": 222,
      "Ġse": 223,
      "Ġab": 224,
      "Ġbut": 225,
      "Ġwhat": 226,
      "Ġcan": 227,
      "Ġas": 228,
      "Ġmo": 229,
      "ation": 230,
      "Ġj": 231,
      "Ġ-": 232,
      "Ġ--": 233,
      "out": 234,
      "ht": 235,
      "Ġsh": 236,
      "ol": 237,
      "Ġwor": 238,
      "Ġne": 239,
      "Ġcom": 240,
      "ere": 241,
      "Ġat": 242,
      "Ġme": 243,
      "'t": 244,
      "ad": 245,
      "very": 246,
      "ould": 247,
      "Ġch": 248,
      "Ġnot": 249,
      "Ġthere": 250,
      "Ġabout": 251,
      "Ġr": 252,
      "Ġall": 253,
      "ill": 254,
      "ant": 255,
      "ter": 256,
      "ge": 257,
      "il": 258,
      "Ġfr": 259,
      "Ġsom": 260,
      "ust": 261,
      "ul": 262,
      "Ġmy": 263,
      "Ġex": 264,
      "oo": 265,
      "ers": 266,
      "Ġor": 267,
      "Ġde": 268,
      "Ġpro": 269,
      "use": 270,
      "ight": 271,
      "Ġpe": 272,
      "Ġone": 273,
      "Ġcon": 274,
      "Ġ\"": 275,
      "art": 276,
      "Ġpeop": 277,
      "Ġpeople": 278,
      "Ġlike": 279,
      "ear": 280,
      "'re": 281,
      "um": 282,
      "pp": 283,
      "Ġbec": 284,
      "ck": 285,
      "ess": 286,
      "Ġma": 287,
      "ies": 288,
      "ate": 289,
      "ure": 290,
      "ity": 291,
      "Ġif": 292,
      "Ġfrom": 293,
      "est": 294,
      "ive": 295,
      "Ġal": 296,
      "Ġv": 297,
      "Ġkn": 298,
      "Ġour": 299,
      "ect": 300,
      "nt": 301,
      "if": 302,
      "ist": 303,
      "ble": 304,
      "qu": 305,
      "Ġnow": 306,
      "Ġus": 307,
      "Ġjust": 308,
      "Ġte": 309,
      "ind": 310,
      "Ġout": 311,
      "ink": 312,
      "Ġthese": 313,
      "Ġint": 314,
      "Ġknow": 315,
      "rou": 316,
      "un": 317,
      "ause": 318,
      "Ġsp": 319,
      "Ġwhen": 320,
      "od": 321,
      "ook": 322,
      "Ġthing": 323,
      "Ġbecause": 324,
      "Ġwho": 325,
      "Ġtr": 326,
      "Ġthem": 327,
      "Ġsee": 328,
      "ie": 329,
      "Ġthink": 330,
      "and": 331,
      "Ġvery": 332,
      "os": 333,
      "her": 334,
      "Ġup": 335,
      "ort": 336,
      "Ġpl": 337,
      "Ġby": 338,
      "Ġget": 339,
      "Ġsome": 340,
      "Ġhow": 341,
      "ci": 342,
      "ich": 343,
      "Ġgoing": 344,
      "iv": 345,
      "Ġact": 346,
      "one": 347,
      "ain": 348,
      "Ġmore": 349,
      "Ġhad": 350,
      "Ġyour": 351,
      "Ġ1": 352,
      "Ġim": 353,
      "el": 354,
      "og": 355,
      "Ġyear": 356,
      "Ġtim": 357,
      "Ġsa": 358,
      "Ġwould": 359,
      "Ġwere": 360,
      "em": 361,
      "Ġsu": 362,
      "Ġen": 363,
      "Ġlook": 364,
      "Ġwhich": 365,
      "Ġtheir": 366,
      "Ġta": 367,
      "ine": 368,
      "00": 369,
      "our": 370,
      "Ġhere": 371,
      "ment": 372,
      "ame": 373,
      "Ġcomp": 374,
      "Ġwant": 375,
      "Ġwork": 376,
      "Ġreally": 377,
      "ast": 378,
      "Ġthan": 379,
      "Ġco": 380,
      "ap": 381,
      "iz": 382,
      "ually": 383,
      "ous": 384,
      "Ġle": 385,
      "Ġworld": 386,
      "ard": 387,
      "act": 388,
      ".\"": 389,
      "Ġthen": 390,
      "ack": 391,
      "gh": 392,
      "'ve": 393,
      "Ġevery": 394,
      "are": 395,
      "reat": 396,
      "Ġway": 397,
      "hing": 398,
      "ose": 399,
      "'m": 400,
      "Ġman": 401,
      "Ġtime": 402,
      "Ġhas": 403,
      "Ġper": 404,
      "Ġun": 405,
      "ans": 406,
      "ab": 407,
      "Ġev": 408,
      "Ġoth": 409,
      "Ġdon": 410,
      "Ġqu": 411,
      "ag": 412,
      "res": 413,
      "Ġno": 414,
      "Ġexp": 415,
      "Ġactually": 416,
      "Ġcould": 417,
      "Ġwill": 418,
      "Ġfe": 419,
      "ide": 420,
      "Ġwhere": 421,
      "Ġinto": 422,
      "Ġag": 423,
      "ions": 424,
      "ore": 425,
      "ace": 426,
      "Ġsay": 427,
      "ong": 428,
      "ild": 429,
      "ence": 430,
      "Ġdid": 431,
      "Ġyears": 432,
      "Ġother": 433,
      "ud": 434,
      "Ġsomet": 435,
      "Ġthings": 436,
      "Ġam": 437,
      "itt": 438,
      "age": 439,
      "alk": 440,
      "Ġtw": 441,
      "Ġany": 442,
      "Ġaf": 443,
      "Ġcl": 444,
      "Ġright": 445,
      "iff": 446,
      "nder": 447,
      "ach": 448,
      "Ġpr": 449,
      "Ġbeen": 450,
      "Ġnew": 451,
      "Ġshe": 452,
      "ical": 453,
      "Ġmake": 454,
      "Ġdiff": 455,
      "Ġhapp": 456,
      "Ġar": 457,
      "so": 458,
      "Ġneed": 459,
      "Ġwell": 460,
      "Ġover": 461,
      "ip": 462,
      "Ġpo": 463,
      "Ġstart": 464,
      "Ġfir": 465,
      "Ġbu": 466,
      "Ġpart": 467,
      "Ġ2": 468,
      "fe": 469,
      "Ġro": 470,
      "Ġdis": 471,
      "Ġsomething": 472,
      "Ġthose": 473,
      "red": 474,
      "Ġfirst": 475,
      "Ġsaid": 476,
      "ree": 477,
      "Ġimp": 478,
      "ice": 479,
      "own": 480,
      "Ġtwo": 481,
      "Ġmu": 482,
      "ia": 483,
      "ry": 484,
      "Ġback": 485,
      "pt": 486,
      "ite": 487,
      "Ġlo": 488,
      "ory": 489,
      "ount": 490,
      "orm": 491,
      "round": 492,
      "Ġchan": 493,
      "Ġmuch": 494,
      "Ġgot": 495,
      "olog": 496,
      "ens": 497,
      "Ġcall": 498,
      "Ġdiffere": 499,
      "ign": 500,
      "Ġalso": 501,
      "de": 502,
      "Ġph": 503,
      "Ġâ": 504,
      "ass": 505,
      "ff": 506,
      "Ġmost": 507,
      "Ġkind": 508,
      "ound": 509,
      "sel": 510,
      "ater": 511,
      "cent": 512,
      "ib": 513,
      "ittle": 514,
      "Ġspe": 515,
      "Ġlot": 516,
      "Ġlittle": 517,
      "Ġcont": 518,
      "Ġac": 519,
      "ght": 520,
      "ue": 521,
      "ac": 522,
      "Ġtalk": 523,
      "Ġeven": 524,
      "Ġbet": 525,
      "ome": 526,
      "ult": 527,
      "ple": 528,
      "way": 529,
      "ber": 530,
      "Ġhis": 531,
      "Ġdes": 532,
      "ves": 533,
      "Ġonly": 534,
      "Ġres": 535,
      "king": 536,
      "Ġad": 537,
      "Ġlife": 538,
      "vel": 539,
      "ving": 540,
      "ell": 541,
      "Ġunder": 542,
      "Ġsy": 543,
      "ody": 544,
      "Ġday": 545,
      "ated": 546,
      "ru": 547,
      "co": 548,
      "Ġmany": 549,
      "Ġbl": 550,
      "Ġhum": 551,
      "able": 552,
      "ep": 553,
      "rain": 554,
      "Ġtake": 555,
      "ations": 556,
      "Ġher": 557,
      "Ġind": 558,
      "ĠâĻ": 559,
      "ms": 560,
      "Ġlet": 561,
      "Ġbr": 562,
      "Ġgood": 563,
      "Ġdifferent": 564,
      "Ġcomm": 565,
      "ick": 566,
      "Ġdoes": 567,
      "ph": 568,
      "Ġreal": 569,
      "ish": 570,
      "other": 571,
      "ial": 572,
      "ict": 573,
      "int": 574,
      "rough": 575,
      "ood": 576,
      "Ġaround": 577,
      "ase": 578,
      "ire": 579,
      "Ġide": 580,
      "Ġthrough": 581,
      "Ġdown": 582,
      "Ġinter": 583,
      "Ġmay": 584,
      "du": 585,
      "Ġput": 586,
      "Ġsc": 587,
      "ents": 588,
      "pl": 589,
      "Ġpre": 590,
      "cess": 591,
      "Ġwhy": 592,
      "urn": 593,
      "Ġem": 594,
      "Ġtell": 595,
      "Ġra": 596,
      "Ġbeing": 597,
      "day": 598,
      "Ġshow": 599,
      "'ll": 600,
      "Ġuse": 601,
      "Ġoff": 602,
      "form": 603,
      "ark": 604,
      "ĠâĻ«": 605,
      "Ġfl": 606,
      "ade": 607,
      "ible": 608,
      "Ġsm": 609,
      "ors": 610,
      "Ġsame": 611,
      "ress": 612,
      "Ġinc": 613,
      "ob": 614,
      "Ġtoo": 615,
      "Ġgen": 616,
      "ether": 617,
      "ary": 618,
      "Ġhappen": 619,
      "Ġtry": 620,
      "Ġthou": 621,
      "Ġcount": 622,
      "ak": 623,
      "Ġproble": 624,
      "Ġcome": 625,
      "pe": 626,
      "ath": 627,
      "ject": 628,
      "ance": 629,
      "Ġgreat": 630,
      "chn": 631,
      "Ġbig": 632,
      "wn": 633,
      "Ġfact": 634,
      "ys": 635,
      "xt": 636,
      "ars": 637,
      "Ġthree": 638,
      "ful": 639,
      "Ġhuman": 640,
      "Ġtechn": 641,
      "iver": 642,
      "stem": 643,
      "Ġdoing": 644,
      "ual": 645,
      "ang": 646,
      "Ġgr": 647,
      "Ġtra": 648,
      "ning": 649,
      "Ġfind": 650,
      "ile": 651,
      "we": 652,
      "Ġwr": 653,
      "ces": 654,
      "Ġpers": 655,
      "Ġapp": 656,
      "ting": 657,
      "Ġthank": 658,
      "per": 659,
      "ved": 660,
      "Ġagain": 661,
      "ord": 662,
      "Ġafter": 663,
      "Ġsur": 664,
      "Ġgu": 665,
      "ower": 666,
      "ric": 667,
      "Ġdec": 668,
      "Ġpercent": 669,
      "Ġbuild": 670,
      "ically": 671,
      "Ġsystem": 672,
      "nds": 673,
      "ied": 674,
      "ology": 675,
      "illion": 676,
      "Ġsim": 677,
      "Ġchild": 678,
      "Ġwom": 679,
      "Ġrem": 680,
      "body": 681,
      "Ġstud": 682,
      "fore": 683,
      "ren": 684,
      "thing": 685,
      "igh": 686,
      "Ġcalled": 687,
      "self": 688,
      "Ġtoday": 689,
      "Ġinv": 690,
      "'d": 691,
      "ons": 692,
      "be": 693,
      "Ġquest": 694,
      "Ġinst": 695,
      "Ġexper": 696,
      "Ġbel": 697,
      "cial": 698,
      "Ġmade": 699,
      "ition": 700,
      "ities": 701,
      "Ġlong": 702,
      "ious": 703,
      "Ġfo": 704,
      "Ġear": 705,
      "ics": 706,
      "Ġlear": 707,
      "Ġshould": 708,
      "Ġown": 709,
      "ating": 710,
      "Ġob": 711,
      "Ġimport": 712,
      "Ġcar": 713,
      "ize": 714,
      "ft": 715,
      "Ġturn": 716,
      "Ġhel": 717,
      "oss": 718,
      "les": 719,
      "te": 720,
      "Ġsci": 721,
      "ates": 722,
      "Ġbo": 723,
      "Ġunderst": 724,
      "Ġsch": 725,
      "Ġgl": 726,
      "Ġbas": 727,
      "ian": 728,
      "Ġlast": 729,
      "Ġdidn": 730,
      "Ġchange": 731,
      "wh": 732,
      "con": 733,
      "Ġfeel": 734,
      "Ġdesign": 735,
      "ty": 736,
      "Ġend": 737,
      "Ġask": 738,
      "Ġanother": 739,
      "ub": 740,
      "erest": 741,
      "Ġke": 742,
      "Ġcour": 743,
      "Ġmean": 744,
      "av": 745,
      "Ġthought": 746,
      "000": 747,
      "Ġperson": 748,
      "Ġstarted": 749,
      "Ġimportant": 750,
      "Ġidea": 751,
      "Ġcreat": 752,
      "ction": 753,
      "Ġplay": 754,
      "Ġhim": 755,
      "Ġits": 756,
      "Ġcr": 757,
      "Ġrel": 758,
      "Ġins": 759,
      "Ġgra": 760,
      "Ġbefore": 761,
      "Ġinterest": 762,
      "als": 763,
      "?\"": 764,
      "Ġnever": 765,
      "Ġfu": 766,
      "Ġbrain": 767,
      "Ġtrans": 768,
      "ail": 769,
      "Ġexam": 770,
      "Ġcoll": 771,
      "Ġhelp": 772,
      "Ġbetter": 773,
      "Ġimag": 774,
      "gan": 775,
      "Ġcons": 776,
      "ution": 777,
      "ily": 778,
      "ool": 779,
      "Ġunderstand": 780,
      "Ġdr": 781,
      "Ġwent": 782,
      "Ġmight": 783,
      "Ġgive": 784,
      "Ġmon": 785,
      "Ġ3": 786,
      "ists": 787,
      "Ġpol": 788,
      "ough": 789,
      "ise": 790,
      "ility": 791,
      "Ġproblem": 792,
      "Ġpoint": 793,
      "Ġsl": 794,
      "Ġbit": 795,
      "Ġfound": 796,
      "Ġcommun": 797,
      "Ġfam": 798,
      "Ġpower": 799,
      "Ġla": 800,
      "Ġstill": 801,
      "Ġsol": 802,
      "ular": 803,
      "Ġable": 804,
      "Ġtog": 805,
      "Ġbelie": 806,
      "Ġtogether": 807,
      "Ġstory": 808,
      "Ġplan": 809,
      "Ġent": 810,
      "Ġnext": 811,
      "lic": 812,
      "Ġcourse": 813,
      "Ġprodu": 814,
      "ros": 815,
      "Ġschool": 816,
      "Ġfew": 817,
      "Ġele": 818,
      "kes": 819,
      "Ġnum": 820,
      "atter": 821,
      "ert": 822,
      "Ġeach": 823,
      "Ġkid": 824,
      "ix": 825,
      "Ġhu": 826,
      "Ġhigh": 827,
      "Ġago": 828,
      "oth": 829,
      "Ġeng": 830,
      "Ġmed": 831,
      "erg": 832,
      "Ġsort": 833,
      "eric": 834,
      "Ġcame": 835,
      "Ġstr": 836,
      "velop": 837,
      "alth": 838,
      "ited": 839,
      "Ġplace": 840,
      "ave": 841,
      "Ġart": 842,
      "mo": 843,
      "Ġmod": 844,
      "Ġter": 845,
      "Ġfin": 846,
      "uc": 847,
      "ween": 848,
      "atch": 849,
      "arch": 850,
      "Ġcent": 851,
      "Ġdat": 852,
      "ness": 853,
      "Ġ20": 854,
      "Ġser": 855,
      "Ġ19": 856,
      "Ġwater": 857,
      "Ġcomple": 858,
      "Ġtechnology": 859,
      "Ġlearn": 860,
      "Ġbetween": 861,
      "Ġused": 862,
      "ather": 863,
      "ense": 864,
      "Ġdevelop": 865,
      "Ġwomen": 866,
      "Ġseco": 867,
      "Ġext": 868,
      "ized": 869,
      "ward": 870,
      "read": 871,
      "Ġquestion": 872,
      "iss": 873,
      "Ġrec": 874,
      "Ġmet": 875,
      "old": 876,
      "ience": 877,
      "Ġfour": 878,
      "ines": 879,
      "Ġsmall": 880,
      "ork": 881,
      "ures": 882,
      "Ġnat": 883,
      "Ġed": 884,
      "Ġ10": 885,
      "Ġop": 886,
      ",\"": 887,
      "Ġatt": 888,
      "Ġdata": 889,
      "Ġcre": 890,
      "Ġlove": 891,
      "Ġmom": 892,
      "Ġok": 893,
      "Ġold": 894,
      "Ġmaybe": 895,
      "Ġmin": 896,
      "Ġlooking": 897,
      "ets": 898,
      "ways": 899,
      "Ġdoesn": 900,
      "az": 901,
      "Ġcomput": 902,
      "Ġexample": 903,
      "Ġameric": 904,
      "Ġgrow": 905,
      "Ġcare": 906,
      "Ġeff": 907,
      "ered": 908,
      "Ġfar": 909,
      "ific": 910,
      "ger": 911,
      "cept": 912,
      "Ġpartic": 913,
      "ram": 914,
      "Ġlight": 915,
      "Ġword": 916,
      "Ġever": 917,
      "Ġmove": 918,
      "Ġel": 919,
      "ven": 920,
      "Ġdone": 921,
      "Ġrep": 922,
      "ced": 923,
      "Ġread": 924,
      "Ġwanted": 925,
      "iness": 926,
      "Ġcap": 927,
      "Ġinform": 928,
      "Ġhard": 929,
      "ute": 930,
      "Ġbi": 931,
      "Ġlar": 932,
      "cy": 933,
      "Ġwar": 934,
      "Ġmus": 935,
      "ably": 936,
      "Ġlive": 937,
      "Ġbeh": 938,
      "Ġstu": 939,
      "Ġchang": 940,
      "Ġwhole": 941,
      "Ġcell": 942,
      "Ġreas": 943,
      "Ġtrying": 944,
      "Ġbus": 945,
      "Ġchildren": 946,
      "Ġposs": 947,
      "Ġbuilding": 948,
      "Ġexpl": 949,
      "ative": 950,
      "Ġsecond": 951,
      "conom": 952,
      "Ġless": 953,
      "Ġhealth": 954,
      "Ġalways": 955,
      "oney": 956,
      "Ġmillion": 957,
      "Ġsk": 958,
      "ross": 959,
      "Ġworking": 960,
      "ational": 961,
      "Ġgener": 962,
      "Ġgiv": 963,
      "Ġaway": 964,
      "selves": 965,
      "ah": 966,
      "ism": 967,
      "Ġeconom": 968,
      "Ġbelieve": 969,
      "ands": 970,
      "Ġproject": 971,
      "ope": 972,
      "Ġsupp": 973,
      "ote": 974,
      "Ġcountry": 975,
      "Ġca": 976,
      "Ġcor": 977,
      "ps": 978,
      "ments": 979,
      "Ġeverything": 980,
      "Ġ5": 981,
      "ural": 982,
      "Ġresp": 983,
      "cer": 984,
      "ird": 985,
      "Ġuniver": 986,
      "Ġfive": 987,
      "Ġbook": 988,
      "Ġspace": 989,
      "ries": 990,
      "ne": 991,
      "vers": 992,
      "Ġafric": 993,
      "Ġfrie": 994,
      "Ġusing": 995,
      "Ġsub": 996,
      "..": 997,
      "Ġopen": 998,
      "Ġcou": 999,
      "Ġhome": 1000,
      "Ġorgan": 1001,
      "Ġinformation": 1002,
      "hip": 1003,
      "Ġmeans": 1004,
      "Ġnumber": 1005,
      "Ġpres": 1006,
      "nect": 1007,
      "Ġvis": 1008,
      "no": 1009,
      "Ġpict": 1010,
      "ead": 1011,
      "ruct": 1012,
      "Ġthinking": 1013,
      "Ġanim": 1014,
      "Ġrun": 1015,
      "Ġmoney": 1016,
      "Ġform": 1017,
      "ks": 1018,
      "Ġtimes": 1019,
      "Ġinf": 1020,
      "led": 1021,
      "Ġsing": 1022,
      "Ġtook": 1023,
      "gin": 1024,
      "Ġpub": 1025,
      "vern": 1026,
      "Ġlead": 1027,
      "Ġcompan": 1028,
      "Ġcreate": 1029,
      "Ġintern": 1030,
      "Ġacc": 1031,
      "Ġhand": 1032,
      "Ġkids": 1033,
      "ital": 1034,
      "Ġwalk": 1035,
      "Ġprob": 1036,
      "Ġprog": 1037,
      "Ġspec": 1038,
      "Ġ4": 1039,
      "Ġbecome": 1040,
      "gg": 1041,
      "Ġprocess": 1042,
      "ues": 1043,
      "Ġmind": 1044,
      "Ġfut": 1045,
      "ract": 1046,
      "Ġdoll": 1047,
      "Ġgovern": 1048,
      "cr": 1049,
      "Ġreg": 1050,
      "its": 1051,
      "aces": 1052,
      "Ġteach": 1053,
      "ten": 1054,
      "ock": 1055,
      "Ġcle": 1056,
      "Ġhead": 1057,
      "air": 1058,
      "Ġconf": 1059,
      "Ġleft": 1060,
      "ale": 1061,
      "Ġgetting": 1062,
      "alf": 1063,
      "Ġinteresting": 1064,
      "Ġbest": 1065,
      "Ġglob": 1066,
      "Ġfuture": 1067,
      "sw": 1068,
      "Ġenerg": 1069,
      "aut": 1070,
      "Ġmark": 1071,
      "Ġset": 1072,
      "ouse": 1073,
      "iew": 1074,
      "Ġsocial": 1075,
      "Ġenough": 1076,
      "ories": 1077,
      "pr": 1078,
      "Ġgrou": 1079,
      "Ġquite": 1080,
      "Ġbring": 1081,
      "Ġcity": 1082,
      "iting": 1083,
      "Ġpat": 1084,
      "Ġmonth": 1085,
      "Ġwo": 1086,
      "Ġcur": 1087,
      "Ġcam": 1088,
      "ention": 1089,
      "Ġjo": 1090,
      "ull": 1091,
      "Ġfood": 1092,
      "Ġz": 1093,
      "ew": 1094,
      "Ġhappened": 1095,
      "Ġcomes": 1096,
      "Ġsense": 1097,
      "Ġenergy": 1098,
      "Ġcontro": 1099,
      "Ġmaking": 1100,
      "Ġansw": 1101,
      "Ġwithout": 1102,
      "Ġconnect": 1103,
      "Ġfun": 1104,
      "Ġearth": 1105,
      "Ġpass": 1106,
      "Ġtalking": 1107,
      "Ġjob": 1108,
      "Ġprobably": 1109,
      "ont": 1110,
      "ety": 1111,
      "Ġgre": 1112,
      "Ġscience": 1113,
      "Ġyoun": 1114,
      "ier": 1115,
      "Ġsign": 1116,
      "Ġphys": 1117,
      "Ġadd": 1118,
      "ertain": 1119,
      "ever": 1120,
      "Ġchar": 1121,
      "ices": 1122,
      "Ġmen": 1123,
      "Ġtold": 1124,
      "Ġpop": 1125,
      "Ġpret": 1126,
      "Ġkeep": 1127,
      "vir": 1128,
      "Ġcountries": 1129,
      "Ġelect": 1130,
      "Ġwee": 1131,
      "Ġroom": 1132,
      "Ġbegin": 1133,
      "Ġhist": 1134,
      "Ġeas": 1135,
      "ately": 1136,
      "Ġsw": 1137,
      "Ġmoment": 1138,
      "Ġbody": 1139,
      "Ġpretty": 1140,
      "Ġmodel": 1141,
      "Ġsoci": 1142,
      "Ġstuff": 1143,
      "Ġhalf": 1144,
      "Ġsuch": 1145,
      "Ġcol": 1146,
      "Ġbeaut": 1147,
      "Ġty": 1148,
      "Ġprot": 1149,
      "cus": 1150,
      "irl": 1151,
      "Ġrese": 1152,
      "ts": 1153,
      "Ġreason": 1154,
      "Ġside": 1155,
      "nce": 1156,
      "Ġopp": 1157,
      "Ġdist": 1158,
      "ner": 1159,
      "Ġlives": 1160,
      "Ġanything": 1161,
      "Ġallow": 1162,
      "ember": 1163,
      "ient": 1164,
      "Ġcoming": 1165,
      "Ġtop": 1166,
      "Ġstop": 1167,
      "ying": 1168,
      "me": 1169,
      "Ġpie": 1170,
      "Ġpar": 1171,
      "Ġimagine": 1172,
      "Ġbusiness": 1173,
      "viron": 1174,
      "Ġfamily": 1175,
      "Ġdollars": 1176,
      "Ġelse": 1177,
      "Ġamaz": 1178,
      "Ġenviron": 1179,
      "arr": 1180,
      "ogra": 1181,
      "uring": 1182,
      "Ġsound": 1183,
      "Ġhope": 1184,
      "Ġyoung": 1185,
      "Ġbad": 1186,
      "most": 1187,
      "Ġlater": 1188,
      "Ġair": 1189,
      "Ġscient": 1190,
      "Ġglobal": 1191,
      "ince": 1192,
      "Ġwa": 1193,
      "Ġstand": 1194,
      "Ġsaw": 1195,
      "Ġmatter": 1196,
      "Ġord": 1197,
      "Ġresearch": 1198,
      "Ġacross": 1199,
      "fect": 1200,
      "Ġonce": 1201,
      "Ġdet": 1202,
      "ality": 1203,
      "Ġeduc": 1204,
      "gs": 1205,
      "olution": 1206,
      "Ġmakes": 1207,
      "Ġaut": 1208,
      "Ġwhile": 1209,
      "idd": 1210,
      "Ġliving": 1211,
      "where": 1212,
      "Ġsimple": 1213,
      "Ġval": 1214,
      "Ġphot": 1215,
      "Ġhaving": 1216,
      "ream": 1217,
      "Ġseen": 1218,
      "ught": 1219,
      "Ġshare": 1220,
      "Ġexperience": 1221,
      "Ġasked": 1222,
      "Ġrob": 1223,
      "Ġhour": 1224,
      "Ġsays": 1225,
      "Ġyet": 1226,
      "Ġface": 1227,
      "io": 1228,
      "ortun": 1229,
      "ior": 1230,
      "lf": 1231,
      "Ġ200": 1232,
      "Ġey": 1233,
      "man": 1234,
      "Ġfore": 1235,
      "ided": 1236,
      "Ġcult": 1237,
      "Ġalmost": 1238,
      "Ġfig": 1239,
      "Ġlist": 1240,
      "Ġmem": 1241,
      "Ġways": 1242,
      "Ġcase": 1243,
      "Ġremember": 1244,
      "Ġeffect": 1245,
      "ken": 1246,
      "Ġparticular": 1247,
      "imes": 1248,
      "Ġsit": 1249,
      "Ġprof": 1250,
      "Ġbre": 1251,
      "Ġdays": 1252,
      "Ġref": 1253,
      "Ġafrica": 1254,
      "Ġsix": 1255,
      "Ġgoes": 1256,
      "Ġcomplete": 1257,
      "llow": 1258,
      "Ġequ": 1259,
      "Ġhappens": 1260,
      "Ġboth": 1261,
      "Ġmor": 1262,
      "Ġgirl": 1263,
      "Ġnothing": 1264,
      "Ġwatch": 1265,
      "Ġcomputer": 1266,
      "Ġmil": 1267,
      "Ġwonder": 1268,
      "ization": 1269,
      "ings": 1270,
      "Ġmach": 1271,
      "the": 1272,
      "Ġstates": 1273,
      "Ġsure": 1274,
      "Ġpublic": 1275,
      "Ġthous": 1276,
      "Ġpicture": 1277,
      "allen": 1278,
      "Ġplanet": 1279,
      "Ġlab": 1280,
      "ots": 1281,
      "Ġenvironment": 1282,
      "Ġpolit": 1283,
      "oc": 1284,
      "Ġsingle": 1285,
      "Ġinside": 1286,
      "Ġwhether": 1287,
      "Ġbasically": 1288,
      "Ġtest": 1289,
      "Ġproblems": 1290,
      "Ġwithin": 1291,
      "Ġcommunity": 1292,
      "Ġvide": 1293,
      "Ġloc": 1294,
      "Ġunt": 1295,
      "Ġsomeone": 1296,
      "ready": 1297,
      "arent": 1298,
      "ilt": 1299,
      "Ġcertain": 1300,
      "iter": 1301,
      "Ġalready": 1302,
      "ash": 1303,
      "Ġsuc": 1304,
      "Ġlevel": 1305,
      "Ġrest": 1306,
      "ina": 1307,
      "ime": 1308,
      "Ġokay": 1309,
      "ott": 1310,
      "aps": 1311,
      "med": 1312,
      "Ġdise": 1313,
      "Ġdef": 1314,
      "orn": 1315,
      "Ġbillion": 1316,
      "Ġsou": 1317,
      "ograph": 1318,
      "Ġlang": 1319,
      "ants": 1320,
      "Ġage": 1321,
      "Ġanswer": 1322,
      "Ġge": 1323,
      "Ġmusic": 1324,
      "Ġchallen": 1325,
      "Ġsaying": 1326,
      "Ġhear": 1327,
      "ank": 1328,
      "Ġche": 1329,
      "Ġeverybody": 1330,
      "Ġpossible": 1331,
      "Ġlooked": 1332,
      "Ġcontrol": 1333,
      "Ġlangu": 1334,
      "na": 1335,
      "Ġstate": 1336,
      "unch": 1337,
      "Ġexact": 1338,
      "ases": 1339,
      "ulation": 1340,
      "Ġexc": 1341,
      "Ġpain": 1342,
      "Ġoften": 1343,
      "ivid": 1344,
      "osed": 1345,
      "ins": 1346,
      "Ġhistory": 1347,
      "Ġamazing": 1348,
      "Ġdisco": 1349,
      "work": 1350,
      "Ġass": 1351,
      "less": 1352,
      "Ġcontin": 1353,
      "itive": 1354,
      "Ġnet": 1355,
      "Ġmag": 1356,
      "Ġiss": 1357,
      "ury": 1358,
      "Ġideas": 1359,
      "oice": 1360,
      "Ġincred": 1361,
      "Ġmyself": 1362,
      "Ġself": 1363,
      "Ġdire": 1364,
      "Ġsec": 1365,
      "Ġcost": 1366,
      "Ġwrong": 1367,
      "Ġsometimes": 1368,
      "Ġinstead": 1369,
      "Ġnight": 1370,
      "Ġbeautif": 1371,
      "Ġtreat": 1372,
      "ange": 1373,
      "Ġtrue": 1374,
      "imate": 1375,
      "Ġsince": 1376,
      "ield": 1377,
      "Ġyes": 1378,
      "Ġvir": 1379,
      "Ġlaw": 1380,
      "Ġlooks": 1381,
      "Ġted": 1382,
      "ndred": 1383,
      "Ġnor": 1384,
      "Ġdev": 1385,
      "ern": 1386,
      "Ġheart": 1387,
      "Ġguy": 1388,
      "Ġproduct": 1389,
      "Ġnews": 1390,
      "Ġhundred": 1391,
      "Ġunited": 1392,
      "side": 1393,
      "Ġkill": 1394,
      "Ġmonths": 1395,
      "pect": 1396,
      "Ġlarge": 1397,
      "Ġadv": 1398,
      "Ġgovernment": 1399,
      "Ġ[": 1400,
      "Ġdi": 1401,
      "nding": 1402,
      "Ġuntil": 1403,
      "Ġwords": 1404,
      "cle": 1405,
      "Ġentire": 1406,
      "ering": 1407,
      "Ġstre": 1408,
      "Ġfriends": 1409,
      "ware": 1410,
      "ters": 1411,
      "Ġgroup": 1412,
      "lish": 1413,
      "Ġindivid": 1414,
      "Ġclass": 1415,
      "Ġheard": 1416,
      "ron": 1417,
      "ages": 1418,
      "Ġwasn": 1419,
      "Ġfull": 1420,
      "ians": 1421,
      "Ġtre": 1422,
      "Ġterr": 1423,
      "Ġworks": 1424,
      "bers": 1425,
      "Ġcra": 1426,
      "Ġfil": 1427,
      "ivity": 1428,
      "Ġfigure": 1429,
      "Ġhouse": 1430,
      "Ġisn": 1431,
      "ling": 1432,
      "Ġwoman": 1433,
      "get": 1434,
      "oy": 1435,
      "utes": 1436,
      "Ġ15": 1437,
      "aterial": 1438,
      "Ġbeautiful": 1439,
      "Ġincre": 1440,
      "Ġris": 1441,
      "Ġcells": 1442,
      "ired": 1443,
      "Ġcond": 1444,
      "Ġ100": 1445,
      "Ġsomebody": 1446,
      "Ġmic": 1447,
      "Ġgod": 1448,
      "Ġbuilt": 1449,
      "ives": 1450,
      "Ġ30": 1451,
      "Ġorder": 1452,
      "iddle": 1453,
      "br": 1454,
      "uro": 1455,
      "Ġconst": 1456,
      "Ġvideo": 1457,
      "vious": 1458,
      "Ġ6": 1459,
      "Ġpay": 1460,
      "Ġresult": 1461,
      "Ġcouple": 1462,
      "Ġindividual": 1463,
      "Ġret": 1464,
      "Ġmust": 1465,
      "land": 1466,
      "ene": 1467,
      "Ġabs": 1468,
      "Ġdeep": 1469,
      "Ġappro": 1470,
      "Ġspecies": 1471,
      "Ġfront": 1472,
      "up": 1473,
      "Ġmiddle": 1474,
      "Ġpast": 1475,
      "Ġdra": 1476,
      "Ġ50": 1477,
      "Ġfollow": 1478,
      "Ġinternet": 1479,
      "Ġname": 1480,
      "Ġcancer": 1481,
      "Ġview": 1482,
      "eah": 1483,
      "Ġnature": 1484,
      "Ġpiece": 1485,
      "Ġline": 1486,
      "Ġ'": 1487,
      "Ġquick": 1488,
      "Ġcal": 1489,
      "Ġland": 1490,
      "Ġplaces": 1491,
      "Ġaud": 1492,
      "Ġcollect": 1493,
      "Ġmaterial": 1494,
      "ustr": 1495,
      "Ġtool": 1496,
      "Ġobject": 1497,
      "Ġmarket": 1498,
      "Ġeducation": 1499,
      "Ġcompletely": 1500,
      "Ġlanguage": 1501,
      "to": 1502,
      "Ġav": 1503,
      "tern": 1504,
      "Ġbecame": 1505,
      "Ġknew": 1506,
      "aper": 1507,
      "ental": 1508,
      "Ġthough": 1509,
      "line": 1510,
      "Ġsuccess": 1511,
      "Ġexactly": 1512,
      "atic": 1513,
      "Ġdecided": 1514,
      "Ġeveryone": 1515,
      "Ġinno": 1516,
      "Ġstories": 1517,
      "Ġsociety": 1518,
      "âĢ": 1519,
      "Ġengine": 1520,
      "ined": 1521,
      "omes": 1522,
      "Ġlearned": 1523,
      "cing": 1524,
      "ond": 1525,
      "Ġinvest": 1526,
      "Ġexperim": 1527,
      "Ġfree": 1528,
      "Ġarch": 1529,
      "ien": 1530,
      "uck": 1531,
      "Ġid": 1532,
      "Ġtaking": 1533,
      "Ġdru": 1534,
      "Ġstudy": 1535,
      "bs": 1536,
      "gest": 1537,
      "Ġtrain": 1538,
      "Ġstudents": 1539,
      "he": 1540,
      "Ġmother": 1541,
      "Ġagainst": 1542,
      "Ġhuge": 1543,
      "Ġoce": 1544,
      "Ġbro": 1545,
      "Ġblack": 1546,
      "Ġhappening": 1547,
      "Ġ9": 1548,
      "Ġamerica": 1549,
      "ats": 1550,
      "Ġbra": 1551,
      "Ġbab": 1552,
      "Ġgets": 1553,
      "ared": 1554,
      "Ġturns": 1555,
      "Ġmess": 1556,
      "ator": 1557,
      "cl": 1558,
      "dd": 1559,
      "Ġitself": 1560,
      "Ġmeet": 1561,
      "Ġstruct": 1562,
      "Ġmeas": 1563,
      "ision": 1564,
      "Ġpos": 1565,
      "Ġalong": 1566,
      "Ġanimals": 1567,
      "Ġclose": 1568,
      "Ġmass": 1569,
      "Ġcompany": 1570,
      "Ġgreen": 1571,
      "Ġdeal": 1572,
      "Ġrather": 1573,
      "Ġquestions": 1574,
      "li": 1575,
      "Ġmiss": 1576,
      "ane": 1577,
      "Ġteam": 1578,
      "Ġsex": 1579,
      "Ġopportun": 1580,
      "Ġclear": 1581,
      "Ġthird": 1582,
      "Ġthemselves": 1583,
      "ibly": 1584,
      "âĢĻ": 1585,
      "Ġred": 1586,
      "Ġourselves": 1587,
      "Ġones": 1588,
      "Ġvi": 1589,
      "Ġant": 1590,
      "Ġuniverse": 1591,
      "Ġmath": 1592,
      "ional": 1593,
      "ape": 1594,
      "Ġkinds": 1595,
      "Ġunivers": 1596,
      "Ġhar": 1597,
      "acter": 1598,
      "Ġmar": 1599,
      "Ġhold": 1600,
      "etic": 1601,
      "rop": 1602,
      "ident": 1603,
      "icult": 1604,
      "Ġwind": 1605,
      "Ġfund": 1606,
      "aster": 1607,
      "itting": 1608,
      "ients": 1609,
      "Ġstep": 1610,
      "Ġjour": 1611,
      "Ġparent": 1612,
      "ames": 1613,
      "Ġ7": 1614,
      "ogn": 1615,
      "row": 1616,
      "Ġhours": 1617,
      "Ġleg": 1618,
      "ability": 1619,
      "Ġcreated": 1620,
      "Ġrelations": 1621,
      "Ġrev": 1622,
      "Ġmill": 1623,
      "Ġcouldn": 1624,
      "Ġbehav": 1625,
      "Ġda": 1626,
      "Ġ8": 1627,
      "Ġes": 1628,
      "ones": 1629,
      "sy": 1630,
      "Ġcomplex": 1631,
      "vation": 1632,
      "Ġsun": 1633,
      "Ġdep": 1634,
      "Ġprov": 1635,
      "Ġyeah": 1636,
      "Ġgame": 1637,
      "Ġnorm": 1638,
      "Ġminutes": 1639,
      "Ġworked": 1640,
      "haps": 1641,
      "Ġmot": 1642,
      "Ġhy": 1643,
      "Ġperhaps": 1644,
      "Ġothers": 1645,
      "Ġill": 1646,
      "att": 1647,
      "ctor": 1648,
      "Ġdisease": 1649,
      "Ġsouth": 1650,
      "Ġste": 1651,
      "Ġfinally": 1652,
      "Ġfocus": 1653,
      "Ġcolle": 1654,
      "Ġfly": 1655,
      "Ġindia": 1656,
      "Ġprotect": 1657,
      "Ġlisten": 1658,
      "Ġexpect": 1659,
      "Ġdifficult": 1660,
      "Ġrad": 1661,
      "Ġprogram": 1662,
      "rib": 1663,
      "Ġexist": 1664,
      "ming": 1665,
      "Ġthousands": 1666,
      "face": 1667,
      "ĠâĢ": 1668,
      "...": 1669,
      "Ġlots": 1670,
      "Ġdem": 1671,
      "Ġfield": 1672,
      "Ġnetwork": 1673,
      "Ġliter": 1674,
      "Ġleast": 1675,
      "ush": 1676,
      "not": 1677,
      "Ġpot": 1678,
      "cc": 1679,
      "Ġfre": 1680,
      "Ġpred": 1681,
      "Ġdeath": 1682,
      "Ġrecent": 1683,
      "ples": 1684,
      "Ġearly": 1685,
      "wards": 1686,
      "Ġwon": 1687,
      "Ġbott": 1688,
      "Ġguys": 1689,
      "Ġnatural": 1690,
      "urs": 1691,
      "istic": 1692,
      "Ġcir": 1693,
      "Ġho": 1694,
      "Ġvar": 1695,
      "ake": 1696,
      "Ġchr": 1697,
      "Ġve": 1698,
      "Ġdig": 1699,
      "Ġgave": 1700,
      "Ġhappy": 1701,
      "Ġextra": 1702,
      "Ġspeak": 1703,
      "iqu": 1704,
      "ially": 1705,
      "Ġoutside": 1706,
      "Ġsuper": 1707,
      "Ġsens": 1708,
      "ination": 1709,
      "ĠâĢĶ": 1710,
      "ented": 1711,
      "Ġoper": 1712,
      "Ġamount": 1713,
      "ither": 1714,
      "Ġtaken": 1715,
      "Ġdifference": 1716,
      "ns": 1717,
      "Ġlim": 1718,
      "Ġsystems": 1719,
      "Ġfail": 1720,
      "Ġduring": 1721,
      "Ġyork": 1722,
      "Ġchanged": 1723,
      "ential": 1724,
      "Ġmachine": 1725,
      "Ġrecord": 1726,
      "ium": 1727,
      "Ġseven": 1728,
      "Ġobvious": 1729,
      "Ġdel": 1730,
      "Ġlearning": 1731,
      "Ġrelationship": 1732,
      "Ġple": 1733,
      "Ġeuro": 1734,
      "ider": 1735,
      "olved": 1736,
      "Ġtyp": 1737,
      "cul": 1738,
      "Ġdream": 1739,
      "Ġinteract": 1740,
      "Ġbehind": 1741,
      "Ġgiven": 1742,
      "Ġcities": 1743,
      "Ġleave": 1744,
      "utions": 1745,
      "Ġsupport": 1746,
      "Ġchina": 1747,
      "Ġincl": 1748,
      "Ġident": 1749,
      "ological": 1750,
      "Ġamerican": 1751,
      "Ġcut": 1752,
      "Ġhands": 1753,
      "well": 1754,
      "ster": 1755,
      "Ġarea": 1756,
      "Ġshort": 1757,
      "gen": 1758,
      "Ġwall": 1759,
      "Ġpick": 1760,
      "Ġnorth": 1761,
      "vered": 1762,
      "Ġtakes": 1763,
      "Ġgrand": 1764,
      "Ġcentury": 1765,
      "aking": 1766,
      "Ġturned": 1767,
      "ully": 1768,
      "era": 1769,
      "Ġcommunic": 1770,
      "Ġeyes": 1771,
      "Ġintell": 1772,
      "Ġarg": 1773,
      "Ġbeginning": 1774,
      "Ġnon": 1775,
      "Ġreach": 1776,
      "cious": 1777,
      "Ġcommon": 1778,
      "ides": 1779,
      "Ġsym": 1780,
      "Ġeasy": 1781,
      "inary": 1782,
      "Ġseeing": 1783,
      "Ġviol": 1784,
      "Ġ...": 1785,
      "Ġmoving": 1786,
      "Ġdemo": 1787,
      "Ġextre": 1788,
      "Ġcompanies": 1789,
      "ased": 1790,
      "olute": 1791,
      "Ġexplain": 1792,
      "Ġlocal": 1793,
      "ature": 1794,
      "verage": 1795,
      "Ġsqu": 1796,
      "Ġeight": 1797,
      "Ġfish": 1798,
      "Ġeurope": 1799,
      "Ġlow": 1800,
      "Ġtrad": 1801,
      "Ġmaj": 1802,
      "Ġtem": 1803,
      "Ġblue": 1804,
      "ret": 1805,
      "Ġserv": 1806,
      "Ġevent": 1807,
      "Ġopt": 1808,
      "Ġyourself": 1809,
      "Ġterms": 1810,
      "Ġwhatever": 1811,
      "Ġaccess": 1812,
      "Ġsent": 1813,
      "Ġmedia": 1814,
      "ply": 1815,
      "Ġstay": 1816,
      "what": 1817,
      "Ġabsolute": 1818,
      "Ġbehavior": 1819,
      "Ġoil": 1820,
      "Ġtot": 1821,
      "Ġfather": 1822,
      "aring": 1823,
      "Ġneeded": 1824,
      "Ġpopulation": 1825,
      "Ġculture": 1826,
      "ges": 1827,
      "Ġbreak": 1828,
      "pped": 1829,
      "elt": 1830,
      "Ġocean": 1831,
      "Ġpowerful": 1832,
      "Ġimage": 1833,
      "Ġsimply": 1834,
      "Ġneeds": 1835,
      "Ġbegan": 1836,
      "year": 1837,
      "itions": 1838,
      "Ġperfect": 1839,
      "Ġreality": 1840,
      "Ġinstit": 1841,
      "Ġpatter": 1842,
      "Ġweek": 1843,
      "sych": 1844,
      "Ġess": 1845,
      "Ġrealized": 1846,
      "Ġimpro": 1847,
      "ison": 1848,
      "astic": 1849,
      "Ġap": 1850,
      "ted": 1851,
      "itch": 1852,
      "Ġocc": 1853,
      "Ġcy": 1854,
      "Ġpsych": 1855,
      "Ġemot": 1856,
      "Ġmajor": 1857,
      "ude": 1858,
      "Ġparts": 1859,
      "Ġparents": 1860,
      "idence": 1861,
      "Ġcannot": 1862,
      "Ġ12": 1863,
      "Ġlonger": 1864,
      "iving": 1865,
      "Ġspecial": 1866,
      "ney": 1867,
      "Ġwhite": 1868,
      "Ġsurv": 1869,
      "itect": 1870,
      "Ġchem": 1871,
      "ode": 1872,
      "Ġphone": 1873,
      "Ġfamil": 1874,
      "Ġciv": 1875,
      "Ġpoor": 1876,
      "ĠâĻª": 1877,
      "Ġnational": 1878,
      "Ġrepres": 1879,
      "Ġwonderful": 1880,
      "Ġ18": 1881,
      "els": 1882,
      "cra": 1883,
      "pid": 1884,
      "Ġaudience": 1885,
      "Ġarchitect": 1886,
      "ump": 1887,
      "Ġfriend": 1888,
      "Ġmicro": 1889,
      "Ġfelt": 1890,
      "Ġemb": 1891,
      "Ġhumans": 1892,
      "inal": 1893,
      "Ġperform": 1894,
      "hood": 1895,
      "Ġsize": 1896,
      "Ġpaper": 1897,
      "Ġfall": 1898,
      "Ġcenter": 1899,
      "how": 1900,
      "Ġpress": 1901,
      "ource": 1902,
      "ton": 1903,
      "Ġoh": 1904,
      "ised": 1905,
      "Ġtried": 1906,
      "fully": 1907,
      "Ġpriv": 1908,
      "Ġpract": 1909,
      "Ġbuy": 1910,
      "Ġsurpr": 1911,
      "Ġeconomic": 1912,
      "Ġdark": 1913,
      "Ġspend": 1914,
      "Ġrobot": 1915,
      "Ġsea": 1916,
      "rought": 1917,
      "Ġblood": 1918,
      "Ġconv": 1919,
      "Ġfeed": 1920,
      "ivers": 1921,
      "Ġapproach": 1922,
      "Ġnear": 1923,
      "Ġpresent": 1924,
      "Ġsitu": 1925,
      "Ġquickly": 1926,
      "Ġ40": 1927,
      "Ġspent": 1928,
      "Ġground": 1929,
      "Ġopportunity": 1930,
      "Ġstrong": 1931,
      "ising": 1932,
      "ibility": 1933,
      "Ġmeasure": 1934,
      "osp": 1935,
      "ived": 1936,
      "Ġkey": 1937,
      "Ġfear": 1938,
      "Ġfight": 1939,
      "Ġgone": 1940,
      "crib": 1941,
      "ged": 1942,
      "port": 1943,
      "Ġeither": 1944,
      "Ġscale": 1945,
      "avor": 1946,
      "Ġinterested": 1947,
      "Ġdirect": 1948,
      "ources": 1949,
      "Ġpersonal": 1950,
      "Ġweeks": 1951,
      "mer": 1952,
      "rodu": 1953,
      "Ġtransform": 1954,
      "Ġinsp": 1955,
      "ledge": 1956,
      "Ġextreme": 1957,
      "Ġsum": 1958,
      "Ġrequ": 1959,
      "Ġleaders": 1960,
      "ife": 1961,
      "bo": 1962,
      "Ġpolitical": 1963,
      "dden": 1964,
      "sh": 1965,
      "Ġsudden": 1966,
      "Ġclimate": 1967,
      "Ġchanges": 1968,
      "Ġability": 1969,
      "Ġrecogn": 1970,
      "Ġprofess": 1971,
      "ilar": 1972,
      "Ġconsum": 1973,
      "Ġgrowth": 1974,
      "you": 1975,
      "zy": 1976,
      "Ġsil": 1977,
      "Ġmult": 1978,
      "Ġur": 1979,
      "app": 1980,
      "Ġvers": 1981,
      "Ġknown": 1982,
      "Ġwouldn": 1983,
      "Ġmedic": 1984,
      "com": 1985,
      "Ġsitting": 1986,
      "Ġeat": 1987,
      "Ġrich": 1988,
      "Ġtravel": 1989,
      "ex": 1990,
      "Ġchallenge": 1991,
      "Ġincredible": 1992,
      "Ġwin": 1993,
      "ators": 1994,
      "Ġpen": 1995,
      "izing": 1996,
      "Ġrisk": 1997,
      "Ġlost": 1998,
      "ows": 1999,
      "room": 2000,
      "Ġbill": 2001,
      "bor": 2002,
      "Ġevolution": 2003,
      "Ġfast": 2004,
      "Ġbar": 2005,
      "Ġdest": 2006,
      "Ġvol": 2007,
      "Ġobs": 2008,
      "Ġice": 2009,
      "Ġorig": 2010,
      "Ġbased": 2011,
      "Ġcool": 2012,
      "Ġmov": 2013,
      "Ġeconomy": 2014,
      "end": 2015,
      "ards": 2016,
      "Ġimpact": 2017,
      "Ġmorning": 2018,
      "Ġhundreds": 2019,
      "Ġsat": 2020,
      "ains": 2021,
      "Ġrespons": 2022,
      "Ġphysical": 2023,
      "Ġstreet": 2024,
      "ouch": 2025,
      "Ġprin": 2026,
      "cially": 2027,
      "Ġdie": 2028,
      "ively": 2029,
      "Ġtechnolog": 2030,
      "lt": 2031,
      "Ġenc": 2032,
      "iny": 2033,
      "Ġnice": 2034,
      "Ġwrite": 2035,
      "oh": 2036,
      "Ġaverage": 2037,
      "Ġscientists": 2038,
      "Ġvalue": 2039,
      "Ġshows": 2040,
      "Ġsurface": 2041,
      "Ġgrowing": 2042,
      "of": 2043,
      "Ġphotograph": 2044,
      "ax": 2045,
      "Ġareas": 2046,
      "Ġdevelopment": 2047,
      "Ġcaus": 2048,
      "anger": 2049,
      "by": 2050,
      "Ġneigh": 2051,
      "Ġfeeling": 2052,
      "Ġce": 2053,
      "Ġdna": 2054,
      "Ġslow": 2055,
      "Ġpredict": 2056,
      "Ġcivil": 2057,
      "Ġhosp": 2058,
      "Ġsho": 2059,
      "ral": 2060,
      "Ġbrought": 2061,
      "Ġpur": 2062,
      "Ġcomb": 2063,
      "rent": 2064,
      "Ġhor": 2065,
      "Ġindust": 2066,
      "ony": 2067,
      "ateg": 2068,
      "Ġanimal": 2069,
      "Ġpatients": 2070,
      "entially": 2071,
      "Ġanal": 2072,
      "Ġfeet": 2073,
      "ales": 2074,
      "Ġdraw": 2075,
      "Ġborn": 2076,
      "Ġarm": 2077,
      "Ġstructure": 2078,
      "Ġcop": 2079,
      "ument": 2080,
      "Ġfilm": 2081,
      "Ġpull": 2082,
      "lect": 2083,
      "Ġbox": 2084,
      "uth": 2085,
      "hor": 2086,
      "Ġsoft": 2087,
      "eg": 2088,
      "Ġach": 2089,
      "Ġrele": 2090,
      "Ġredu": 2091,
      "Ġanyone": 2092,
      "Ġcolor": 2093,
      "Ġpa": 2094,
      "Ġvoice": 2095,
      "Ġsimilar": 2096,
      "Ġserious": 2097,
      "Ġforce": 2098,
      "Ġ25": 2099,
      "ny": 2100,
      "Ġfoot": 2101,
      "Ġbottom": 2102,
      "Ġbene": 2103,
      "Ġnumbers": 2104,
      "Ġattention": 2105,
      "Ġmovement": 2106,
      "Ġunf": 2107,
      "Ġrealize": 2108,
      "Ġliterally": 2109,
      "ustain": 2110,
      "Ġalone": 2111,
      "ove": 2112,
      "omet": 2113,
      "Ġexperiment": 2114,
      "Ġabsolutely": 2115,
      "Ġscre": 2116,
      "erm": 2117,
      "Ġsoon": 2118,
      "Ġimages": 2119,
      "Ġunderstanding": 2120,
      "Ġhot": 2121,
      "Ġstage": 2122,
      "Ġmain": 2123,
      "Ġtext": 2124,
      "ression": 2125,
      "Ġbooks": 2126,
      "ler": 2127,
      "Ġcamp": 2128,
      "Ġmillions": 2129,
      "Ġmole": 2130,
      "Ġdead": 2131,
      "Ġmap": 2132,
      "Ġknowledge": 2133,
      "acy": 2134,
      "ule": 2135,
      "Ġsle": 2136,
      "Ġball": 2137,
      "Ġmount": 2138,
      "Ġdeg": 2139,
      "Ġseems": 2140,
      "Ġstarting": 2141,
      "Ġfac": 2142,
      "Ġrock": 2143,
      "Ġfundam": 2144,
      "Ġprom": 2145,
      "ified": 2146,
      "Ġwrote": 2147,
      "Ġmeaning": 2148,
      "Ġtools": 2149,
      "ned": 2150,
      "Ġfavor": 2151,
      "Ġstra": 2152,
      "Ġspread": 2153,
      "ored": 2154,
      "Ġvill": 2155,
      "Ġonline": 2156,
      "Ġforward": 2157,
      "Ġroad": 2158,
      "Ġcrit": 2159,
      "Ġdeveloped": 2160,
      "Ġintellig": 2161,
      "Ġtechnologies": 2162,
      "Ġconvers": 2163,
      "Ġgiving": 2164,
      "Ġrunning": 2165,
      "ford": 2166,
      "Ġguess": 2167,
      "Ġcirc": 2168,
      "ids": 2169,
      "par": 2170,
      "Ġhon": 2171,
      "Ġpolic": 2172,
      "Ġtradition": 2173,
      "Ġflo": 2174,
      "Ġer": 2175,
      "Ġtelling": 2176,
      "Ġrelig": 2177,
      "Ġmiles": 2178,
      "Ġir": 2179,
      "Ġtele": 2180,
      "Ġforest": 2181,
      "Ġinclud": 2182,
      "oud": 2183,
      "Ġfire": 2184,
      "ging": 2185,
      "ploy": 2186,
      "aged": 2187,
      "Ġstat": 2188,
      "aw": 2189,
      "por": 2190,
      "Ġfem": 2191,
      "Ġpost": 2192,
      "Ġdescrib": 2193,
      "bon": 2194,
      "Ġtheory": 2195,
      "ift": 2196,
      "Ġcompet": 2197,
      "ero": 2198,
      "Ġpath": 2199,
      "Ġsuff": 2200,
      "ption": 2201,
      "Ġelectric": 2202,
      "Ġrecently": 2203,
      "iod": 2204,
      "Ġgirls": 2205,
      "Ġissue": 2206,
      "Ġworth": 2207,
      "Ġnobody": 2208,
      "Ġmathem": 2209,
      "Ġtouch": 2210,
      "chan": 2211,
      "Ġtrust": 2212,
      "Ġrevolution": 2213,
      "Ġperiod": 2214,
      "Ġcars": 2215,
      "Ġhig": 2216,
      "Ġweb": 2217,
      "Ġachie": 2218,
      "ency": 2219,
      "Ġrepl": 2220,
      "Ġtruth": 2221,
      "Ġexperien": 2222,
      "bit": 2223,
      "Ġsn": 2224,
      "Ġproper": 2225,
      "Ġemp": 2226,
      "Ġvisual": 2227,
      "Ġsustain": 2228,
      "Ġult": 2229,
      "Ġdepe": 2230,
      "lu": 2231,
      "Ġrul": 2232,
      "ills": 2233,
      "ilities": 2234,
      "Ġvac": 2235,
      "Ġbaby": 2236,
      "Ġconcept": 2237,
      "Ġarr": 2238,
      "ggest": 2239,
      "Ġtype": 2240,
      "Ġsuggest": 2241,
      "Ġcurrent": 2242,
      "Ġsell": 2243,
      "Ġchoo": 2244,
      "Ġamong": 2245,
      "Ġsever": 2246,
      "ades": 2247,
      "Ġplaying": 2248,
      "pecially": 2249,
      "Ġavail": 2250,
      "Ġest": 2251,
      "Ġexcept": 2252,
      "Ġtalked": 2253,
      "Ġmodern": 2254,
      "go": 2255,
      "Ġchance": 2256,
      "Ġespecially": 2257,
      "vent": 2258,
      "Ġdou": 2259,
      "Ġgives": 2260,
      "Ġnormal": 2261,
      "Ġaffect": 2262,
      "ique": 2263,
      "amed": 2264,
      "Ġboy": 2265,
      "Ġissues": 2266,
      "Ġindustry": 2267,
      "Ġsolution": 2268,
      "amp": 2269,
      "ensive": 2270,
      "Ġmedical": 2271,
      "Ġattack": 2272,
      "Ġsolve": 2273,
      "Ġpark": 2274,
      "Ġsold": 2275,
      "Ġcreating": 2276,
      "Ġdeveloping": 2277,
      "Ġgeneral": 2278,
      "Ġinnovation": 2279,
      "Ġshowed": 2280,
      "Ġfur": 2281,
      "ung": 2282,
      "Ġtrack": 2283,
      "Ġuniversity": 2284,
      "ances": 2285,
      "Ġgal": 2286,
      "Ġenglish": 2287,
      "head": 2288,
      "Ġcit": 2289,
      "Ġseveral": 2290,
      "Ġsave": 2291,
      "Ġcapital": 2292,
      "Ġphil": 2293,
      "Ġconscious": 2294,
      "ug": 2295,
      "Ġaw": 2296,
      "Ġdom": 2297,
      "asc": 2298,
      "Ġrate": 2299,
      "Ġchoice": 2300,
      "Ġprop": 2301,
      "iant": 2302,
      "ma": 2303,
      "ished": 2304,
      "Ġreact": 2305,
      "Ġsituation": 2306,
      "Ġbenef": 2307,
      "oices": 2308,
      "Ġgoog": 2309,
      "Ġseem": 2310,
      "Ġreport": 2311,
      "unt": 2312,
      "Ġasking": 2313,
      "Ġsubject": 2314,
      "Ġdigital": 2315,
      "ences": 2316,
      "Ġlay": 2317,
      "Ġpatient": 2318,
      "ped": 2319,
      "asing": 2320,
      "Ġdesigned": 2321,
      "Ġgeneration": 2322,
      "Ġdiscovered": 2323,
      "ipp": 2324,
      "Ġmechan": 2325,
      "Ġplant": 2326,
      "Ġemerg": 2327,
      "Ġcomputers": 2328,
      "Ġreasons": 2329,
      "Ġanybody": 2330,
      "Ġpoll": 2331,
      "Ġresources": 2332,
      "po": 2333,
      "Ġtiny": 2334,
      "Ġbey": 2335,
      "Ġobviously": 2336,
      "gn": 2337,
      "like": 2338,
      "urity": 2339,
      "Ġavailable": 2340,
      "Ġfa": 2341,
      "imens": 2342,
      "Ġsafe": 2343,
      "ban": 2344,
      "Ġknows": 2345,
      "Ġproduce": 2346,
      "Ġhaven": 2347,
      "Ġbeyond": 2348,
      "Ġsong": 2349,
      "ther": 2350,
      "Ġpeace": 2351,
      "Ġclos": 2352,
      "Ġchanging": 2353,
      "ival": 2354,
      "Ġneg": 2355,
      "eed": 2356,
      "Ġast": 2357,
      "Ġsearch": 2358,
      "phere": 2359,
      "Ġsmart": 2360,
      "Ġeye": 2361,
      "come": 2362,
      "Ġbird": 2363,
      "Ġpictures": 2364,
      "iction": 2365,
      "Ġbecomes": 2366,
      "ify": 2367,
      "Ġevidence": 2368,
      "Ġdrive": 2369,
      "Ġgroups": 2370,
      "Ġshape": 2371,
      "Ġimm": 2372,
      "Ġsleep": 2373,
      "Ġdanger": 2374,
      "ites": 2375,
      "Ġsolar": 2376,
      "Ġled": 2377,
      "Ġcompass": 2378,
      "Ġrights": 2379,
      "Ġputting": 2380,
      "Ġwriting": 2381,
      "ister": 2382,
      "Ġaren": 2383,
      "apt": 2384,
      "Ġincredibly": 2385,
      "Ġmob": 2386,
      "erence": 2387,
      "Ġec": 2388,
      "Ġbigger": 2389,
      "Ġinvolved": 2390,
      "Ġjourney": 2391,
      "Ġcitiz": 2392,
      "ires": 2393,
      "Ġrain": 2394,
      "Ġox": 2395,
      "Ġcris": 2396,
      "inese": 2397,
      "Ġviolence": 2398,
      "Ġsend": 2399,
      "Ġoffice": 2400,
      "Ġbasic": 2401,
      "Ġ199": 2402,
      "Ġbed": 2403,
      "Ġsounds": 2404,
      "Ġmessage": 2405,
      "Ġgoogle": 2406,
      "Ġtowards": 2407,
      "ishing": 2408,
      "Ġnine": 2409,
      "erv": 2410,
      "Ġtable": 2411,
      "Ġblock": 2412,
      "Ġflu": 2413,
      "Ġdrugs": 2414,
      "Ġmarr": 2415,
      "oms": 2416,
      "Ġflow": 2417,
      "Ġcarbon": 2418,
      "Ġlikely": 2419,
      "Ġcommunities": 2420,
      "do": 2421,
      "Ġdefin": 2422,
      "Ġver": 2423,
      "lo": 2424,
      "ze": 2425,
      "Ġstru": 2426,
      "Ġlived": 2427,
      "Ġfair": 2428,
      "str": 2429,
      "Ġcertainly": 2430,
      "Ġextraord": 2431,
      "Ġneighbor": 2432,
      "fort": 2433,
      "yn": 2434,
      "arily": 2435,
      "Ġchinese": 2436,
      "book": 2437,
      "Ġport": 2438,
      "Ġspeed": 2439,
      "let": 2440,
      "istan": 2441,
      "Ġaction": 2442,
      "Ġpotential": 2443,
      "lict": 2444,
      "Ġpan": 2445,
      "oring": 2446,
      "Ġlad": 2447,
      "abor": 2448,
      "Ġdrug": 2449,
      "here": 2450,
      "Ġson": 2451,
      "Ġhit": 2452,
      "Ġdied": 2453,
      "Ġrece": 2454,
      "ously": 2455,
      "Ġlea": 2456,
      "Ġ60": 2457,
      "oph": 2458,
      "Ġnecess": 2459,
      "ucle": 2460,
      "Ġadm": 2461,
      "Ġfunction": 2462,
      "ik": 2463,
      "Ġbreat": 2464,
      "Ġclean": 2465,
      "for": 2466,
      "Ġdin": 2467,
      "Ġinternational": 2468,
      "light": 2469,
      "Ġlog": 2470,
      "Ġactiv": 2471,
      "Ġvirt": 2472,
      "Ġtas": 2473,
      "Ġgames": 2474,
      "Ġeth": 2475,
      "ief": 2476,
      "Ġeventually": 2477,
      "Ġtar": 2478,
      "Ġcross": 2479,
      "Ġindeed": 2480,
      "Ġschools": 2481,
      "uly": 2482,
      "Ġbal": 2483,
      "Ġlif": 2484,
      "ips": 2485,
      "Ġplease": 2486,
      "Ġcompassion": 2487,
      "Ġwest": 2488,
      "Ġrules": 2489,
      "Ġsecurity": 2490,
      "Ġdemocra": 2491,
      "Ġsoftware": 2492,
      "une": 2493,
      "Ġ201": 2494,
      "Ġdevice": 2495,
      "Ġprinci": 2496,
      "Ġcode": 2497,
      "ese": 2498,
      "Ġwalking": 2499,
      "Ġprogress": 2500,
      "Ġmal": 2501,
      "Ġneur": 2502,
      "Ġstarts": 2503,
      "Ġscientific": 2504,
      "Ġwish": 2505,
      "Ġfarm": 2506,
      "Ġready": 2507,
      "Ġaccount": 2508,
      "Ġexamples": 2509,
      "Ġcamera": 2510,
      "Ġcharacter": 2511,
      "Ġhigher": 2512,
      "50": 2513,
      "Ġbur": 2514,
      "Ġnucle": 2515,
      "Ġparticip": 2516,
      "Ġcapt": 2517,
      "Ġcrazy": 2518,
      "Ġscreen": 2519,
      "xic": 2520,
      "Ġbacter": 2521,
      "Ġtend": 2522,
      "Ġsuddenly": 2523,
      "Ġsam": 2524,
      "Ġparticularly": 2525,
      "medi": 2526,
      "Ġhospital": 2527,
      "usion": 2528,
      "Ġbiggest": 2529,
      "Ġreturn": 2530,
      "Ġshowing": 2531,
      "Ġtotally": 2532,
      "gth": 2533,
      "Ġnotice": 2534,
      "Ġvision": 2535,
      "Ġpu": 2536,
      "Ġinterv": 2537,
      "Ġbir": 2538,
      "Ġstar": 2539,
      "Ġquality": 2540,
      "Ġsyn": 2541,
      "idge": 2542,
      "rast": 2543,
      "ners": 2544,
      "Ġdiv": 2545,
      "Ġmoved": 2546,
      "Ġconsider": 2547,
      "Ġvari": 2548,
      "Ġrepresent": 2549,
      "Ġdan": 2550,
      "ctors": 2551,
      "ughter": 2552,
      "Ġmovie": 2553,
      "Ġcause": 2554,
      "Ġnarr": 2555,
      "Ġdoor": 2556,
      "Ġvirus": 2557,
      "Ġcollege": 2558,
      "onse": 2559,
      "Ġmemory": 2560,
      "ext": 2561,
      "nal": 2562,
      "Ġlargest": 2563,
      "Ġonto": 2564,
      "Ġapart": 2565,
      "ground": 2566,
      "Ġeverywhere": 2567,
      "Ġprim": 2568,
      "eter": 2569,
      "umb": 2570,
      "ressed": 2571,
      "Ġcreative": 2572,
      "Ġteachers": 2573,
      "Ġexciting": 2574,
      "Ġdiag": 2575,
      "Ġextremely": 2576,
      "verty": 2577,
      "Ġskin": 2578,
      "Ġjobs": 2579,
      "iar": 2580,
      "Ġthreat": 2581,
      "Ġaware": 2582,
      "Ġcheck": 2583,
      "Ġfundamental": 2584,
      "ok": 2585,
      "itary": 2586,
      "Ġprison": 2587,
      "Ġdetail": 2588,
      "Ġfreed": 2589,
      "Ġprojects": 2590,
      "Ġindividuals": 2591,
      "Ġplants": 2592,
      "Ġprint": 2593,
      "Ġeffic": 2594,
      "Ġfix": 2595,
      "antly": 2596,
      "cuss": 2597,
      "Ġessentially": 2598,
      "Ġencou": 2599,
      "Ġfavorite": 2600,
      "Ġchoose": 2601,
      "Ġban": 2602,
      "Ġlink": 2603,
      "Ġpoverty": 2604,
      "isions": 2605,
      "Ġmeant": 2606,
      "Ġhappiness": 2607,
      "Ġx": 2608,
      "Ġcomplic": 2609,
      "Ġwants": 2610,
      "Ġrole": 2611,
      "Ġresponse": 2612,
      "Ġdro": 2613,
      "Ġpassion": 2614,
      "Ġsquare": 2615,
      "Ġchemical": 2616,
      "uit": 2617,
      "Ġsan": 2618,
      "Ġsal": 2619,
      "Ġbank": 2620,
      "Ġpush": 2621,
      "Ġgoal": 2622,
      "Ġanyway": 2623,
      "Ġstudent": 2624,
      "Ġresults": 2625,
      "Ġjud": 2626,
      "osphere": 2627,
      "Ġ80": 2628,
      "Ġdam": 2629,
      "Ġdoctor": 2630,
      "Ġmeth": 2631,
      "Ġperspect": 2632,
      "Ġsupposed": 2633,
      "Ġlabor": 2634,
      "Ġmaterials": 2635,
      "Ġcolleag": 2636,
      "ey": 2637,
      "oid": 2638,
      "Ġintrodu": 2639,
      "Ġcold": 2640,
      "Ġcontext": 2641,
      "Ġaccept": 2642,
      "Ġbirth": 2643,
      "Ġtree": 2644,
      "Ġgas": 2645,
      "Ġeast": 2646,
      "Ġwatching": 2647,
      "Ġtom": 2648,
      "Ġworse": 2649,
      "Ġimmedi": 2650,
      "Ġbuildings": 2651,
      "Ġsky": 2652,
      "Ġjoh": 2653,
      "Ġmodels": 2654,
      "Ġdiscover": 2655,
      "Ġmedicine": 2656,
      "Ġmathemat": 2657,
      "Ġcarry": 2658,
      "Ġorganization": 2659,
      "Ġconflict": 2660,
      "Ġwait": 2661,
      "Ġterror": 2662,
      "Ġgrew": 2663,
      "Ġfurther": 2664,
      "fer": 2665,
      "Ġstick": 2666,
      "Ġsequ": 2667,
      "Ġsepar": 2668,
      "Ġextraordinary": 2669,
      "ai": 2670,
      "Ġmis": 2671,
      "Ġlos": 2672,
      "Ġluck": 2673,
      "Ġspir": 2674,
      "Ġclin": 2675,
      "Ġadult": 2676,
      "Ġearl": 2677,
      "Ġdemocracy": 2678,
      "ery": 2679,
      "ims": 2680,
      "Ġdeb": 2681,
      "Ġcollabor": 2682,
      "Ġpositive": 2683,
      "Ġvillage": 2684,
      "Ġallowed": 2685,
      "Ġtrees": 2686,
      "Ġnamed": 2687,
      "Ġwaste": 2688,
      "Ġ11": 2689,
      "Ġfinan": 2690,
      "Ġconnected": 2691,
      "Ġcontinue": 2692,
      "Ġincluding": 2693,
      "Ġfill": 2694,
      "Ġafrican": 2695,
      "Ġminds": 2696,
      "Ġcat": 2697,
      "Ġusually": 2698,
      "ruction": 2699,
      "Ġsignific": 2700,
      "Ġmagn": 2701,
      "Ġfaster": 2702,
      "Ġine": 2703,
      "oming": 2704,
      "Ġstrateg": 2705,
      "rest": 2706,
      "enom": 2707,
      "Ġimposs": 2708,
      "more": 2709,
      "Ġcoun": 2710,
      "Ġobjects": 2711,
      "Ġshown": 2712,
      "Ġtells": 2713,
      "Ġthousand": 2714,
      "Ġimprove": 2715,
      "Ġfamilies": 2716,
      "Ġbunch": 2717,
      "odies": 2718,
      "apan": 2719,
      "Ġfant": 2720,
      "Ġsomewhere": 2721,
      "Ġbrit": 2722,
      ".,": 2723,
      "Ġbom": 2724,
      "Ġfra": 2725,
      "Ġzero": 2726,
      "Ġrobots": 2727,
      "Ġassum": 2728,
      "Ġcases": 2729,
      "icle": 2730,
      "itten": 2731,
      "Ġstanding": 2732,
      "Ġcrisis": 2733,
      "Ġwife": 2734,
      "Ġlate": 2735,
      "Ġang": 2736,
      "Ġtaught": 2737,
      "Ġpolice": 2738,
      "erve": 2739,
      "Ġabove": 2740,
      "Ġ16": 2741,
      "Ġpresident": 2742,
      "Ġconversation": 2743,
      "Ġwealth": 2744,
      "Ġjapan": 2745,
      "phone": 2746,
      "Ġthanks": 2747,
      "Ġremark": 2748,
      "Ġkilled": 2749,
      "Ġsand": 2750,
      "Ġsource": 2751,
      "Ġfing": 2752,
      "Ġtrial": 2753,
      "Ġtransl": 2754,
      "ee": 2755,
      "ured": 2756,
      "Ġbrains": 2757,
      "Ġincrease": 2758,
      "ring": 2759,
      "Ġcard": 2760,
      "Ġconcer": 2761,
      "Ġrand": 2762,
      "Ġgenes": 2763,
      "Ġgraph": 2764,
      "Ġdetect": 2765,
      "Ġfreedom": 2766,
      "Ġsomehow": 2767,
      "Ġdiscuss": 2768,
      "akes": 2769,
      "Ġlaunch": 2770,
      "Ġwild": 2771,
      "Ġmine": 2772,
      "Ġann": 2773,
      "ops": 2774,
      "Ġtruly": 2775,
      "Ġteacher": 2776,
      "Ġsecret": 2777,
      "Ġtemper": 2778,
      "imp": 2779,
      "Ġfinding": 2780,
      "Ġappear": 2781,
      "Ġunfortun": 2782,
      "Ġlose": 2783,
      "rage": 2784,
      "Ġdoc": 2785,
      "Ġhowever": 2786,
      "Ġdisapp": 2787,
      "Ġpattern": 2788,
      "Ġcart": 2789,
      "Ġmist": 2790,
      "Ġfle": 2791,
      "ulate": 2792,
      "Ġimpossible": 2793,
      "bol": 2794,
      "put": 2795,
      "Ġmanage": 2796,
      "Ġinflu": 2797,
      "men": 2798,
      "Ġbud": 2799,
      "Ġburn": 2800,
      "Ġmars": 2801,
      "Ġfine": 2802,
      "iger": 2803,
      "Ġvict": 2804,
      "Ġsorts": 2805,
      "Ġcentral": 2806,
      "Ġcorre": 2807,
      "ana": 2808,
      "izations": 2809,
      "Ġdecision": 2810,
      "Ġended": 2811,
      "Ġking": 2812,
      "Ġrid": 2813,
      "Ġconditions": 2814,
      "Ġcomplicated": 2815,
      "nces": 2816,
      "Ġhop": 2817,
      "Ġlower": 2818,
      "Ġblind": 2819,
      "Ġlarger": 2820,
      "Ġexcited": 2821,
      "Ġsuccessful": 2822,
      "Ġachieve": 2823,
      "ration": 2824,
      "Ġpack": 2825,
      "eth": 2826,
      "Ġenj": 2827,
      "Ġallows": 2828,
      "Ġcitizens": 2829,
      "ought": 2830,
      "Ġwebs": 2831,
      "Ġisl": 2832,
      "Ġactivity": 2833,
      "Ġdesp": 2834,
      "Ġolder": 2835,
      "Ġ14": 2836,
      "Ġauthor": 2837,
      "ining": 2838,
      "Ġtown": 2839,
      "Ġ17": 2840,
      "Ġstudies": 2841,
      "mend": 2842,
      "Ġchris": 2843,
      "cise": 2844,
      "ued": 2845,
      "Ġkil": 2846,
      "Ġservice": 2847,
      "Ġpolicy": 2848,
      "Ġtraditional": 2849,
      "Ġperspective": 2850,
      "cape": 2851,
      "atory": 2852,
      "Ġstars": 2853,
      "Ġforms": 2854,
      "Ġsite": 2855,
      "Ġmuse": 2856,
      "Ġger": 2857,
      "though": 2858,
      "emic": 2859,
      "others": 2860,
      "Ġminute": 2861,
      "Ġnuclear": 2862,
      "ri": 2863,
      "ission": 2864,
      "Ġreading": 2865,
      "Ġclearly": 2866,
      "Ġalthough": 2867,
      "Ġarchitecture": 2868,
      "Ġlands": 2869,
      "Ġpublish": 2870,
      "Ġjournal": 2871,
      "isms": 2872,
      "Ġinfect": 2873,
      "!\"": 2874,
      "inct": 2875,
      "uss": 2876,
      "Ġafford": 2877,
      "ffic": 2878,
      "Ġterm": 2879,
      "Ġpieces": 2880,
      "Ġproducts": 2881,
      "Ġposition": 2882,
      "rams": 2883,
      "Ġgold": 2884,
      "soci": 2885,
      "Ġmilitary": 2886,
      "Ġstraight": 2887,
      "fact": 2888,
      "ror": 2889,
      "Ġgalax": 2890,
      "Ġcook": 2891,
      "Ġfasc": 2892,
      "Ġkept": 2893,
      "Ġrespect": 2894,
      "Ġintelligence": 2895,
      "oke": 2896,
      "Ġswe": 2897,
      "inated": 2898,
      "Ġfram": 2899,
      "estern": 2900,
      "Ġworkers": 2901,
      "Ġcloud": 2902,
      "ipt": 2903,
      "Ġcontrib": 2904,
      "Ġmuseum": 2905,
      "owd": 2906,
      "Ġheav": 2907,
      "uments": 2908,
      "Ġpoints": 2909,
      "Ġpurp": 2910,
      "Ġhur": 2911,
      "Ġpage": 2912,
      "Ġalg": 2913,
      "cient": 2914,
      "Ġroll": 2915,
      "Ġboard": 2916,
      "Ġlau": 2917,
      "Ġgovernments": 2918,
      "Ġmoral": 2919,
      "Ġmagic": 2920,
      "Ġtraining": 2921,
      "ama": 2922,
      "Ġquant": 2923,
      "tend": 2924,
      "Ġseries": 2925,
      "Ġelectricity": 2926,
      "Ġthrow": 2927,
      "Ġunique": 2928,
      "Ġanymore": 2929,
      "aur": 2930,
      "Ġlines": 2931,
      "Ġbiology": 2932,
      "Ġstrugg": 2933,
      "Ġupon": 2934,
      "Ġloved": 2935,
      "Ġdangerous": 2936,
      "Ġmention": 2937,
      "Ġriver": 2938,
      "ounds": 2939,
      "Ġspecific": 2940,
      "Ġbacteria": 2941,
      "sequ": 2942,
      "Ġprote": 2943,
      "Ġbeings": 2944,
      "Ġglass": 2945,
      "Ġeffort": 2946,
      "Ġhealthy": 2947,
      "Ġurban": 2948,
      "ech": 2949,
      "Ġtv": 2950,
      "Ġphenom": 2951,
      "Ġthroughout": 2952,
      "Ġsolutions": 2953,
      "dom": 2954,
      "ĠĠ": 2955,
      "Ġfort": 2956,
      "Ġphenomen": 2957,
      "Ġhiv": 2958,
      "rap": 2959,
      "Ġdoctors": 2960,
      "Ġtrick": 2961,
      "Ġincreasing": 2962,
      "Ġchrist": 2963,
      "Ġinit": 2964,
      "Ġweren": 2965,
      "Ġoffic": 2966,
      "Ġdecisions": 2967,
      "Ġsmaller": 2968,
      "Ġmachines": 2969,
      "Ġign": 2970,
      "imately": 2971,
      "Ġspect": 2972,
      "Ġenorm": 2973,
      "Ġengage": 2974,
      "Ġstrange": 2975,
      "Ġcareer": 2976,
      "Ġregion": 2977,
      "Ġoxy": 2978,
      "Ġthr": 2979,
      "Ġassoci": 2980,
      "Ġemploy": 2981,
      "Ġinnov": 2982,
      "iversity": 2983,
      "Ġdad": 2984,
      "Ġremind": 2985,
      "Ġdistrib": 2986,
      "Ġhom": 2987,
      "Ġ198": 2988,
      "Ġpatterns": 2989,
      "Ġvacc": 2990,
      "Ġneighborhood": 2991,
      "Ġbodies": 2992,
      "Ġwhe": 2993,
      "Ġtherefore": 2994,
      "Ġslight": 2995,
      "Ġbroad": 2996,
      "Ġrecognize": 2997,
      "Ġara": 2998,
      "Ġsad": 2999,
      "ently": 3000,
      "Ġran": 3001,
      "Ġbecoming": 3002,
      "Ġactual": 3003,
      "Ġ13": 3004,
      "zz": 3005,
      "Ġclim": 3006,
      "Ġearlier": 3007,
      "rep": 3008,
      "iced": 3009,
      "Ġgene": 3010,
      "Ġgreatest": 3011,
      "Ġskills": 3012,
      "Ġprivate": 3013,
      "Ġcritical": 3014,
      "time": 3015,
      "Ġafgh": 3016,
      "Ġ21": 3017,
      "Ġgenetic": 3018,
      "Ġfamous": 3019,
      "Ġseconds": 3020,
      "Ġphysics": 3021,
      "Ġaddress": 3022,
      "Ġprovide": 3023,
      "Ġlistening": 3024,
      "Ġversion": 3025,
      "Ġforget": 3026,
      "amm": 3027,
      "Ġamericans": 3028,
      "Ġexplore": 3029,
      "Ġwaiting": 3030,
      "ologists": 3031,
      "Ġlaws": 3032,
      "Ġfinancial": 3033,
      "back": 3034,
      "ike": 3035,
      "Ġsus": 3036,
      "Ġmental": 3037,
      "itation": 3038,
      "Ġcomfort": 3039,
      "Ġalive": 3040,
      "Ġtrade": 3041,
      "Ġunfortunately": 3042,
      "vision": 3043,
      "Ġwestern": 3044,
      "aging": 3045,
      "Ġanywhere": 3046,
      "Ġprice": 3047,
      "Ġcontent": 3048,
      "Ġhumanity": 3049,
      "Ġwritten": 3050,
      "Ġdiseases": 3051,
      "Ġtreatment": 3052,
      "cies": 3053,
      "Ġmatch": 3054,
      "sect": 3055,
      "Ġatm": 3056,
      "Ġservices": 3057,
      "Ġmolec": 3058,
      "Ġtrou": 3059,
      "Ġpal": 3060,
      "Ġstore": 3061,
      "Ġjump": 3062,
      "Ġwilling": 3063,
      "Ġnone": 3064,
      "Ġforth": 3065,
      "Ġdog": 3066,
      "Ġshot": 3067,
      "Ġexh": 3068,
      "Ġmultip": 3069,
      "Ġfit": 3070,
      "Ġinterview": 3071,
      "ira": 3072,
      "Ġsor": 3073,
      "Ġworry": 3074,
      "Ġgreater": 3075,
      "ustrial": 3076,
      "Ġmobile": 3077,
      "Ġimmediately": 3078,
      "Ġrandom": 3079,
      "bb": 3080,
      "iet": 3081,
      "inating": 3082,
      "lly": 3083,
      "aries": 3084,
      "Ġdeterm": 3085,
      "Ġcosts": 3086,
      "Ġafghan": 3087,
      "ball": 3088,
      "Ġhol": 3089,
      "ays": 3090,
      "iling": 3091,
      "Ġexpensive": 3092,
      "Ġautom": 3093,
      "Ġenvironmental": 3094,
      "Ġcalcul": 3095,
      "iers": 3096,
      "Ġweight": 3097,
      "ceed": 3098,
      "Ġchoices": 3099,
      "Ġcover": 3100,
      "Ġtransport": 3101,
      "Ġfinal": 3102,
      "Ġchallenges": 3103,
      "oon": 3104,
      "Ġcust": 3105,
      "resh": 3106,
      "Ġhero": 3107,
      "Ġinstitutions": 3108,
      "Ġmethod": 3109,
      "Ġtit": 3110,
      "lebr": 3111,
      "Ġhimself": 3112,
      "Ġcelebr": 3113,
      "acity": 3114,
      "Ġwalked": 3115,
      "Ġgradu": 3116,
      "Ġoccur": 3117,
      "Ġfantastic": 3118,
      "gra": 3119,
      "itude": 3120,
      "Ġplastic": 3121,
      "iven": 3122,
      "Ġscr": 3123,
      "Ġdriving": 3124,
      "Ġeffective": 3125,
      "Ġfloor": 3126,
      "Ġcatch": 3127,
      "Ġhous": 3128,
      "iding": 3129,
      "Ġinteg": 3130,
      "ained": 3131,
      "Ġapply": 3132,
      "Ġdecade": 3133,
      "Ġdrink": 3134,
      "Ġneurons": 3135,
      "pro": 3136,
      "Ġtur": 3137,
      "Ġnation": 3138,
      "Ġdecades": 3139,
      "Ġpainting": 3140,
      "Ġdirection": 3141,
      "Ġtypes": 3142,
      "Ġfemale": 3143,
      "iation": 3144,
      "Ġcry": 3145,
      "Ġden": 3146,
      "aly": 3147,
      "ables": 3148,
      "Ġteaching": 3149,
      "Ġbeauty": 3150,
      "Ġvalues": 3151,
      "oty": 3152,
      "Ġhall": 3153,
      "amic": 3154,
      "istics": 3155,
      "Ġsociet": 3156,
      "attle": 3157,
      "Ġoptim": 3158,
      "Ġfamiliar": 3159,
      "ried": 3160,
      "Ġyell": 3161,
      "Ġgun": 3162,
      "Ġrace": 3163,
      "Ġincome": 3164,
      "ping": 3165,
      "atives": 3166,
      "Ġliber": 3167,
      "eless": 3168,
      "Ġoppos": 3169,
      "Ġlevels": 3170,
      "Ġpressure": 3171,
      "ube": 3172,
      "ulf": 3173,
      "Ġmassive": 3174,
      "Ġspirit": 3175,
      "Ġmid": 3176,
      "Ġrange": 3177,
      "Ġsaving": 3178,
      "rene": 3179,
      "Ġfuel": 3180,
      "Ġterrible": 3181,
      "Ġmeeting": 3182,
      "Ġveh": 3183,
      "met": 3184,
      "Ġpolitics": 3185,
      "Ġengineering": 3186,
      "Ġ90": 3187,
      "Ġhonest": 3188,
      "Ġenjoy": 3189,
      "fr": 3190,
      "Ġaid": 3191,
      "Ġhell": 3192,
      "Ġrise": 3193,
      "Ġconsequ": 3194,
      "Ġbabies": 3195,
      "mb": 3196,
      "Ġten": 3197,
      "Ġhair": 3198,
      "iest": 3199,
      "itted": 3200,
      "Ġpractice": 3201,
      "Ġwebsite": 3202,
      "sc": 3203,
      "rees": 3204,
      "Ġlat": 3205,
      "Ġraise": 3206,
      "Ġsurve": 3207,
      "Ġphysic": 3208,
      "Ġstandard": 3209,
      "Ġconsciousness": 3210,
      "Ġlaugh": 3211,
      "Ġahead": 3212,
      "Ġdyn": 3213,
      "Ġshap": 3214,
      "Ġhelped": 3215,
      "Ġprograms": 3216,
      "airs": 3217,
      "Ġpopular": 3218,
      "Ġvarious": 3219,
      "Ġmountain": 3220,
      "Ġbase": 3221,
      "vert": 3222,
      "Ġsurger": 3223,
      "atically": 3224,
      "ndon": 3225,
      "Ġproduction": 3226,
      "Ġcolleagues": 3227,
      "Ġut": 3228,
      "Ġtun": 3229,
      "ica": 3230,
      "antic": 3231,
      "Ġmale": 3232,
      "Ġlegs": 3233,
      "Ġmostly": 3234,
      "Ġradio": 3235,
      "Ġdemon": 3236,
      "Ġgerman": 3237,
      "uted": 3238,
      "Ġken": 3239,
      "Ġconnection": 3240,
      "Ġstreets": 3241,
      "rastruct": 3242,
      "Ġspeech": 3243,
      "Ġinfrastruct": 3244,
      "Ġperformance": 3245,
      "Ġindustrial": 3246,
      "Ġuseful": 3247,
      "Ġfollowing": 3248,
      "Ġdaughter": 3249,
      "Ġjohn": 3250,
      "ches": 3251,
      "Ġje": 3252,
      "Ġemail": 3253,
      "Ġdecide": 3254,
      "Ġcreativity": 3255,
      "Ġharv": 3256,
      "Ġ70": 3257,
      "Ġdram": 3258,
      "Ġworst": 3259,
      "Ġexpress": 3260,
      "Ġeffects": 3261,
      "Ġremarkable": 3262,
      "Ġprep": 3263,
      "Ġsurround": 3264,
      "Ġinstr": 3265,
      "Ġweap": 3266,
      "Ġinstance": 3267,
      "Ġ500": 3268,
      "Ġtiss": 3269,
      "ises": 3270,
      "Ġshared": 3271,
      "Ġmotiv": 3272,
      "wise": 3273,
      "Ġpet": 3274,
      "used": 3275,
      "epend": 3276,
      "Ġrelative": 3277,
      "Ġstopped": 3278,
      "Ġdestro": 3279,
      "cope": 3280,
      "Ġwood": 3281,
      "Ġbeat": 3282,
      "Ġorganizations": 3283,
      "ec": 3284,
      "iate": 3285,
      "unk": 3286,
      "Ġinvented": 3287,
      "Ġtask": 3288,
      "Ġenormous": 3289,
      "Ġatmosphere": 3290,
      "bel": 3291,
      "water": 3292,
      "Ġconcl": 3293,
      "Ġwhose": 3294,
      "Ġ24": 3295,
      "Ġcultural": 3296,
      "Ġmut": 3297,
      "Ġhus": 3298,
      "Ġet": 3299,
      "Ġlondon": 3300,
      "Ġsimpl": 3301,
      "aign": 3302,
      "zil": 3303,
      "Ġton": 3304,
      "ils": 3305,
      "erson": 3306,
      "Ġuses": 3307,
      "ement": 3308,
      "Ġtax": 3309,
      "Ġspeaking": 3310,
      "Ġunderstood": 3311,
      "why": 3312,
      "Ġrespond": 3313,
      "Ġflying": 3314,
      "Ġnut": 3315,
      "Ġrule": 3316,
      "ologist": 3317,
      "Ġelectr": 3318,
      "Ġrelationships": 3319,
      "reprene": 3320,
      "ffe": 3321,
      "uct": 3322,
      "Ġpig": 3323,
      "Ġdar": 3324,
      "Ġdrop": 3325,
      "itor": 3326,
      "Ġaltern": 3327,
      "ricult": 3328,
      "Ġbelow": 3329,
      "Ġbelief": 3330,
      "Ġbrazil": 3331,
      "Ġtotal": 3332,
      "Ġcampaign": 3333,
      "orrow": 3334,
      "Ġagricult": 3335,
      "Ġindepend": 3336,
      "Ġcommer": 3337,
      "Ġinvent": 3338,
      "Ġaustr": 3339,
      "Ġsick": 3340,
      "Ġpurpose": 3341,
      "Ġslightly": 3342,
      "Ġdemonstr": 3343,
      "ufact": 3344,
      "Ġtens": 3345,
      "Ġtor": 3346,
      "key": 3347,
      "Ġwashing": 3348,
      "iles": 3349,
      "Ġprevent": 3350,
      "Ġboys": 3351,
      "Ġdirectly": 3352,
      "Ġdepend": 3353,
      "inate": 3354,
      "ervation": 3355,
      "Ġben": 3356,
      "Ġmos": 3357,
      "Ġshark": 3358,
      "ornia": 3359,
      "Ġcondition": 3360,
      "Ġidentity": 3361,
      "Ġarab": 3362,
      "Ġgent": 3363,
      "Ġslide": 3364,
      "Ġpossibly": 3365,
      "Ġelectron": 3366,
      "Ġmission": 3367,
      "load": 3368,
      "Ġdespite": 3369,
      "Ġinfrastructure": 3370,
      "ios": 3371,
      "Ġheat": 3372,
      "Ġsmell": 3373,
      "Ġappl": 3374,
      "Ġentreprene": 3375,
      "Ġcalif": 3376,
      "Ġsurvive": 3377,
      "Ġsorry": 3378,
      "Ġcustom": 3379,
      "fl": 3380,
      "gy": 3381,
      "gress": 3382,
      "anc": 3383,
      "itter": 3384,
      "Ġisland": 3385,
      "Ġconc": 3386,
      "Ġbiological": 3387,
      "Ġhistor": 3388,
      "Ġnearly": 3389,
      "Ġdoub": 3390,
      "Ġtemperature": 3391,
      "60": 3392,
      "Ġtal": 3393,
      "Ġplat": 3394,
      "Ġdispl": 3395,
      "Ġ197": 3396,
      "Ġswitch": 3397,
      "Ġmembers": 3398,
      "Ġhyd": 3399,
      "Ġsocieties": 3400,
      "yle": 3401,
      "raid": 3402,
      "olve": 3403,
      "Ġsummer": 3404,
      "Ġshock": 3405,
      "Ġmanufact": 3406,
      "Ġafraid": 3407,
      "Ġreflect": 3408,
      "Ġsymbol": 3409,
      "board": 3410,
      "Ġafghanistan": 3411,
      "Ġcalifornia": 3412,
      "Ġstress": 3413,
      "Ġscan": 3414,
      "Ġartist": 3415,
      "Ġsupply": 3416,
      "Ġswim": 3417,
      "Ġcommunication": 3418,
      "Ġtarget": 3419,
      "band": 3420,
      "Ġcru": 3421,
      "Ġparty": 3422,
      "Ġcapacity": 3423,
      "Ġprofound": 3424,
      "Ġexperiments": 3425,
      "Ġcommunicate": 3426,
      "Ġvolunt": 3427,
      "Ġcauses": 3428,
      "Ġsustainable": 3429,
      "Ġultimately": 3430,
      "Ġdying": 3431,
      "Ġinsect": 3432,
      "Ġtremend": 3433,
      "Ġlegal": 3434,
      "Ġdance": 3435,
      "ancy": 3436,
      "cks": 3437,
      "Ġknowing": 3438,
      "Ġcla": 3439,
      "Ġmeters": 3440,
      "Ġconference": 3441,
      "Ġnetworks": 3442,
      "Ġpaid": 3443,
      "Ġtelevision": 3444,
      "Ġbord": 3445,
      "Ġtwice": 3446,
      "Ġ300": 3447,
      "Ġvisit": 3448,
      "Ġresponsibility": 3449,
      "Ġcloser": 3450,
      "Ġbirds": 3451,
      "iot": 3452,
      "Ġmr": 3453,
      "Ġloss": 3454,
      "arian": 3455,
      "Ġpoet": 3456,
      "Ġapplic": 3457,
      "Ġanswers": 3458,
      "Ġeasily": 3459,
      "Ġbroken": 3460,
      "Ġphilos": 3461,
      "nel": 3462,
      "Ġmicrob": 3463,
      "Ġmix": 3464,
      "Ġfeels": 3465,
      "Ġcontroll": 3466,
      "Ġdepart": 3467,
      "my": 3468,
      "Ġwide": 3469,
      "Ġbang": 3470,
      "Ġbought": 3471,
      "Ġvast": 3472,
      "rupt": 3473,
      "ception": 3474,
      "Ġsurprising": 3475,
      "Ġinspir": 3476,
      "Ġinspired": 3477,
      "Ġexperiences": 3478,
      "Ġsignificant": 3479,
      "Ġira": 3480,
      "Ġrapid": 3481,
      "Ġdesigners": 3482,
      "Ġplayed": 3483,
      "Ġcorner": 3484,
      "Ġmamm": 3485,
      "ened": 3486,
      "Ġdimens": 3487,
      "Ġcoast": 3488,
      "Ġhighly": 3489,
      "Ġmarkets": 3490,
      "Ġanaly": 3491,
      "Ġgentle": 3492,
      "cles": 3493,
      "win": 3494,
      "Ġdav": 3495,
      "oper": 3496,
      "Ġseemed": 3497,
      "Ġfunny": 3498,
      "Ġdegrees": 3499,
      "Ġhang": 3500,
      "anced": 3501,
      "Ġancient": 3502,
      "Ġmoon": 3503,
      "Ġgenome": 3504,
      "Ġcrowd": 3505,
      "Ġfacebook": 3506,
      "Ġwindow": 3507,
      "uing": 3508,
      "Ġforces": 3509,
      "Ġnoticed": 3510,
      "Ġreduce": 3511,
      "rew": 3512,
      "outh": 3513,
      "Ġhack": 3514,
      "ste": 3515,
      "Ġtrip": 3516,
      "Ġblog": 3517,
      "Ġdevices": 3518,
      "Ġhole": 3519,
      "Ġreligion": 3520,
      "Ġpublished": 3521,
      "Ġoxygen": 3522,
      "house": 3523,
      "Ġlack": 3524,
      "Ġep": 3525,
      "Ġspaces": 3526,
      "Ġexpand": 3527,
      "Ġemotional": 3528,
      "Ġyellow": 3529,
      "aff": 3530,
      "ray": 3531,
      "tle": 3532,
      "pping": 3533,
      "izes": 3534,
      "Ġresist": 3535,
      "Ġrare": 3536,
      "rench": 3537,
      "Ġbringing": 3538,
      "Ġdemand": 3539,
      "kn": 3540,
      "icles": 3541,
      "Ġhabit": 3542,
      "Ġshift": 3543,
      "Ġhelping": 3544,
      "Ġplanets": 3545,
      "Ġdemocr": 3546,
      "Ġsurgery": 3547,
      "af": 3548,
      "wood": 3549,
      "ening": 3550,
      "Ġdiversity": 3551,
      "Ġnations": 3552,
      "Ġfold": 3553,
      "Ġlights": 3554,
      "Ġphoto": 3555,
      "Ġoriginal": 3556,
      "ls": 3557,
      "mon": 3558,
      "Ġtrib": 3559,
      "empt": 3560,
      "Ġcontact": 3561,
      "Ġindian": 3562,
      "Ġdifferently": 3563,
      "Ġpassed": 3564,
      "Ġphotos": 3565,
      "Ġmagaz": 3566,
      "look": 3567,
      "Ġfat": 3568,
      "orith": 3569,
      "Ġinj": 3570,
      "Ġgar": 3571,
      "oting": 3572,
      "Ġdifferences": 3573,
      "Ġaddition": 3574,
      "Ġmissing": 3575,
      "Ġdeliver": 3576,
      "Ġalgorith": 3577,
      "ius": 3578,
      "ores": 3579,
      "cell": 3580,
      "Ġfrank": 3581,
      "Ġjustice": 3582,
      "Ġcompon": 3583,
      "Ġbasis": 3584,
      "Ġfoundation": 3585,
      "othes": 3586,
      "Ġhearing": 3587,
      "cules": 3588,
      "Ġefficient": 3589,
      "Ġclimb": 3590,
      "wor": 3591,
      "aling": 3592,
      "Ġreco": 3593,
      "Ġrough": 3594,
      "atell": 3595,
      "Ġactive": 3596,
      "Ġjoin": 3597,
      "idden": 3598,
      "arter": 3599,
      "Ġweird": 3600,
      "Ġeating": 3601,
      "term": 3602,
      "Ġevolved": 3603,
      "Ġgotten": 3604,
      "Ġbrother": 3605,
      "Ġproduced": 3606,
      "Ġscientist": 3607,
      "Ġiraq": 3608,
      "Ġmig": 3609,
      "Ġprou": 3610,
      "Ġfol": 3611,
      "Ġstren": 3612,
      "anda": 3613,
      "Ġagree": 3614,
      "Ġbrill": 3615,
      "ashion": 3616,
      "Ġdreams": 3617,
      "la": 3618,
      "Ġmich": 3619,
      "Ġcore": 3620,
      "Ġhost": 3621,
      "Ġwire": 3622,
      "Ġsatell": 3623,
      "Ġrom": 3624,
      "Ġtraffic": 3625,
      "Ġparad": 3626,
      "Ġavoid": 3627,
      "Ġju": 3628,
      "Ġcoffe": 3629,
      "Ġpartners": 3630,
      "Ġflight": 3631,
      "Ġconsid": 3632,
      "Ġbrand": 3633,
      "Ġvirtual": 3634,
      "Ġbomb": 3635,
      "Ġcorrect": 3636,
      "Ġstrength": 3637,
      "hy": 3638,
      "right": 3639,
      "Ġ$": 3640,
      "Ġfro": 3641,
      "icking": 3642,
      "Ġrout": 3643,
      "Ġvul": 3644,
      "Ġdesert": 3645,
      "Ġboat": 3646,
      "Ġimagination": 3647,
      "Ġattract": 3648,
      "Ġcorpor": 3649,
      "Ġaccord": 3650,
      "Ġclassroom": 3651,
      "Ġtrouble": 3652,
      "Ġaustral": 3653,
      "gu": 3654,
      "set": 3655,
      "aced": 3656,
      "Ġbridge": 3657,
      "Ġstructures": 3658,
      "ef": 3659,
      "lim": 3660,
      "rate": 3661,
      "Ġske": 3662,
      "Ġfab": 3663,
      "Ġgard": 3664,
      "Ġstem": 3665,
      "Ġamb": 3666,
      "Ġbackground": 3667,
      "Ġspending": 3668,
      "Ġcreates": 3669,
      "Ġmolecules": 3670,
      "Ġnan": 3671,
      "Ġaspect": 3672,
      "Ġruss": 3673,
      "Ġforever": 3674,
      "Ġfully": 3675,
      "Ġcomplexity": 3676,
      "Ġfed": 3677,
      "Ġteen": 3678,
      "Ġunlike": 3679,
      "Ġstudying": 3680,
      "Ġmetap": 3681,
      "can": 3682,
      "cop": 3683,
      "Ġgiant": 3684,
      "Ġadapt": 3685,
      "Ġraised": 3686,
      "Ġenter": 3687,
      "Ġeasier": 3688,
      "Ġmatters": 3689,
      "Ġfocused": 3690,
      "Ġetc": 3691,
      "Ġcoffee": 3692,
      "ding": 3693,
      "atures": 3694,
      "Ġforeign": 3695,
      "Ġsexual": 3696,
      "Ġopportunities": 3697,
      "Ġfailure": 3698,
      "Ġcopy": 3699,
      "care": 3700,
      "rael": 3701,
      "Ġseas": 3702,
      "Ġalt": 3703,
      "Ġaccom": 3704,
      "Ġopposite": 3705,
      "Ġgh": 3706,
      "Ġcooper": 3707,
      "Ġmoments": 3708,
      "Ġpossibility": 3709,
      "Ġlucky": 3710,
      "reci": 3711,
      "eral": 3712,
      "Ġshop": 3713,
      "ander": 3714,
      "Ġharm": 3715,
      "Ġecos": 3716,
      "bu": 3717,
      "uge": 3718,
      "Ġrepe": 3719,
      "Ġmyster": 3720,
      "ifying": 3721,
      "Ġcommercial": 3722,
      "Ġvulner": 3723,
      "rated": 3724,
      "Ġtum": 3725,
      "Ġwis": 3726,
      "Ġheld": 3727,
      "Ġotherwise": 3728,
      "Ġbright": 3729,
      "Ġturning": 3730,
      "Ġairpl": 3731,
      "Ġinvestment": 3732,
      "Ġhorr": 3733,
      "Ġfarmers": 3734,
      "Ġtremendous": 3735,
      "hand": 3736,
      "arm": 3737,
      "Ġmexic": 3738,
      "Ġleadership": 3739,
      "Ġlandscape": 3740,
      "Ġplatform": 3741,
      "ystem": 3742,
      "Ġtough": 3743,
      "Ġbag": 3744,
      "Ġmort": 3745,
      "Ġmouth": 3746,
      "orge": 3747,
      "Ġforg": 3748,
      "Ġnotion": 3749,
      "Ġshouldn": 3750,
      "Ġimportantly": 3751,
      "Ġcrim": 3752,
      "Ġdescribe": 3753,
      "Ġnegative": 3754,
      "oun": 3755,
      "Ġentirely": 3756,
      "Ġkilomet": 3757,
      "Ġproud": 3758,
      "ties": 3759,
      "ya": 3760,
      "Ġtherap": 3761,
      "Ġmad": 3762,
      "Ġsharing": 3763,
      "istry": 3764,
      "Ġinvis": 3765,
      "Ġbillions": 3766,
      "Ġiran": 3767,
      "ae": 3768,
      "Ġreve": 3769,
      "Ġsaf": 3770,
      "Ġpoem": 3771,
      "Ġartists": 3772,
      "Ġgender": 3773,
      "ees": 3774,
      "zen": 3775,
      "Ġchur": 3776,
      "Ġsport": 3777,
      "aining": 3778,
      "ysis": 3779,
      "Ġjoy": 3780,
      "Ġecosystem": 3781,
      "Ġcand": 3782,
      "Ġmit": 3783,
      "Ġmas": 3784,
      "Ġseed": 3785,
      "Ġcalls": 3786,
      "Ġacad": 3787,
      "Ġoffer": 3788,
      "Ġtransm": 3789,
      "cript": 3790,
      "Ġbrilliant": 3791,
      "mark": 3792,
      "vit": 3793,
      "Ġepid": 3794,
      "Ġlibr": 3795,
      "this": 3796,
      "ulations": 3797,
      "Ġteles": 3798,
      "Ġprev": 3799,
      "Ġopened": 3800,
      "Ġcollective": 3801,
      "Ġreligious": 3802,
      "Ġtast": 3803,
      "isco": 3804,
      "Ġegy": 3805,
      "Ġcompared": 3806,
      "Ġremote": 3807,
      "connect": 3808,
      "Ġbenefits": 3809,
      "Ġdiagn": 3810,
      "Ġhusband": 3811,
      "Ġvolunte": 3812,
      "Ġaccording": 3813,
      "Ġegypt": 3814,
      "based": 3815,
      "off": 3816,
      "Ġbound": 3817,
      "Ġbatter": 3818,
      "ley": 3819,
      "Ġchick": 3820,
      "Ġparticles": 3821,
      "Ġaccur": 3822,
      "Ġregular": 3823,
      "Ġdistance": 3824,
      "Ġbreast": 3825,
      "ography": 3826,
      "Ġadvant": 3827,
      "Ġemotions": 3828,
      "Ġsuffering": 3829,
      "Ġpuzz": 3830,
      "Ġisrael": 3831,
      "ulated": 3832,
      "Ġphones": 3833,
      "Ġappreci": 3834,
      "Ġtransp": 3835,
      "Ġstuck": 3836,
      "Ġbrings": 3837,
      "ipped": 3838,
      "Ġcogn": 3839,
      "Ġstream": 3840,
      "Ġleads": 3841,
      "Ġpleas": 3842,
      "Ġemotion": 3843,
      "Ġmarri": 3844,
      "Ġnecessarily": 3845,
      "Ġphenomenon": 3846,
      "Ġdestroy": 3847,
      "Ġdavid": 3848,
      "Ġiron": 3849,
      "Ġfresh": 3850,
      "Ġrot": 3851,
      "Ġmaint": 3852,
      "Ġdisord": 3853,
      "itely": 3854,
      "Ġelements": 3855,
      "Ġattempt": 3856,
      "Ġdiscovery": 3857,
      "cest": 3858,
      "Ġtwitter": 3859,
      "Ġflag": 3860,
      "Ġcheap": 3861,
      "Ġwalls": 3862,
      "Ġdefinition": 3863,
      "pre": 3864,
      "Ġble": 3865,
      "Ġexer": 3866,
      "iber": 3867,
      "bert": 3868,
      "Ġlesson": 3869,
      "Ġtissue": 3870,
      "Ġband": 3871,
      "Ġfashion": 3872,
      "vere": 3873,
      "Ġbees": 3874,
      "Ġasia": 3875,
      "Ġmel": 3876,
      "Ġnote": 3877,
      "Ġconcent": 3878,
      "Ġevents": 3879,
      "Ġque": 3880,
      "Ġcreatures": 3881,
      "Ġpolitic": 3882,
      "Ġengineers": 3883,
      "Ġtypical": 3884,
      "Ġembra": 3885,
      "Ġfairly": 3886,
      "Ġcounter": 3887,
      "reg": 3888,
      "Ġdue": 3889,
      "Ġegg": 3890,
      "Ġancest": 3891,
      "ifically": 3892,
      "Ġdisp": 3893,
      "ibilities": 3894,
      "Ġchildhood": 3895,
      "Ġcrime": 3896,
      "Ġ400": 3897,
      "Ġcharge": 3898,
      "Ġfigured": 3899,
      "vant": 3900,
      "Ġmer": 3901,
      "Ġbear": 3902,
      "celer": 3903,
      "Ġange": 3904,
      "Ġappe": 3905,
      "Ġhelps": 3906,
      "Ġholding": 3907,
      "Ġargument": 3908,
      "Ġrequire": 3909,
      "Ġnecessary": 3910,
      "Ġsister": 3911,
      "Ġvall": 3912,
      "Ġspot": 3913,
      "ager": 3914,
      "Ġscul": 3915,
      "Ġstudied": 3916,
      "Ġcaught": 3917,
      "Ġnormally": 3918,
      "Ġeuropean": 3919,
      "Ġprofessor": 3920,
      "Ġinfluence": 3921,
      "Ġwheel": 3922,
      "ked": 3923,
      "Ġtour": 3924,
      "verse": 3925,
      "rogen": 3926,
      "Ġkore": 3927,
      "Ġship": 3928,
      "Ġorganisms": 3929,
      "Ġleading": 3930,
      "print": 3931,
      "Ġcamer": 3932,
      "Ġnewsp": 3933,
      "Ġgay": 3934,
      "idents": 3935,
      "Ġshr": 3936,
      "Ġexch": 3937,
      "Ġletter": 3938,
      "Ġprevious": 3939,
      "Ġsucceed": 3940,
      "Ġdouble": 3941,
      "Ġadults": 3942,
      "Ġdepartment": 3943,
      "Ġbread": 3944,
      "Ġmouse": 3945,
      "Ġmaster": 3946,
      "Ġhidden": 3947,
      "Ġshel": 3948,
      "ada": 3949,
      "Ġfranc": 3950,
      "Ġprior": 3951,
      "Ġapple": 3952,
      "Ġbelong": 3953,
      "Ġrestaur": 3954,
      "Ġfailed": 3955,
      "Ġfighting": 3956,
      "Ġresponsible": 3957,
      "Ġcred": 3958,
      "Ġdiver": 3959,
      "aria": 3960,
      "Ġniger": 3961,
      "pper": 3962,
      "Ġcoal": 3963,
      "Ġhopefully": 3964,
      "Ġfrequ": 3965,
      "Ġorigin": 3966,
      "30": 3967,
      "dimens": 3968,
      "wide": 3969,
      "Ġpounds": 3970,
      "Ġlin": 3971,
      "Ġlunch": 3972,
      "Ġsector": 3973,
      "Ġjew": 3974,
      "Ġcompare": 3975,
      "Ġagre": 3976,
      "Ġindic": 3977,
      "Ġdollar": 3978,
      "Ġbusinesses": 3979,
      "Ġequal": 3980,
      "Ġmotor": 3981,
      "Ġdinos": 3982,
      "Ġbalance": 3983,
      "Ġmagazine": 3984,
      "Ġfrench": 3985,
      "lex": 3986,
      "Ġund": 3987,
      "Ġbelieved": 3988,
      "Ġcapable": 3989,
      "Ġdeeply": 3990,
      "Ġdepression": 3991,
      "Ġcycle": 3992,
      "Ġconvin": 3993,
      "Ġcompetition": 3994,
      "Ġfaith": 3995,
      "Ġmarried": 3996,
      "Ġdocument": 3997,
      "Ġfascinating": 3998,
      "Ġwashington": 3999,
      "Ġinvisible": 4000,
      "ha": 4001,
      "hold": 4002,
      "Ġbone": 4003,
      "Ġpurs": 4004,
      "Ġwear": 4005,
      "Ġstock": 4006,
      "roll": 4007,
      "Ġprost": 4008,
      "Ġeveryday": 4009,
      "Ġnoise": 4010,
      "Ġfellow": 4011,
      "aker": 4012,
      "Ġrelated": 4013,
      "Ġfinished": 4014,
      "Ġmajority": 4015,
      "Ġdegree": 4016,
      "Ġastron": 4017,
      "Ġstrategy": 4018,
      "Ġsculpt": 4019,
      "cons": 4020,
      "Ġwearing": 4021,
      "Ġnames": 4022,
      "thes": 4023,
      "ears": 4024,
      "Ġtalks": 4025,
      "Ġopin": 4026,
      "ification": 4027,
      "Ġconstruct": 4028,
      "Ġsurprise": 4029,
      "Ġprofessional": 4030,
      "ta": 4031,
      "yes": 4032,
      "Ġcos": 4033,
      "Ġmir": 4034,
      "Ġmanaged": 4035,
      "Ġquote": 4036,
      "Ġbull": 4037,
      "Ġsla": 4038,
      "issions": 4039,
      "Ġleader": 4040,
      "Ġoceans": 4041,
      "Ġinstitution": 4042,
      "Ġquantum": 4043,
      "Ġphilosoph": 4044,
      "Ġtheater": 4045,
      "ctions": 4046,
      "Ġug": 4047,
      "cked": 4048,
      "Ġprize": 4049,
      "iable": 4050,
      "Ġacceler": 4051,
      "Ġadop": 4052,
      "Ġ150": 4053,
      "Ġgrandm": 4054,
      "ky": 4055,
      "und": 4056,
      "Ġcro": 4057,
      "Ġtow": 4058,
      "omy": 4059,
      "urd": 4060,
      "ami": 4061,
      "Ġdefe": 4062,
      "quality": 4063,
      "Ġsignal": 4064,
      "Ġcolors": 4065,
      "Ġlimited": 4066,
      "Ġbenefit": 4067,
      "Ġmathematics": 4068,
      "lin": 4069,
      "ses": 4070,
      "inist": 4071,
      "Ġcateg": 4072,
      "Ġment": 4073,
      "lection": 4074,
      "ston": 4075,
      "rad": 4076,
      "throp": 4077,
      "Ġinstall": 4078,
      "Ġcreation": 4079,
      "Ġsubst": 4080,
      "Ġprototy": 4081,
      "Ġtrained": 4082,
      "Ġsumm": 4083,
      "Ġleaving": 4084,
      "Ġexhib": 4085,
      "stein": 4086,
      "dimensional": 4087,
      "amb": 4088,
      "Ġtruck": 4089,
      "Ġwatched": 4090,
      "Ġpaint": 4091,
      "Ġconstantly": 4092,
      "Ġhyp": 4093,
      "Ġcircle": 4094,
      "Ġargue": 4095,
      "Ġbritish": 4096,
      "Ġhate": 4097,
      "Ġtons": 4098,
      "Ġfaces": 4099,
      "Ġintu": 4100,
      "Ġnovel": 4101,
      "Ġclosed": 4102,
      "Ġgrown": 4103,
      "Ġeleph": 4104,
      "Ġedge": 4105,
      "Ġrefuge": 4106,
      "Ġfollowed": 4107,
      "Ġsteps": 4108,
      "Ġseriously": 4109,
      "Ġconcerned": 4110,
      "Ġfolks": 4111,
      "Ġmetaphor": 4112,
      "Ġchurch": 4113,
      "rict": 4114,
      "uros": 4115,
      "Ġwhenever": 4116,
      "Ġunless": 4117,
      "Ġgrass": 4118,
      "Ġhighest": 4119,
      "Ġfourth": 4120,
      "Ġslowly": 4121,
      "Ġcurrently": 4122,
      "Ġsequence": 4123,
      "Ġseparate": 4124,
      "Ġmultiple": 4125,
      "Ġsafety": 4126,
      "bl": 4127,
      "pes": 4128,
      "vity": 4129,
      "Ġdry": 4130,
      "Ġpros": 4131,
      "Ġmotion": 4132,
      "Ġdescribed": 4133,
      "Ġreceived": 4134,
      "Ġfrag": 4135,
      "Ġfinger": 4136,
      "Ġmosqu": 4137,
      "Ġodd": 4138,
      "Ġbon": 4139,
      "Ġpun": 4140,
      "Ġlapt": 4141,
      "asa": 4142,
      "cket": 4143,
      "agers": 4144,
      "Ġarms": 4145,
      "athy": 4146,
      "Ġcourt": 4147,
      "Ġartific": 4148,
      "Ġinteraction": 4149,
      "Ġfortun": 4150,
      "word": 4151,
      "Ġmarch": 4152,
      "Ġhun": 4153,
      "Ġfoss": 4154,
      "Ġgall": 4155,
      "Ġchair": 4156,
      "Ġclick": 4157,
      "ruption": 4158,
      "Ġinvited": 4159,
      "Ġelement": 4160,
      "Ġintellect": 4161,
      "Ġbreath": 4162,
      "Ġweapons": 4163,
      "Ġkilometers": 4164,
      "cil": 4165,
      "hi": 4166,
      "Ġfis": 4167,
      "Ġfif": 4168,
      "oted": 4169,
      "irt": 4170,
      "ographic": 4171,
      "Ġfields": 4172,
      "known": 4173,
      "rel": 4174,
      "Ġwhom": 4175,
      "Ġsoil": 4176,
      "Ġstation": 4177,
      "Ġgoals": 4178,
      "apers": 4179,
      "Ġdisc": 4180,
      "Ġprecise": 4181,
      "Ġexpert": 4182,
      "Ġgrad": 4183,
      "Ġperfectly": 4184,
      "Ġsen": 4185,
      "Ġgap": 4186,
      "Ġforced": 4187,
      "Ġmoves": 4188,
      "Ġsurge": 4189,
      "Ġinsight": 4190,
      "Ġheads": 4191,
      "Ġbegins": 4192,
      "Ġinvestig": 4193,
      "Ġpaul": 4194,
      "Ġsoldiers": 4195,
      "Ġinsects": 4196,
      "Ġvalley": 4197,
      "Ġera": 4198,
      "urally": 4199,
      "uries": 4200,
      "Ġlie": 4201,
      "that": 4202,
      "Ġrow": 4203,
      "estic": 4204,
      "Ġbrief": 4205,
      "Ġplane": 4206,
      "Ġplanning": 4207,
      "Ġaccident": 4208,
      "force": 4209,
      "Ġprinciples": 4210,
      "Ġdebate": 4211,
      "Ġconsequences": 4212,
      "Ġadvantage": 4213,
      "20": 4214,
      "ino": 4215,
      "Ġhomes": 4216,
      "Ġpages": 4217,
      "Ġreward": 4218,
      "illed": 4219,
      "ulous": 4220,
      "Ġexists": 4221,
      "Ġattach": 4222,
      "Ġstruggle": 4223,
      "Ġcognitive": 4224,
      "bi": 4225,
      "ength": 4226,
      "oration": 4227,
      "Ġchap": 4228,
      "aked": 4229,
      "Ġresearchers": 4230,
      "Ġanti": 4231,
      "Ġsurvival": 4232,
      "Ġshoes": 4233,
      "Ġreplace": 4234,
      "Ġmentioned": 4235,
      "Ġagriculture": 4236,
      "fo": 4237,
      "Ġbattle": 4238,
      "Ġmothers": 4239,
      "enty": 4240,
      "Ġmyth": 4241,
      "Ġfell": 4242,
      "Ġcurious": 4243,
      "Ġwake": 4244,
      "Ġpaying": 4245,
      "craft": 4246,
      "Ġconsidered": 4247,
      "Ġmarriage": 4248,
      "hab": 4249,
      "Ġnav": 4250,
      "Ġsoph": 4251,
      "Ġstood": 4252,
      "Ġkick": 4253,
      "Ġcongress": 4254,
      "essed": 4255,
      "Ġroof": 4256,
      "Ġcommit": 4257,
      "forest": 4258,
      "Ġexistence": 4259,
      "Ġsurprised": 4260,
      "Ġcosm": 4261,
      "tical": 4262,
      "Ġax": 4263,
      "Ġwave": 4264,
      "ushing": 4265,
      "Ġrecon": 4266,
      "Ġhasn": 4267,
      "Ġstupid": 4268,
      "Ġequip": 4269,
      "Ġdaily": 4270,
      "Ġidentify": 4271,
      "Ġfeedback": 4272,
      "Ġcivilization": 4273,
      "Ġdinner": 4274,
      "Ġprotein": 4275,
      "asion": 4276,
      "terday": 4277,
      "Ġempt": 4278,
      "Ġexperts": 4279,
      "Ġcrash": 4280,
      "Ġharder": 4281,
      "Ġgenerations": 4282,
      "Ġsubm": 4283,
      "Ġoperating": 4284,
      "Ġleaves": 4285,
      "Ġprinciple": 4286,
      "Ġlaunched": 4287,
      "Ġalternative": 4288,
      "ij": 4289,
      "Ġaids": 4290,
      "enn": 4291,
      "Ġinner": 4292,
      "Ġrural": 4293,
      "Ġvoices": 4294,
      "Ġspl": 4295,
      "Ġfactory": 4296,
      "Ġuniversal": 4297,
      "Ġlimit": 4298,
      "Ġversus": 4299,
      "Ġmovies": 4300,
      "Ġstatistics": 4301,
      "ipping": 4302,
      "Ġincreasingly": 4303,
      "Ġassociated": 4304,
      "dp": 4305,
      "gar": 4306,
      "edia": 4307,
      "Ġnerv": 4308,
      "Ġbeach": 4309,
      "Ġfrustr": 4310,
      "Ġexec": 4311,
      "Ġscen": 4312,
      "Ġscene": 4313,
      "Ġsmo": 4314,
      "Ġarts": 4315,
      "Ġmicros": 4316,
      "Ġnutr": 4317,
      "Ġwisdom": 4318,
      "pher": 4319,
      "Ġfal": 4320,
      "itness": 4321,
      "Ġseat": 4322,
      "Ġves": 4323,
      "Ġsaved": 4324,
      "Ġresource": 4325,
      "Ġhealthcare": 4326,
      "Ġsignals": 4327,
      "Ġpicked": 4328,
      "mm": 4329,
      "mp": 4330,
      "Ġisol": 4331,
      "Ġselect": 4332,
      "Ġrub": 4333,
      "Ġorg": 4334,
      "ume": 4335,
      "Ġvent": 4336,
      "emy": 4337,
      "Ġimplic": 4338,
      "Ġcalling": 4339,
      "Ġdesire": 4340,
      "Ġcoral": 4341,
      "Ġtesting": 4342,
      "Ġcontinu": 4343,
      "Ġillustr": 4344,
      "Ġdrawing": 4345,
      "Ġladies": 4346,
      "Ġlifet": 4347,
      "Ġtomorrow": 4348,
      "Ġindependent": 4349,
      "anes": 4350,
      "Ġlies": 4351,
      "Ġworried": 4352,
      "Ġspoke": 4353,
      "Ġarticle": 4354,
      "Ġlady": 4355,
      "Ġgermany": 4356,
      "Ġaustralia": 4357,
      "Ġmexico": 4358,
      "Ġtick": 4359,
      "esome": 4360,
      "Ġgather": 4361,
      "Ġweak": 4362,
      "Ġweather": 4363,
      "Ġshut": 4364,
      "Ġround": 4365,
      "ortex": 4366,
      "Ġ35": 4367,
      "Ġfinish": 4368,
      "Ġconnections": 4369,
      "Ġkeeping": 4370,
      "Ġequival": 4371,
      "Ġyesterday": 4372,
      "Ġintelligent": 4373,
      "Ġlayer": 4374,
      "iat": 4375,
      "pet": 4376,
      "Ġreform": 4377,
      "Ġneuro": 4378,
      "Ġmeat": 4379,
      "ests": 4380,
      "Ġspring": 4381,
      "Ġpartner": 4382,
      "Ġcontract": 4383,
      "Ġletters": 4384,
      "Ġeconomics": 4385,
      "Ġzo": 4386,
      "Ġordinary": 4387,
      "Ġdiet": 4388,
      "Ġinstitute": 4389,
      "Ġcomfortable": 4390,
      "Ġdarwin": 4391,
      "Ġvessel": 4392,
      "Ġdate": 4393,
      "Ġquiet": 4394,
      "Ġengineer": 4395,
      "Ġmountains": 4396,
      "Ġcircum": 4397,
      "Ġsnow": 4398,
      "Ġmanagement": 4399,
      "Ġgalaxy": 4400,
      "Ġgalaxies": 4401,
      "Ġmolecule": 4402,
      "Ġequipment": 4403,
      "Ġnervous": 4404,
      "life": 4405,
      "pir": 4406,
      "Ã©": 4407,
      "encies": 4408,
      "Ġpil": 4409,
      "Ġincent": 4410,
      "Ġgdp": 4411,
      "Ġrein": 4412,
      "Ġants": 4413,
      "Ġload": 4414,
      "Ġtechnical": 4415,
      "Ġtransition": 4416,
      "Ġorganized": 4417,
      "Ġwond": 4418,
      "Ġvideos": 4419,
      "Ġcontinent": 4420,
      "Ġlawy": 4421,
      "Ġrisks": 4422,
      "Ġexperienced": 4423,
      "Ġfilled": 4424,
      "Ġentrepreneurs": 4425,
      "iors": 4426,
      "yl": 4427,
      "rete": 4428,
      "Ġstim": 4429,
      "Ġabst": 4430,
      "Ġrat": 4431,
      "Ġcovered": 4432,
      "ago": 4433,
      "ensity": 4434,
      "Ġflat": 4435,
      "Ġdesigner": 4436,
      "Ġbits": 4437,
      "Ġengland": 4438,
      "Ġorganic": 4439,
      "Ġinfin": 4440,
      "Ġprocesses": 4441,
      "Ġautism": 4442,
      "Ġexpected": 4443,
      "Ġsympt": 4444,
      "Ġsentence": 4445,
      "Ġarrived": 4446,
      "Ġclinical": 4447,
      "Ġartificial": 4448,
      "Ġtall": 4449,
      "Ġhide": 4450,
      "icity": 4451,
      "Ġshad": 4452,
      "Ġunit": 4453,
      "Ġblow": 4454,
      "Ġputs": 4455,
      "place": 4456,
      "Ġwarming": 4457,
      "Ġtreated": 4458,
      "hey": 4459,
      "Ġilleg": 4460,
      "iques": 4461,
      "Ġanalysis": 4462,
      "Ġstone": 4463,
      "Ġdol": 4464,
      "thetic": 4465,
      "Ġneuros": 4466,
      "anted": 4467,
      "Ġvote": 4468,
      "Ġhadn": 4469,
      "acters": 4470,
      "Ġemissions": 4471,
      "Ġcharacters": 4472,
      "Ġprivile": 4473,
      "Ġconsumption": 4474,
      "Ġarmy": 4475,
      "Ġlosing": 4476,
      "Ġcameras": 4477,
      "aled": 4478,
      "ession": 4479,
      "Ġusers": 4480,
      "odes": 4481,
      "ibr": 4482,
      "Ġwarm": 4483,
      "new": 4484,
      "Ġwondering": 4485,
      "Ġlanguages": 4486,
      "Ġcaused": 4487,
      "Ġrelease": 4488,
      "Ġreaction": 4489,
      "point": 4490,
      "Ġpoetry": 4491,
      "now": 4492,
      "Ġah": 4493,
      "Ġhung": 4494,
      "Ġsending": 4495,
      "olves": 4496,
      "Ġmaps": 4497,
      "apse": 4498,
      "Ġunderne": 4499,
      "Ġspecifically": 4500,
      "Ġantib": 4501,
      "Ġhonor": 4502,
      "Ġproperty": 4503,
      "Ġvehicle": 4504,
      "Ġunderneath": 4505,
      "rum": 4506,
      "Ġtoward": 4507,
      "Ġgang": 4508,
      "otic": 4509,
      "Ġrates": 4510,
      "Ġbrown": 4511,
      "Ġplayer": 4512,
      "Ġsolid": 4513,
      "Ġmessages": 4514,
      "Ġdealing": 4515,
      "Ġessential": 4516,
      "Ġdamage": 4517,
      "Ġmathematical": 4518,
      "Ġdynamic": 4519,
      "Ġshapes": 4520,
      "Ġequivalent": 4521,
      "just": 4522,
      "lation": 4523,
      "Ġwitness": 4524,
      "ara": 4525,
      "Ġgree": 4526,
      "Ġchain": 4527,
      "Ġthinks": 4528,
      "Ġimportance": 4529,
      "Ġpossibilities": 4530,
      "Ġrichard": 4531,
      "Ġofficial": 4532,
      "Ġkenya": 4533,
      "cast": 4534,
      "erves": 4535,
      "Ġcow": 4536,
      "Ġcave": 4537,
      "Ġbul": 4538,
      "Ġmat": 4539,
      "Ġpure": 4540,
      "Ġpip": 4541,
      "Ġdial": 4542,
      "owered": 4543,
      "sec": 4544,
      "Ġjan": 4545,
      "Ġperce": 4546,
      "Ġadvert": 4547,
      "Ġinterface": 4548,
      "Ġfacts": 4549,
      "Ġfeelings": 4550,
      "Ġmovements": 4551,
      "Ġcolon": 4552,
      "Ġadvanced": 4553,
      "Ġsymmet": 4554,
      "Ġreleased": 4555,
      "Ġmalaria": 4556,
      "Ġvariety": 4557,
      "Ġhurt": 4558,
      "Ġdistribution": 4559,
      "Ġgarden": 4560,
      "Ġgrandmother": 4561,
      "au": 4562,
      "bble": 4563,
      "dy": 4564,
      "down": 4565,
      "fish": 4566,
      "Ġbare": 4567,
      "eng": 4568,
      "Ġein": 4569,
      "Ġlift": 4570,
      "Ġatl": 4571,
      "Ġchimp": 4572,
      "iev": 4573,
      "Ġqual": 4574,
      "elling": 4575,
      "Ġtechniques": 4576,
      "Ġplayers": 4577,
      "Ġentertain": 4578,
      "Ġexplan": 4579,
      "gged": 4580,
      "Ġsetting": 4581,
      "Ġdeeper": 4582,
      "Ġconvention": 4583,
      "car": 4584,
      "osition": 4585,
      "Ġdesigning": 4586,
      "Ġopening": 4587,
      "Ġvalu": 4588,
      "Ġsites": 4589,
      "Ġheavy": 4590,
      "Ġsatellite": 4591,
      "Ġairplane": 4592,
      "Ġexchange": 4593,
      "Ġpoo": 4594,
      "roph": 4595,
      "irty": 4596,
      "Ġprove": 4597,
      "Ġfactors": 4598,
      "Ġcollection": 4599,
      "Ġhyper": 4600,
      "Ġsouthern": 4601,
      "Ġradical": 4602,
      "Ġpromise": 4603,
      "Ġestab": 4604,
      "Ġconvinced": 4605,
      "sa": 4606,
      "Ġcards": 4607,
      "Ġmc": 4608,
      "icated": 4609,
      "lement": 4610,
      "semb": 4611,
      "Ġextend": 4612,
      "Ġsmile": 4613,
      "Ġdriver": 4614,
      "Ġsuppose": 4615,
      "ocol": 4616,
      "Ġconstruction": 4617,
      "Ġillness": 4618,
      "Ġselling": 4619,
      "Ġvictims": 4620,
      "Ġgraduate": 4621,
      "Ġclaim": 4622,
      "cap": 4623,
      "zing": 4624,
      "Ġwars": 4625,
      "Ġends": 4626,
      "Ġreef": 4627,
      "Ġkilling": 4628,
      "Ġhouses": 4629,
      "frie": 4630,
      "Ġbattery": 4631,
      "Ġfrancisco": 4632,
      ".'": 4633,
      "don": 4634,
      "ett": 4635,
      "Ġvan": 4636,
      "Ġtrillion": 4637,
      "Ġworldwide": 4638,
      "Ġexpression": 4639,
      "akers": 4640,
      "Ġreprodu": 4641,
      "Ġmuscle": 4642,
      "Ġsigns": 4643,
      "Ġamazon": 4644,
      "Ġeffectively": 4645,
      "Ġbroke": 4646,
      "Ġveget": 4647,
      "Ġrequires": 4648,
      "Ġproperties": 4649,
      "Ġelectrical": 4650,
      "Ġdisplay": 4651,
      "Ġdimensions": 4652,
      "Ġpoliticians": 4653,
      "Ġdolph": 4654,
      "Ġeinstein": 4655,
      "mber": 4656,
      "Ġbow": 4657,
      "Ġheight": 4658,
      "Ġshif": 4659,
      "osis": 4660,
      "Ġsuit": 4661,
      "Ġtail": 4662,
      "abled": 4663,
      "Ġwhereas": 4664,
      "Ġinterp": 4665,
      "Ġcutting": 4666,
      "Ġrepresents": 4667,
      "Ġjapanese": 4668,
      "Ġharvard": 4669,
      "Ġfossil": 4670,
      "ca": 4671,
      "Ġmira": 4672,
      "Ġtoile": 4673,
      "Ġped": 4674,
      "Ġgain": 4675,
      "cipl": 4676,
      "Ġpray": 4677,
      "Ġprime": 4678,
      "Ġbush": 4679,
      "Ġwaves": 4680,
      "Ġcultures": 4681,
      "Ġconduct": 4682,
      "Ġreview": 4683,
      "Ġnorthern": 4684,
      "Ġprofession": 4685,
      "onym": 4686,
      "Ġfacing": 4687,
      "Ġholes": 4688,
      "Ġlibrary": 4689,
      "Ġsophistic": 4690,
      "Ġempty": 4691,
      "Ġmart": 4692,
      "itals": 4693,
      "Ġnasa": 4694,
      "owers": 4695,
      "Ġliqu": 4696,
      "Ġresc": 4697,
      "Ġawesome": 4698,
      "Ġbudget": 4699,
      "Ġrapidly": 4700,
      "Ġepidemic": 4701,
      "Ġwik": 4702,
      "Ġded": 4703,
      "Ġworlds": 4704,
      "Ġmanip": 4705,
      "Ġthoughts": 4706,
      "Ġmember": 4707,
      "Ġgeorge": 4708,
      "pected": 4709,
      "Ġoccup": 4710,
      "Ġforests": 4711,
      "Ġawful": 4712,
      "Ġemerging": 4713,
      "Ġdetails": 4714,
      "Ġintroduce": 4715,
      "Ġinequality": 4716,
      "pan": 4717,
      "rs": 4718,
      "zed": 4719,
      "Ġtoy": 4720,
      "Ġpac": 4721,
      "ogen": 4722,
      "Ġens": 4723,
      "Ġ2000": 4724,
      "ension": 4725,
      "cont": 4726,
      "Ġgrade": 4727,
      "Ġmetal": 4728,
      "Ġswed": 4729,
      "Ġauth": 4730,
      "Ġchemicals": 4731,
      "Ġtrials": 4732,
      "prof": 4733,
      "Ġmicrobes": 4734,
      "Ġdemocratic": 4735,
      "Ġlifetime": 4736,
      "ded": 4737,
      "gets": 4738,
      "Ġsources": 4739,
      "stream": 4740,
      "urb": 4741,
      "Ġliked": 4742,
      "Ġchart": 4743,
      "ulating": 4744,
      "Ġevil": 4745,
      "akistan": 4746,
      "Ġsurf": 4747,
      "Ġremain": 4748,
      "Ġappropr": 4749,
      "iency": 4750,
      "Ġroughly": 4751,
      "Ġexercise": 4752,
      "Ġintellectual": 4753,
      "min": 4754,
      "Ġaug": 4755,
      "anze": 4756,
      "Ġhey": 4757,
      "Ġpeak": 4758,
      "Ġuser": 4759,
      "Ġdecl": 4760,
      "Ġremo": 4761,
      "Ġminim": 4762,
      "Ġcarefully": 4763,
      "Ġlocation": 4764,
      "Ġadvent": 4765,
      "Ġtypically": 4766,
      "Ġchemistry": 4767,
      "Ġsweet": 4768,
      "Ġgentlemen": 4769,
      "Ġchimpanze": 4770,
      "cers": 4771,
      "ux": 4772,
      "Ġsight": 4773,
      "Ġbg": 4774,
      "Ġgift": 4775,
      "Ġstaff": 4776,
      "Ġkitch": 4777,
      "Ġorch": 4778,
      "Ġspin": 4779,
      "Ġplus": 4780,
      "Ġpole": 4781,
      "Ġphr": 4782,
      "Ġlessons": 4783,
      "Ġformer": 4784,
      "Ġassign": 4785,
      "Ġprotection": 4786,
      "Ġnegot": 4787,
      "Ġflex": 4788,
      "Ġsurvey": 4789,
      "cal": 4790,
      "col": 4791,
      "gl": 4792,
      "Ġanderson": 4793,
      "Ġpakistan": 4794,
      "Ġdots": 4795,
      "Ġing": 4796,
      "Ġlic": 4797,
      "Ġloud": 4798,
      "Ġideal": 4799,
      "Ġextract": 4800,
      "Ġminister": 4801,
      "Ġgenerally": 4802,
      "Ġcorruption": 4803,
      "Ġcourage": 4804,
      "Ġdefine": 4805,
      "Ġrequired": 4806,
      "Ġencourage": 4807,
      "Ġbritain": 4808,
      "Ġdisappear": 4809,
      "Ġrelatively": 4810,
      "Ġopinion": 4811,
      "oes": 4812,
      "Ġcast": 4813,
      "Ġinput": 4814,
      "itarian": 4815,
      "Ġwel": 4816,
      "Ġsees": 4817,
      "Ġjack": 4818,
      "Ġshall": 4819,
      "Ġbran": 4820,
      "Ġfunding": 4821,
      "Ġproducing": 4822,
      "Ġhunt": 4823,
      "Ġengaged": 4824,
      "Ġcenters": 4825,
      "Ġ45": 4826,
      "Ġprofit": 4827,
      "Ġrefer": 4828,
      "Ġassist": 4829,
      "Ġsteel": 4830,
      "Ġevolutionary": 4831,
      "Ġobser": 4832,
      "Ġblocks": 4833,
      "Ġvulnerable": 4834,
      "Ġcriminal": 4835,
      "Ġtelescope": 4836,
      "Ġvaluable": 4837,
      "bre": 4838,
      "ox": 4839,
      "ss": 4840,
      "uary": 4841,
      "Ġnur": 4842,
      "icy": 4843,
      "Ġcha": 4844,
      "Ġunex": 4845,
      "Ġcontain": 4846,
      "Ġgenerate": 4847,
      "Ġregard": 4848,
      "Ġcurve": 4849,
      "Ġenvironments": 4850,
      "Ġmemories": 4851,
      "Ġconvince": 4852,
      "Ġhorse": 4853,
      "Ġfundament": 4854,
      "Ġdefinitely": 4855,
      "Ġcircumst": 4856,
      "Ġoct": 4857,
      "Ġbee": 4858,
      "Ġjer": 4859,
      "Ġride": 4860,
      "abilities": 4861,
      "Ġprefer": 4862,
      "Ġinvention": 4863,
      "Ġconservation": 4864,
      "Ġfewer": 4865,
      "Ġrecy": 4866,
      "Ġpengu": 4867,
      "Ġsatis": 4868,
      "Ġconversations": 4869,
      "Ġstatus": 4870,
      "Ġdepends": 4871,
      "Ġdomin": 4872,
      "Ġparticipate": 4873,
      "Ġcapture": 4874,
      "Ġmistake": 4875,
      "uel": 4876,
      "Ġber": 4877,
      "Ġdip": 4878,
      "iti": 4879,
      "urance": 4880,
      "Ġcanada": 4881,
      "Ġshame": 4882,
      "cience": 4883,
      "Ġunus": 4884,
      "abet": 4885,
      "Ġaff": 4886,
      "olds": 4887,
      "Ġwinter": 4888,
      "Ġencoura": 4889,
      "Ġvaccine": 4890,
      "Ġmolecular": 4891,
      "build": 4892,
      "Ġforgot": 4893,
      "Ġfisher": 4894,
      "Ġillegal": 4895,
      "Ġestablish": 4896,
      "but": 4897,
      "ole": 4898,
      "tube": 4899,
      "Ġbath": 4900,
      "Ġpitch": 4901,
      "Ġlength": 4902,
      "usive": 4903,
      "Ġchic": 4904,
      "Ġmax": 4905,
      "Ġclub": 4906,
      "Ġbuying": 4907,
      "Ġcommand": 4908,
      "Ġpregn": 4909,
      "Ġconsist": 4910,
      "Ġmedium": 4911,
      "Ġserve": 4912,
      "Ġphysically": 4913,
      "Ġexisting": 4914,
      "Ġcyber": 4915,
      "Ġsituations": 4916,
      "Ġconsumer": 4917,
      "Ġhoriz": 4918,
      "porary": 4919,
      "Ġmosquit": 4920,
      "bors": 4921,
      "Ġalex": 4922,
      "Ġwat": 4923,
      "Ġsides": 4924,
      "nded": 4925,
      "Ġcure": 4926,
      "Ġpy": 4927,
      "Ġeld": 4928,
      "oles": 4929,
      "Ġru": 4930,
      "Ġcompar": 4931,
      "Ġquarter": 4932,
      "Ġfactor": 4933,
      "Ġapparent": 4934,
      "Ġstudio": 4935,
      "Ġprocessing": 4936,
      "Ġkeeps": 4937,
      "Ġdrag": 4938,
      "Ġshoot": 4939,
      "Ġcarrying": 4940,
      "Ġapplied": 4941,
      "Ġmanufacturing": 4942,
      "Ġnigeria": 4943,
      "80": 4944,
      "ael": 4945,
      "spe": 4946,
      "van": 4947,
      "Ġlect": 4948,
      "isters": 4949,
      "Ġmak": 4950,
      "Ġactions": 4951,
      "Ġsugar": 4952,
      "Ġcompl": 4953,
      "Ġpersonally": 4954,
      "Ġformed": 4955,
      "Ġsoul": 4956,
      "Ġdiam": 4957,
      "Ġ99": 4958,
      "Ġ75": 4959,
      "Ġbottle": 4960,
      "Ġtransformation": 4961,
      "Ġprimary": 4962,
      "Ġcartoon": 4963,
      "Ġspectrum": 4964,
      "Ġinstrument": 4965,
      "Ġkitchen": 4966,
      "Ġcub": 4967,
      "Ġpair": 4968,
      "Ġfert": 4969,
      "Ġles": 4970,
      "Ġgrain": 4971,
      "Ġyoutube": 4972,
      "Ġreven": 4973,
      "Ġdogs": 4974,
      "Ġjail": 4975,
      "Ġteeth": 4976,
      "eline": 4977,
      "Ġdisaster": 4978,
      "Ġgenet": 4979,
      "Ġincreased": 4980,
      "Ġreached": 4981,
      "Ġanalog": 4982,
      "Ġaffected": 4983,
      "Ġintroduced": 4984,
      "Ġemployees": 4985,
      "Ġtumor": 4986,
      "Ġsports": 4987,
      "Ġnewspaper": 4988,
      "Ġliquid": 4989,
      "bur": 4990,
      "dr": 4991,
      "log": 4992,
      "mas": 4993,
      "Ġfishing": 4994,
      "Ġnose": 4995,
      "icing": 4996,
      "alled": 4997,
      "stic": 4998,
      "Ġoutcome": 4999,
      "Ġintr": 5000,
      "Ġspan": 5001,
      "Ġdesk": 5002,
      "Ġbrothers": 5003,
      "Ġgrid": 5004,
      "Ġpolar": 5005,
      "Ġnaturally": 5006,
      "Ġbehaviors": 5007,
      "Ġoption": 5008,
      "Ġsilence": 5009,
      "Ġneighbors": 5010,
      "Ġcombination": 5011,
      "Ġpulled": 5012,
      "Ġdiscussion": 5013,
      "hyth": 5014,
      "Ġaccompl": 5015,
      "Ġchicken": 5016,
      "Ġchicago": 5017,
      "ka": 5018,
      "Ġhill": 5019,
      "Ġgam": 5020,
      "Ġrational": 5021,
      "aren": 5022,
      "Ġperception": 5023,
      "Ġoverwh": 5024,
      "Ġdiss": 5025,
      "Ġcontem": 5026,
      "Ġadded": 5027,
      "Ġauton": 5028,
      "Ġmemor": 5029,
      "Ġtraveling": 5030,
      "Ġempower": 5031,
      "Ġattacks": 5032,
      "Ġ2010": 5033,
      "Ġawareness": 5034,
      "Ġinevit": 5035,
      "Ġrestaurant": 5036,
      "Ġoverwhel": 5037,
      "ament": 5038,
      "uls": 5039,
      "Ġmand": 5040,
      "Ġsuic": 5041,
      "Ġaging": 5042,
      "Ġbubble": 5043,
      "Ġdesper": 5044,
      "Ġgoods": 5045,
      "Ġscared": 5046,
      "Ġ196": 5047,
      "Ġtopic": 5048,
      "Ġrecorded": 5049,
      "Ġinclude": 5050,
      "Ġhospitals": 5051,
      "Ġprinting": 5052,
      "Ġsharks": 5053,
      "Ġinspiration": 5054,
      "Ġlaptop": 5055,
      "Ġsymptoms": 5056,
      "Ġdress": 5057,
      "icip": 5058,
      "rog": 5059,
      "Ġsem": 5060,
      "Ġsevere": 5061,
      "olving": 5062,
      "Ġarrest": 5063,
      "Ġdrives": 5064,
      "Ġ2008": 5065,
      "ternal": 5066,
      "Ġmarine": 5067,
      "Ġprotected": 5068,
      "Ġpotentially": 5069,
      "Ġmeaningful": 5070,
      "Ġactivities": 5071,
      "Ġsample": 5072,
      "Ġmistakes": 5073,
      "Ġauthority": 5074,
      "Ġconcrete": 5075,
      "Ġcomponents": 5076,
      "Ġcredit": 5077,
      "Ġmirror": 5078,
      "Ġorgans": 5079,
      "father": 5080,
      "Ġthin": 5081,
      "Ġbat": 5082,
      "Ġpin": 5083,
      "lying": 5084,
      "Ġatoms": 5085,
      "Ġrit": 5086,
      "Ġperm": 5087,
      "Ġperman": 5088,
      "Ġimpl": 5089,
      "cond": 5090,
      "Ġflies": 5091,
      "ublic": 5092,
      "Ġbiom": 5093,
      "Ġstronger": 5094,
      "Ġdestruction": 5095,
      "Ġhotel": 5096,
      "Ġempathy": 5097,
      "Ġseason": 5098,
      "Ġpleasure": 5099,
      "Ġsophisticated": 5100,
      "Ġunusual": 5101,
      "11": 5102,
      "mal": 5103,
      "nes": 5104,
      "Ġii": 5105,
      "esh": 5106,
      "Ġjames": 5107,
      "Ġneither": 5108,
      "Ġchannel": 5109,
      "angers": 5110,
      "Ġdriven": 5111,
      "Ġcomputing": 5112,
      "Ġregions": 5113,
      "Ġchallenging": 5114,
      "Ġsteve": 5115,
      "Ġradiation": 5116,
      "Ġcritic": 5117,
      "Ġviruses": 5118,
      "Ġpassionate": 5119,
      "Ġjudge": 5120,
      "Ġclinic": 5121,
      "Ġcollaboration": 5122,
      "Ġmortality": 5123,
      "Ġfalse": 5124,
      "Ġabstract": 5125,
      "friend": 5126,
      "Ġinterpret": 5127,
      "Ġfundamentally": 5128,
      "Ġlying": 5129,
      "icate": 5130,
      "child": 5131,
      "Ġring": 5132,
      "Ġrig": 5133,
      "Ġfrance": 5134,
      "Ġgravity": 5135,
      "ework": 5136,
      "Ġprivacy": 5137,
      "Ġmathematic": 5138,
      "Ġestim": 5139,
      "Ġdropped": 5140,
      "Ġlaboratory": 5141,
      "Ġframework": 5142,
      "da": 5143,
      "hes": 5144,
      "ym": 5145,
      "Ġip": 5146,
      "Ġcup": 5147,
      "Ġmile": 5148,
      "Ġfiction": 5149,
      "Ġlas": 5150,
      "Ġreci": 5151,
      "Ġrenew": 5152,
      "Ġnotes": 5153,
      "umps": 5154,
      "Ġ22": 5155,
      "Ġacqu": 5156,
      "Ġafterno": 5157,
      "Ġboston": 5158,
      "Ġjoined": 5159,
      "Ġpassword": 5160,
      "Ġwindows": 5161,
      "Ġphotographs": 5162,
      "Ġannoun": 5163,
      "Ġislam": 5164,
      "Ġdramatic": 5165,
      "uits": 5166,
      "vi": 5167,
      "Ġath": 5168,
      "Ġgut": 5169,
      "Ġfeature": 5170,
      "Ġinterests": 5171,
      "Ġsolved": 5172,
      "Ġruns": 5173,
      "Ġclever": 5174,
      "Ġequally": 5175,
      "Ġoptions": 5176,
      "Ġterrorism": 5177,
      "Ġtransportation": 5178,
      "Ġprepared": 5179,
      "gment": 5180,
      "ront": 5181,
      "Ġsco": 5182,
      "Ġbarr": 5183,
      "enced": 5184,
      "Ġpian": 5185,
      "Ġupper": 5186,
      "Ġconver": 5187,
      "Ġven": 5188,
      "Ġspo": 5189,
      "Ġtechnological": 5190,
      "Ġ194": 5191,
      "Ġmuslim": 5192,
      "Ġzone": 5193,
      "Ġmilk": 5194,
      "Ġproductive": 5195,
      "Ġoperate": 5196,
      "Ġamounts": 5197,
      "Ġexplained": 5198,
      "Ġultimate": 5199,
      "Ġpollution": 5200,
      "Ġburning": 5201,
      "Ġinnovative": 5202,
      "Ġnavig": 5203,
      "aurs": 5204,
      "Ġmurd": 5205,
      "ingu": 5206,
      "Ġna": 5207,
      "ums": 5208,
      "Ġclock": 5209,
      "anging": 5210,
      "Ġtransfer": 5211,
      "Ġconfront": 5212,
      "Ġtests": 5213,
      "Ġsenses": 5214,
      "Ġrecords": 5215,
      "Ġrelevant": 5216,
      "Ġ1990": 5217,
      "Ġtitle": 5218,
      "Ġhousing": 5219,
      "Ġalgorithms": 5220,
      "Ġhorrible": 5221,
      "Ġtan": 5222,
      "organ": 5223,
      "ams": 5224,
      "Ġacting": 5225,
      "Ġunknown": 5226,
      "Ġtwe": 5227,
      "Ġpool": 5228,
      "Ġequality": 5229,
      "Ġliterature": 5230,
      "Ġpractical": 5231,
      "Ġnarrative": 5232,
      "Ġapplications": 5233,
      "Ġappreciate": 5234,
      "Ġingred": 5235,
      "500": 5236,
      "Ġbes": 5237,
      "Ġbell": 5238,
      "Ġreject": 5239,
      "Ġhaw": 5240,
      "igm": 5241,
      "Ġanx": 5242,
      "Ġcomment": 5243,
      "Ġsphere": 5244,
      "Ġfeatures": 5245,
      "Ġclip": 5246,
      "Ġclothes": 5247,
      "berg": 5248,
      "Ġunderwater": 5249,
      "Ġremains": 5250,
      "Ġorganism": 5251,
      "Ġsinging": 5252,
      "Ġcharles": 5253,
      "Ġfigures": 5254,
      "Ġcollected": 5255,
      "Ġmarketing": 5256,
      "Ġsensors": 5257,
      "Ġfalling": 5258,
      "Ġsustainability": 5259,
      "Ġmechanism": 5260,
      "Ġemergency": 5261,
      "Ġsongs": 5262,
      "Ġislands": 5263,
      "Ġdoubt": 5264,
      "Ġmichael": 5265,
      "Ġrussia": 5266,
      "Ġought": 5267,
      "Ġtoxic": 5268,
      "Ġnurs": 5269,
      "Ġyouth": 5270,
      "ald": 5271,
      "opia": 5272,
      "americ": 5273,
      "Ġmeg": 5274,
      "Ġcoord": 5275,
      "Ġunion": 5276,
      "being": 5277,
      "Ġmont": 5278,
      "Ġskill": 5279,
      "Ġinternal": 5280,
      "Ġhandle": 5281,
      "Ġlargely": 5282,
      "Ġproviding": 5283,
      "Ġoperation": 5284,
      "Ġarchitects": 5285,
      "Ġcombined": 5286,
      "Ġdomestic": 5287,
      "Ġbreathe": 5288,
      "Ġefficiency": 5289,
      "Ġiniti": 5290,
      "Ġvehicles": 5291,
      "Ġswimming": 5292,
      "Ġfabric": 5293,
      "Ġeggs": 5294,
      "Ġancestors": 5295,
      "Ġantibiot": 5296,
      "Ġafternoon": 5297,
      "inction": 5298,
      "Ġbay": 5299,
      "Ġhorm": 5300,
      "Ġhits": 5301,
      "Ġfake": 5302,
      "orous": 5303,
      "Ġintense": 5304,
      "oses": 5305,
      "Ġtack": 5306,
      "Ġuncom": 5307,
      "Ġcontrast": 5308,
      "Ġbio": 5309,
      "Ġmusical": 5310,
      "Ġvisible": 5311,
      "Ġconfidence": 5312,
      "Ġpatent": 5313,
      "Ġyounger": 5314,
      "Ġelectro": 5315,
      "Ġdirector": 5316,
      "Ġconstrain": 5317,
      "Ġadminist": 5318,
      "Ġhoping": 5319,
      "llywood": 5320,
      "Ġsurrounded": 5321,
      "Ġtonight": 5322,
      "iosity": 5323,
      "Ġhydrogen": 5324,
      "Ġtaste": 5325,
      "Ġagreed": 5326,
      "Ġzoom": 5327,
      "han": 5328,
      "za": 5329,
      "Ġthick": 5330,
      "Ġcere": 5331,
      "Ġcortex": 5332,
      "itution": 5333,
      "Ġchose": 5334,
      "Ġnowhere": 5335,
      "Ġ23": 5336,
      "Ġdiscipl": 5337,
      "Ġscar": 5338,
      "Ġscore": 5339,
      "Ġelection": 5340,
      "Ġrepublic": 5341,
      "crim": 5342,
      "Ġjoke": 5343,
      "Ġfunctions": 5344,
      "Ġeastern": 5345,
      "Ġallowing": 5346,
      "Ġparall": 5347,
      "Ġparking": 5348,
      "Ġadvice": 5349,
      "Ġconstant": 5350,
      "Ġpsychology": 5351,
      "Ġridic": 5352,
      "scale": 5353,
      "Ġconclusion": 5354,
      "Ġborder": 5355,
      "Ġborders": 5356,
      "Ġdinosaurs": 5357,
      "rom": 5358,
      "Ġboring": 5359,
      "Ġpink": 5360,
      "Ġstan": 5361,
      "Ġstorm": 5362,
      "Ġanonym": 5363,
      "Ġdece": 5364,
      "Ġtape": 5365,
      "Ġworker": 5366,
      "Ġglam": 5367,
      "Ġgrab": 5368,
      "Ġparis": 5369,
      "Ġtested": 5370,
      "Ġvirgin": 5371,
      "Ġstayed": 5372,
      "Ġmulti": 5373,
      "Ġcombine": 5374,
      "Ġpolicies": 5375,
      "Ġproteins": 5376,
      "Ġharvest": 5377,
      "Ġpuzzle": 5378,
      "ham": 5379,
      "lom": 5380,
      "Ġwine": 5381,
      "Ġcord": 5382,
      "Ġbicy": 5383,
      "Ġmice": 5384,
      "Ġdiction": 5385,
      "Ġlens": 5386,
      "Ġdeploy": 5387,
      "Ġoutc": 5388,
      "Ġtab": 5389,
      "Ġpercentage": 5390,
      "Ġremove": 5391,
      "Ġlake": 5392,
      "Ġexplos": 5393,
      "Ġsubs": 5394,
      "Ġ2009": 5395,
      "Ġdefined": 5396,
      "Ġstret": 5397,
      "Ġteams": 5398,
      "Ġsunlight": 5399,
      "Ġviolent": 5400,
      "Ġpsychological": 5401,
      "Ġembed": 5402,
      "Ġrocket": 5403,
      "Ġmechanical": 5404,
      "Ġangry": 5405,
      "Ġfingers": 5406,
      "Ġangeles": 5407,
      "Ġkorea": 5408,
      "bage": 5409,
      "lands": 5410,
      "oint": 5411,
      "Ġmere": 5412,
      "Ġhi": 5413,
      "Ġhoney": 5414,
      "Ġbutton": 5415,
      "olic": 5416,
      "que": 5417,
      "Ġsomewhat": 5418,
      "Ġobst": 5419,
      "Ġsolving": 5420,
      "Ġexploration": 5421,
      "Ġrooms": 5422,
      "Ġ600": 5423,
      "ended": 5424,
      "Ġroads": 5425,
      "herent": 5426,
      "Ġinfected": 5427,
      "Ġ1980": 5428,
      "Ġresistance": 5429,
      "ault": 5430,
      "greg": 5431,
      "pa": 5432,
      "Ġpm": 5433,
      "Ġmac": 5434,
      "Ġtrig": 5435,
      "Ġtheme": 5436,
      "Ġplate": 5437,
      "Ġunc": 5438,
      "Ġevening": 5439,
      "athers": 5440,
      "gging": 5441,
      "Ġglobe": 5442,
      "Ġtrend": 5443,
      "Ġdepth": 5444,
      "Ġerror": 5445,
      "Ġadmit": 5446,
      "Ġlinked": 5447,
      "Ġcooking": 5448,
      "Ġwireless": 5449,
      "cription": 5450,
      "Ġaccurate": 5451,
      "Ġembrace": 5452,
      "foot": 5453,
      "Ġcircumstances": 5454,
      "vis": 5455,
      "Ġack": 5456,
      "Ġdot": 5457,
      "Ġsept": 5458,
      "Ġabuse": 5459,
      "Ġwherever": 5460,
      "Ġoverall": 5461,
      "Ġimplement": 5462,
      "Ġphase": 5463,
      "Ġresil": 5464,
      "Ġgenius": 5465,
      "Ġinstruct": 5466,
      "Ġcenturies": 5467,
      "hips": 5468,
      "Ġdefense": 5469,
      "Ġfilms": 5470,
      "Ġgreenhouse": 5471,
      "aneously": 5472,
      "Ġpresentation": 5473,
      "Ġmeasured": 5474,
      "Ġfixed": 5475,
      "Ġframe": 5476,
      "Ġoccurred": 5477,
      "Ġdiplom": 5478,
      "gr": 5479,
      "gue": 5480,
      "Ġiphone": 5481,
      "Ġsir": 5482,
      "Ġsets": 5483,
      "Ġcents": 5484,
      "Ġmall": 5485,
      "Ġpill": 5486,
      "ita": 5487,
      "sem": 5488,
      "Ġhem": 5489,
      "Ġuns": 5490,
      "Ġexcl": 5491,
      "Ġadvance": 5492,
      "Ġdeaths": 5493,
      "Ġoccasion": 5494,
      "Ġsilk": 5495,
      "Ġsuffer": 5496,
      "Ġbirthday": 5497,
      "Ġdynam": 5498,
      "Ġinstruments": 5499,
      "Ġunexpected": 5500,
      "Ġdut": 5501,
      "Ġinject": 5502,
      "cend": 5503,
      "illing": 5504,
      "Ġ27": 5505,
      "Ġflash": 5506,
      "Ġcreature": 5507,
      "Ġbusy": 5508,
      "Ġze": 5509,
      "Ġcolum": 5510,
      "arrass": 5511,
      "Ġabsor": 5512,
      "Ġrecording": 5513,
      "Ġembarrass": 5514,
      "Ġdivide": 5515,
      "Ġflew": 5516,
      "Ġcontrolled": 5517,
      "Ġtherapy": 5518,
      "Ġsplit": 5519,
      "making": 5520,
      "source": 5521,
      "Ġpushing": 5522,
      "Ġdust": 5523,
      "itors": 5524,
      "Ġears": 5525,
      "Ġvoc": 5526,
      "Ġflood": 5527,
      "Ġfinance": 5528,
      "Ġrecom": 5529,
      "Ġpresence": 5530,
      "Ġstatement": 5531,
      "Ġclosely": 5532,
      "Ġsensitive": 5533,
      "Ġfeeding": 5534,
      "Ġvolume": 5535,
      "Ġfaced": 5536,
      "Ġcapitalism": 5537,
      "Ġmaintain": 5538,
      "Ġexplanation": 5539,
      "Ġwikip": 5540,
      "Ġseptember": 5541,
      "bed": 5542,
      "Ġtro": 5543,
      "Ġhook": 5544,
      "Ġgps": 5545,
      "Ġham": 5546,
      "Ġselection": 5547,
      "Ġplans": 5548,
      "Ġoffered": 5549,
      "Ġflower": 5550,
      "Ġmonkey": 5551,
      "Ġcuriosity": 5552,
      "Ġlabel": 5553,
      "Ġexisted": 5554,
      "Ġboxes": 5555,
      "Ġaston": 5556,
      "Ġscratch": 5557,
      "Ġdestroyed": 5558,
      "Ġritual": 5559,
      "Ġoutcomes": 5560,
      "ek": 5561,
      "lock": 5562,
      "pass": 5563,
      "ups": 5564,
      "Ġwow": 5565,
      "Ġcath": 5566,
      "uses": 5567,
      "Ġreverse": 5568,
      "ctic": 5569,
      "Ġchip": 5570,
      "Ġacts": 5571,
      "Ġcock": 5572,
      "Ġexpon": 5573,
      "Ġdecline": 5574,
      "Ġpresented": 5575,
      "Ġ2007": 5576,
      "Ġequation": 5577,
      "Ġtreating": 5578,
      "Ġfalls": 5579,
      "Ġcausing": 5580,
      "Ġcircuit": 5581,
      "Ġtracking": 5582,
      "Ġdetermine": 5583,
      "Ġspiritual": 5584,
      "Ġwondered": 5585,
      "Ġpacific": 5586,
      "Ġappropriate": 5587,
      "Ġthom": 5588,
      "Ġaim": 5589,
      "Ġpump": 5590,
      "Ġpapers": 5591,
      "Ġitem": 5592,
      "uting": 5593,
      "Ġwash": 5594,
      "ula": 5595,
      "Ġspider": 5596,
      "Ġages": 5597,
      "Ġpoly": 5598,
      "Ġdownload": 5599,
      "Ġtechnique": 5600,
      "Ġowners": 5601,
      "Ġstri": 5602,
      "Ġ1960": 5603,
      "Ġextent": 5604,
      "Ġextinct": 5605,
      "Ġeconomists": 5606,
      "Ġinterestingly": 5607,
      "Ġsigned": 5608,
      "Ġdistinct": 5609,
      "Ġarguments": 5610,
      "Ġsilic": 5611,
      "Ġflowers": 5612,
      "Ġreceive": 5613,
      "Ġsamples": 5614,
      "Ġassume": 5615,
      "Ġclouds": 5616,
      "Ġvaccines": 5617,
      "Ġelectronic": 5618,
      "Ġfrankly": 5619,
      "connected": 5620,
      "Ġhypothes": 5621,
      "Ġorchest": 5622,
      "Ġwikipedia": 5623,
      "ih": 5624,
      "vas": 5625,
      "yeah": 5626,
      "Ġfan": 5627,
      "Ġfurn": 5628,
      "alu": 5629,
      "Ġric": 5630,
      "Ġrush": 5631,
      "iled": 5632,
      "ateful": 5633,
      "Ġenable": 5634,
      "Ġshell": 5635,
      "Ġfirm": 5636,
      "Ġraw": 5637,
      "Ġgla": 5638,
      "Ġcollapse": 5639,
      "Ġconserv": 5640,
      "Ġdatab": 5641,
      "Ġelim": 5642,
      "Ġeducational": 5643,
      "box": 5644,
      "Ġfloating": 5645,
      "Ġalgorithm": 5646,
      "Ġaspects": 5647,
      "Ġfederal": 5648,
      "Ġscenar": 5649,
      "Ġacknow": 5650,
      "hen": 5651,
      "ris": 5652,
      "uce": 5653,
      "vin": 5654,
      "Ġmary": 5655,
      "Ġpra": 5656,
      "Ġdign": 5657,
      "arant": 5658,
      "Ġweigh": 5659,
      "Ġdozen": 5660,
      "Ġchief": 5661,
      "anta": 5662,
      "Ġexcell": 5663,
      "Ġours": 5664,
      "Ġclus": 5665,
      "Ġscream": 5666,
      "Ġgray": 5667,
      "Ġstring": 5668,
      "Ġmush": 5669,
      "Ġairport": 5670,
      "Ġstandards": 5671,
      "Ġcrack": 5672,
      "Ġchrom": 5673,
      "Ġ250": 5674,
      "Ġsuggests": 5675,
      "Ġsubjects": 5676,
      "Ġstruck": 5677,
      "Ġlogic": 5678,
      "Ġcelebrate": 5679,
      "Ġromantic": 5680,
      "Ġvessels": 5681,
      "Ġentertainment": 5682,
      "Ġsuicide": 5683,
      "bal": 5684,
      "called": 5685,
      "Ġbones": 5686,
      "Ġmales": 5687,
      "Ġgulf": 5688,
      "Ġnic": 5689,
      "Ġwhales": 5690,
      "Ġstands": 5691,
      "Ġcoin": 5692,
      "Ġobama": 5693,
      "tech": 5694,
      "Ġrelate": 5695,
      "Ġtranspl": 5696,
      "Ġeconomies": 5697,
      "Ġcorres": 5698,
      "Ġadvoc": 5699,
      "Ġlimb": 5700,
      "Ġtransformed": 5701,
      "Ġspreading": 5702,
      "Ġlifest": 5703,
      "Ġdrinking": 5704,
      "Ġapplication": 5705,
      "Ġprosper": 5706,
      "cred": 5707,
      "night": 5708,
      "over": 5709,
      "Ġtired": 5710,
      "Ġicon": 5711,
      "Ġstro": 5712,
      "Ġanger": 5713,
      "ads": 5714,
      "Ġvag": 5715,
      "Ġtea": 5716,
      "Ġseek": 5717,
      "Ġtap": 5718,
      "Ġpharm": 5719,
      "Ġscary": 5720,
      "Ġcarried": 5721,
      "Ġengaging": 5722,
      "Ġbike": 5723,
      "Ġ[\"": 5724,
      "Ġprovided": 5725,
      "Ġlimits": 5726,
      "Ġballoon": 5727,
      "Ġbreathing": 5728,
      "Ġsavings": 5729,
      "Ġcustomers": 5730,
      "Ġprivilege": 5731,
      "Ġpiano": 5732,
      "70": 5733,
      "des": 5734,
      "ov": 5735,
      "Ġq": 5736,
      "nda": 5737,
      "eration": 5738,
      "ounce": 5739,
      "Ġlone": 5740,
      "eding": 5741,
      "iters": 5742,
      "omic": 5743,
      "Ġstere": 5744,
      "keys": 5745,
      "Ġjune": 5746,
      "Ġagency": 5747,
      "soft": 5748,
      "Ġpocket": 5749,
      "Ġlets": 5750,
      "phones": 5751,
      "while": 5752,
      "Ġgrows": 5753,
      "Ġexplo": 5754,
      "ographer": 5755,
      "Ġsecure": 5756,
      "Ġclasses": 5757,
      "Ġrising": 5758,
      "Ġvillages": 5759,
      "okay": 5760,
      "Ġencoun": 5761,
      "Ġchristmas": 5762,
      "Ġtransparen": 5763,
      "Ġqueen": 5764,
      "Ġelephant": 5765,
      "Ġconventional": 5766,
      "hythm": 5767,
      "Ġtransparency": 5768,
      "ba": 5769,
      "bra": 5770,
      "der": 5771,
      "iety": 5772,
      "oll": 5773,
      "oons": 5774,
      "rors": 5775,
      "Ġaqu": 5776,
      "Ġwhale": 5777,
      "Ġstack": 5778,
      "sters": 5779,
      "Ġchamp": 5780,
      "Ġfruit": 5781,
      "Ġproport": 5782,
      "Ġknock": 5783,
      "Ġspr": 5784,
      "Ġroot": 5785,
      "Ġgras": 5786,
      "Ġpolio": 5787,
      "Ġclassic": 5788,
      "Ġmeasuring": 5789,
      "Ġantar": 5790,
      "Ġanticip": 5791,
      "Ġkingdom": 5792,
      "Ġspectac": 5793,
      "Ġlatin": 5794,
      "Ġdramatically": 5795,
      "Ġmystery": 5796,
      "Ġdisorder": 5797,
      "Ġprecisely": 5798,
      "Ġimplications": 5799,
      "Ġjanuary": 5800,
      "Ġphrase": 5801,
      "hour": 5802,
      "Ġtight": 5803,
      "Ġther": 5804,
      "inations": 5805,
      "Ġcab": 5806,
      "Ġcash": 5807,
      "Ġhat": 5808,
      "Ġnest": 5809,
      "Ġstyle": 5810,
      "iring": 5811,
      "Ġtri": 5812,
      "Ġleap": 5813,
      "Ġimpress": 5814,
      "Ġhumor": 5815,
      "icted": 5816,
      "Ġprem": 5817,
      "Ġgrateful": 5818,
      "Ġinsurance": 5819,
      "Ġstoryt": 5820,
      "Ġcorn": 5821,
      "Ġsurely": 5822,
      "Ġincreases": 5823,
      "Ġgrandfather": 5824,
      "Ġirr": 5825,
      "Ġachieved": 5826,
      "Ġproperly": 5827,
      "Ġautomatically": 5828,
      "Ġscript": 5829,
      "Ġparadigm": 5830,
      "profit": 5831,
      "Ġapparently": 5832,
      "Ġstretch": 5833,
      "hop": 5834,
      "hol": 5835,
      "tail": 5836,
      "uous": 5837,
      "Ġdu": 5838,
      "iture": 5839,
      "Ġgest": 5840,
      "using": 5841,
      "struct": 5842,
      "Ġjul": 5843,
      "Ġshar": 5844,
      "Ġneut": 5845,
      "Ġfright": 5846,
      "Ġevolve": 5847,
      "Ġovercome": 5848,
      "Ġlock": 5849,
      "Ġsyr": 5850,
      "Ġblank": 5851,
      "Ġcommitted": 5852,
      "Ġremem": 5853,
      "Ġinstinct": 5854,
      "Ġshoulder": 5855,
      "Ġimagined": 5856,
      "Ġpopulations": 5857,
      "iox": 5858,
      "Ġcontinued": 5859,
      "heim": 5860,
      "Ġmeetings": 5861,
      "Ġlegis": 5862,
      "Ġmillenn": 5863,
      "Ġrepresented": 5864,
      "Ġrecognition": 5865,
      "Ġconsumers": 5866,
      "Ġtranslate": 5867,
      "Ġignor": 5868,
      "Ġcorporate": 5869,
      "Ġprototype": 5870,
      "Ġhunger": 5871,
      "Ġfifth": 5872,
      "Ġsurgeon": 5873,
      "Ġinfinite": 5874,
      "Ġsilicon": 5875,
      "Ġchromos": 5876,
      "ias": 5877,
      "son": 5878,
      "wr": 5879,
      "Ġsne": 5880,
      "eness": 5881,
      "Ġpace": 5882,
      "lymp": 5883,
      "Ġjim": 5884,
      "Ġalien": 5885,
      "Ġtech": 5886,
      "Ġplaced": 5887,
      "aint": 5888,
      "Ġuncle": 5889,
      "Ġunbel": 5890,
      "Ġadam": 5891,
      "Ġraising": 5892,
      "Ġcareful": 5893,
      "Ġaccum": 5894,
      "Ġidentical": 5895,
      "Ġrobotic": 5896,
      "Ġfootprint": 5897,
      "Ġmainly": 5898,
      "Ġcitizen": 5899,
      "Ġjournalist": 5900,
      "Ġ1970": 5901,
      "Ġcomponent": 5902,
      "Ġcandid": 5903,
      "Ġacademic": 5904,
      "Ġmicroscope": 5905,
      "Ġwelcome": 5906,
      "Ġparallel": 5907,
      "Ġthomas": 5908,
      "ost": 5909,
      "sing": 5910,
      "tes": 5911,
      "Ġtent": 5912,
      "Ġwound": 5913,
      "rets": 5914,
      "Ġolymp": 5915,
      "oned": 5916,
      "Ġdense": 5917,
      "Ġgon": 5918,
      "Ġgig": 5919,
      "ashing": 5920,
      "keep": 5921,
      "through": 5922,
      "Ġassemb": 5923,
      "Ġvibr": 5924,
      "osing": 5925,
      "Ġloop": 5926,
      "Ġinterf": 5927,
      "Ġguarant": 5928,
      "Ġschol": 5929,
      "Ġpersonality": 5930,
      "Ġwalks": 5931,
      "Ġconnecting": 5932,
      "Ġdistrict": 5933,
      "Ġpainful": 5934,
      "Ġexpectations": 5935,
      "Ġreaching": 5936,
      "Ġbehavioral": 5937,
      "Ġperforming": 5938,
      "Ġinspire": 5939,
      "Ġdancing": 5940,
      "Ġbanks": 5941,
      "Ġheroes": 5942,
      "Ġmethods": 5943,
      "Ġseeds": 5944,
      "conscious": 5945,
      "Ġpregnant": 5946,
      "cence": 5947,
      "gic": 5948,
      "hr": 5949,
      "yal": 5950,
      "Ġwal": 5951,
      "Ġsales": 5952,
      "itory": 5953,
      "Ġgro": 5954,
      "Ġwhist": 5955,
      "Ġrebuild": 5956,
      "Ġliver": 5957,
      "Ġaside": 5958,
      "Ġchocol": 5959,
      "Ġdelic": 5960,
      "Ġrobert": 5961,
      "def": 5962,
      "acing": 5963,
      "Ġsmoke": 5964,
      "Ġtraum": 5965,
      "Ġexploring": 5966,
      "Ġcolony": 5967,
      "Ġtraveled": 5968,
      "Ġpushed": 5969,
      "Ġcolleague": 5970,
      "Ġaccepted": 5971,
      "Ġappears": 5972,
      "Ġgolden": 5973,
      "Ġthrown": 5974,
      "Ġtoilet": 5975,
      "ket": 5976,
      "kind": 5977,
      "Ġaster": 5978,
      "Ġtoler": 5979,
      "Ġpix": 5980,
      "Ġfib": 5981,
      "otes": 5982,
      "imeter": 5983,
      "there": 5984,
      "think": 5985,
      "Ġspinal": 5986,
      "Ġwanting": 5987,
      "Ġtraged": 5988,
      "Ġinvite": 5989,
      "Ġdesigns": 5990,
      "Ġcollaps": 5991,
      "Ġcheaper": 5992,
      "Ġcollecting": 5993,
      "Ġmissed": 5994,
      "Ġuniversities": 5995,
      "Ġlegacy": 5996,
      "Ġmicrosoft": 5997,
      "Ġdirections": 5998,
      "Ġstrategies": 5999,
      "Ġefforts": 6000,
      "Ġdistributed": 6001,
      "Ġvolunteers": 6002,
      "Ġslavery": 6003,
      "Ġbarely": 6004,
      "Ġauthent": 6005,
      "Ġmaxim": 6006,
      "Ġmushroom": 6007,
      "Ġunbeliev": 6008,
      "ev": 6009,
      "war": 6010,
      "Ġtip": 6011,
      "Ġwed": 6012,
      "Ġba": 6013,
      "Ġpour": 6014,
      "Ġlun": 6015,
      "Ġgates": 6016,
      "Ġgolf": 6017,
      "Ġshake": 6018,
      "Ġplot": 6019,
      "Ġmanh": 6020,
      "Ġherself": 6021,
      "Ġpersu": 6022,
      "Ġboom": 6023,
      "Ġplays": 6024,
      "Ġ1950": 6025,
      "Ġbias": 6026,
      "Ġorganize": 6027,
      "Ġearthqu": 6028,
      "Ġrecognized": 6029,
      "Ġdepending": 6030,
      "Ġconcepts": 6031,
      "Ġethi": 6032,
      "Ġapartment": 6033,
      "Ġghana": 6034,
      "Ġdisorders": 6035,
      "Ġfortunately": 6036,
      "Ġpoorest": 6037,
      "Ġsweden": 6038,
      "Ġobstac": 6039,
      "90": 6040,
      "Ġtill": 6041,
      "nday": 6042,
      "Ġmim": 6043,
      "Ġhal": 6044,
      "Ġdh": 6045,
      "sey": 6046,
      "iday": 6047,
      "Ġorange": 6048,
      "Ġproced": 6049,
      "iform": 6050,
      "rous": 6051,
      "iel": 6052,
      "ogue": 6053,
      "Ġenemy": 6054,
      "udes": 6055,
      "Ġprices": 6056,
      "Ġroots": 6057,
      "Ġrail": 6058,
      "Ġflor": 6059,
      "Ġmonkeys": 6060,
      "Ġentered": 6061,
      "Ġproduces": 6062,
      "Ġelev": 6063,
      "Ġnative": 6064,
      "Ġrepair": 6065,
      "Ġhousehold": 6066,
      "Ġillusion": 6067,
      "Ġinteracting": 6068,
      "Ġinteractive": 6069,
      "Ġinteractions": 6070,
      "Ġobsessed": 6071,
      "Ġpollen": 6072,
      "Ġvirtually": 6073,
      "Ġcaptured": 6074,
      "Ġsynthes": 6075,
      "Ġnarrow": 6076,
      "Ġbombs": 6077,
      "Ġignore": 6078,
      "Ġconcert": 6079,
      "Ġcontrolling": 6080,
      "Ġhabitat": 6081,
      "Ġexhibition": 6082,
      "Ġremoved": 6083,
      "Ġlicense": 6084,
      "Ġrecyc": 6085,
      "aust": 6086,
      "mes": 6087,
      "pal": 6088,
      "uff": 6089,
      "Ġhub": 6090,
      "Ġpul": 6091,
      "Ġpand": 6092,
      "anthrop": 6093,
      "arters": 6094,
      "etch": 6095,
      "raction": 6096,
      "Ġdoz": 6097,
      "Ġneural": 6098,
      "Ġattend": 6099,
      "Ġrw": 6100,
      "ille": 6101,
      "Ġvital": 6102,
      "Ġcoach": 6103,
      "Ġadjust": 6104,
      "Ġguard": 6105,
      "Ġfuels": 6106,
      "Ġmetab": 6107,
      "Ġafricans": 6108,
      "Ġreference": 6109,
      "Ġgeomet": 6110,
      "Ġhearts": 6111,
      "Ġproductivity": 6112,
      "Ġdiabet": 6113,
      "Ġaccessible": 6114,
      "Ġdarkness": 6115,
      "Ġtelephone": 6116,
      "Ġamongst": 6117,
      "Ġimmune": 6118,
      "Ġportra": 6119,
      "Ġtasks": 6120,
      "Ġnarrator": 6121,
      "iveness": 6122,
      "Ġcrying": 6123,
      "Ġrepeat": 6124,
      "Ġappeared": 6125,
      "Ġdiverse": 6126,
      "Ġphilosophy": 6127,
      "Ġpermanent": 6128,
      "Ġembedded": 6129,
      "gers": 6130,
      "nels": 6131,
      "rary": 6132,
      "Ġtube": 6133,
      "Ġsar": 6134,
      "Ġsisters": 6135,
      "Ġcas": 6136,
      "Ġcens": 6137,
      "Ġboss": 6138,
      "Ġpowers": 6139,
      "Ġdensity": 6140,
      "esity": 6141,
      "itz": 6142,
      "Ġorbit": 6143,
      "Ġtries": 6144,
      "Ġplenty": 6145,
      "aret": 6146,
      "Ġunits": 6147,
      "Ġneedle": 6148,
      "Ġresolution": 6149,
      "Ġdecre": 6150,
      "azz": 6151,
      "Ġfarmer": 6152,
      "Ġglobally": 6153,
      "Ġ2005": 6154,
      "Ġbreaking": 6155,
      "Ġfilter": 6156,
      "Ġretire": 6157,
      "Ġescape": 6158,
      "attan": 6159,
      "Ġreported": 6160,
      "Ġdrove": 6161,
      "Ġfascinated": 6162,
      "Ġbeliefs": 6163,
      "Ġmammals": 6164,
      "Ġroute": 6165,
      "Ġadopt": 6166,
      "Ġcommitment": 6167,
      "Ġaxis": 6168,
      "Ġisolated": 6169,
      "Ġhungry": 6170,
      "Ġfertil": 6171,
      "children": 6172,
      "Ġuncomfort": 6173,
      "Ġuncertain": 6174,
      "hib": 6175,
      "mates": 6176,
      "walk": 6177,
      "Ġ0": 6178,
      "Ġcous": 6179,
      "Ġder": 6180,
      "Ġdict": 6181,
      "Ġdirty": 6182,
      "orter": 6183,
      "llar": 6184,
      "Ġlung": 6185,
      "ota": 6186,
      "stand": 6187,
      "erences": 6188,
      "Ġpeer": 6189,
      "Ġtex": 6190,
      "Ġsacr": 6191,
      "agn": 6192,
      "agger": 6193,
      "Ġdisg": 6194,
      "aks": 6195,
      "Ġinstant": 6196,
      "Ġlovely": 6197,
      "Ġdevast": 6198,
      "Ġpractices": 6199,
      "Ġerad": 6200,
      "Ġmagnetic": 6201,
      "Ġbudd": 6202,
      "Ġneighborhoods": 6203,
      "Ġastronom": 6204,
      "Ġattached": 6205,
      "Ġdignity": 6206,
      "Ġmanhattan": 6207,
      "cut": 6208,
      "case": 6209,
      "power": 6210,
      "tw": 6211,
      "val": 6212,
      "wich": 6213,
      "org": 6214,
      "amin": 6215,
      "Ġabund": 6216,
      "illy": 6217,
      "illance": 6218,
      "ivered": 6219,
      "Ġyours": 6220,
      "Ġimper": 6221,
      "ologically": 6222,
      "century": 6223,
      "Ġunderground": 6224,
      "Ġflip": 6225,
      "Ġinvolves": 6226,
      "Ġobesity": 6227,
      "Ġrecru": 6228,
      "Ġsecondly": 6229,
      "Ġcorals": 6230,
      "Ġcontrols": 6231,
      "Ġrainforest": 6232,
      "Ġvertical": 6233,
      "Ġcontribute": 6234,
      "Ġguns": 6235,
      "Ġlatest": 6236,
      "Ġhistorical": 6237,
      "Ġcooperation": 6238,
      "Ġshadow": 6239,
      "Ġadvertising": 6240,
      "Ġpyram": 6241,
      "Ġglaci": 6242,
      "Ġdozens": 6243,
      "eared": 6244,
      "gun": 6245,
      "Ġsed": 6246,
      "Ġdim": 6247,
      "Ġyield": 6248,
      "leton": 6249,
      "Ġrent": 6250,
      "Ġdoors": 6251,
      "Ġlikes": 6252,
      "Ġsection": 6253,
      "Ġaspir": 6254,
      "Ġtag": 6255,
      "Ġexposed": 6256,
      "Ġdisability": 6257,
      "Ġemph": 6258,
      "Ġwriter": 6259,
      "Ġ32": 6260,
      "Ġhardware": 6261,
      "Ġmuscles": 6262,
      "Ġconfident": 6263,
      "Ġcontrovers": 6264,
      "attered": 6265,
      "Ġhollywood": 6266,
      "Ġshooting": 6267,
      "Ġtextbook": 6268,
      "Ġrocks": 6269,
      "Ġfluid": 6270,
      "Ġdivided": 6271,
      "Ġdiagram": 6272,
      "Ġvictim": 6273,
      "Ġengagement": 6274,
      "Ġentrepreneur": 6275,
      "Ġtalent": 6276,
      "Ġchapter": 6277,
      "Ġpenguins": 6278,
      "Ġsatisf": 6279,
      "Ġuncomfortable": 6280,
      "Ġtexas": 6281,
      "happ": 6282,
      "Ġtrop": 6283,
      "rect": 6284,
      "Ġfulf": 6285,
      "Ġlux": 6286,
      "Ġnin": 6287,
      "iders": 6288,
      "aming": 6289,
      "Ġaband": 6290,
      "uman": 6291,
      "Ġsheep": 6292,
      "ptions": 6293,
      "ishment": 6294,
      "Ġgranted": 6295,
      "Ġguide": 6296,
      "Ġglad": 6297,
      "Ġhardly": 6298,
      "Ġbehave": 6299,
      "Ġveter": 6300,
      "Ġoperations": 6301,
      "Ġdelivered": 6302,
      "Ġcommunications": 6303,
      "Ġphotography": 6304,
      "Ġpurch": 6305,
      "Ġhiggs": 6306,
      "Ġexperiencing": 6307,
      "Ġfacial": 6308,
      "Ġconcern": 6309,
      "Ġsurveillance": 6310,
      "Ġutter": 6311,
      "Ġmanufacture": 6312,
      "Ġrecovery": 6313,
      "copes": 6314,
      "Ġsculpture": 6315,
      "Ġugly": 6316,
      "Ġrescue": 6317,
      "Ġdedicated": 6318,
      "Ġchaos": 6319,
      "Ġelder": 6320,
      "Ġlecture": 6321,
      "Ġstanford": 6322,
      "Ġlifestyle": 6323,
      "Ġspectacular": 6324,
      "rant": 6325,
      "va": 6326,
      "vest": 6327,
      "Ġts": 6328,
      "Ġcute": 6329,
      "Ġhire": 6330,
      "Ġdiox": 6331,
      "Ġeve": 6332,
      "Ġbeer": 6333,
      "Ġash": 6334,
      "Ġmold": 6335,
      "Ġate": 6336,
      "Ġcongo": 6337,
      "ckets": 6338,
      "Ġalph": 6339,
      "Ġusual": 6340,
      "uncle": 6341,
      "osure": 6342,
      "Ġmanif": 6343,
      "Ġclar": 6344,
      "Ġlob": 6345,
      "Ġscales": 6346,
      "Ġearn": 6347,
      "Ġslides": 6348,
      "Ġattrib": 6349,
      "Ġoldest": 6350,
      "Ġminor": 6351,
      "Ġanimation": 6352,
      "Ġparaly": 6353,
      "Ġelsewhere": 6354,
      "ughters": 6355,
      "Ġ65": 6356,
      "Ġestimate": 6357,
      "Ġethn": 6358,
      "Ġsalt": 6359,
      "Ġcouncil": 6360,
      "Ġpaintings": 6361,
      "Ġconsequence": 6362,
      "Ġlaughing": 6363,
      "Ġbaseball": 6364,
      "Ġintuitive": 6365,
      "Ġpilot": 6366,
      "Ġantibiotics": 6367,
      "Ġchocolate": 6368,
      "Ġdiabetes": 6369,
      "cause": 6370,
      "ship": 6371,
      "wa": 6372,
      "Ġbob": 6373,
      "Ġpicking": 6374,
      "eters": 6375,
      "Ġstations": 6376,
      "ida": 6377,
      "uration": 6378,
      "Ġanthrop": 6379,
      "Ġjes": 6380,
      "Ġexternal": 6381,
      "osh": 6382,
      "mented": 6383,
      "angle": 6384,
      "Ġmonitor": 6385,
      "Ġparticle": 6386,
      "class": 6387,
      "Ġdigit": 6388,
      "Ġpsychiat": 6389,
      "Ġfootball": 6390,
      "Ġmechanics": 6391,
      "Ġsearching": 6392,
      "Ġinitial": 6393,
      "Ġsuspect": 6394,
      "Ġweapon": 6395,
      "flies": 6396,
      "worth": 6397,
      "Ġcrops": 6398,
      "Ġincentives": 6399,
      "Ġneuroscience": 6400,
      "Ġatlantic": 6401,
      "Ġmartin": 6402,
      "Ġfurniture": 6403,
      "list": 6404,
      "lines": 6405,
      "Ġwired": 6406,
      "ato": 6407,
      "level": 6408,
      "otion": 6409,
      "Ġhaiti": 6410,
      "Ġchos": 6411,
      "Ġconven": 6412,
      "Ġparties": 6413,
      "Ġ26": 6414,
      "iac": 6415,
      "archy": 6416,
      "Ġreput": 6417,
      "Ġvisited": 6418,
      "Ġdistant": 6419,
      "Ġmarry": 6420,
      "Ġprovides": 6421,
      "Ġprogramming": 6422,
      "Ġsurviv": 6423,
      "Ġimpacts": 6424,
      "Ġlayers": 6425,
      "Ġfunctional": 6426,
      "forward": 6427,
      "Ġislamic": 6428,
      "Ġfortune": 6429,
      "Ġoptimistic": 6430,
      "Ġinspiring": 6431,
      "Ġhanging": 6432,
      "Ġfrozen": 6433,
      "Ġautonom": 6434,
      "Ġdisgust": 6435,
      "Ġdioxide": 6436,
      "Ġchosen": 6437,
      "Ġtank": 6438,
      "Ġwip": 6439,
      "Ġol": 6440,
      "Ġcod": 6441,
      "Ġpeter": 6442,
      "esis": 6443,
      "alian": 6444,
      "Ġrely": 6445,
      "Ġchest": 6446,
      "Ġrice": 6447,
      "tery": 6448,
      "Ġproof": 6449,
      "Ġintention": 6450,
      "Ġspark": 6451,
      "Ġsheet": 6452,
      "Ġdisrupt": 6453,
      "Ġbackwards": 6454,
      "Ġcapita": 6455,
      "Ġskull": 6456,
      "Ġgenerated": 6457,
      "Ġprotest": 6458,
      "Ġopposed": 6459,
      "Ġagenda": 6460,
      "Ġviews": 6461,
      "Ġobjective": 6462,
      "Ġinvesting": 6463,
      "Ġdelight": 6464,
      "Ġreduction": 6465,
      "going": 6466,
      "Ġmechanisms": 6467,
      "Ġdiscoveries": 6468,
      "Ġsandwich": 6469,
      "Ġdocuments": 6470,
      "Ġofficer": 6471,
      "Ġintegrated": 6472,
      "Ġgarbage": 6473,
      "Ġrefugees": 6474,
      "Ġchimpanzees": 6475,
      "american": 6476,
      "Ġrecommend": 6477,
      "born": 6478,
      "den": 6479,
      "fall": 6480,
      "lims": 6481,
      "inals": 6482,
      "Ġborrow": 6483,
      "isons": 6484,
      "vey": 6485,
      "section": 6486,
      "Ġconce": 6487,
      "Ġoutput": 6488,
      "Ġupset": 6489,
      "Ġsacred": 6490,
      "Ġnobel": 6491,
      "Ġagencies": 6492,
      "Ġpoison": 6493,
      "Ġlocked": 6494,
      "Ġcharity": 6495,
      "Ġprotecting": 6496,
      "aws": 6497,
      "Ġchoosing": 6498,
      "pox": 6499,
      "Ġ2011": 6500,
      "Ġsynthetic": 6501,
      "Ġconflicts": 6502,
      "Ġdisappeared": 6503,
      "Ġpalest": 6504,
      "Ġintegr": 6505,
      "Ġjeff": 6506,
      "Ġsimplicity": 6507,
      "Ġcrucial": 6508,
      "Ġrecover": 6509,
      "Ġtower": 6510,
      "Ġlaser": 6511,
      "Ġspoken": 6512,
      "free": 6513,
      "lies": 6514,
      "nam": 6515,
      "under": 6516,
      "Ġtears": 6517,
      "Ġwings": 6518,
      "Ġtheories": 6519,
      "ener": 6520,
      "icop": 6521,
      "lete": 6522,
      "Ġalco": 6523,
      "Ġactor": 6524,
      "Ġenh": 6525,
      "Ġperpet": 6526,
      "Ġunp": 6527,
      "Ġquad": 6528,
      "Ġexpans": 6529,
      "Ġspell": 6530,
      "Ġletting": 6531,
      "Ġcommod": 6532,
      "Ġcommission": 6533,
      "Ġprec": 6534,
      "Ġdrill": 6535,
      "Ġstrip": 6536,
      "Ġlighting": 6537,
      "Ġpassing": 6538,
      "Ġstops": 6539,
      "Ġtrends": 6540,
      "Ġbreakthrough": 6541,
      "Ġessence": 6542,
      "Ġsilent": 6543,
      "Ġphilanthrop": 6544,
      "Ġcharacteristics": 6545,
      "Ġprinted": 6546,
      "Ġjournalists": 6547,
      "Ġaffordable": 6548,
      "Ġskept": 6549,
      "Ġtransparent": 6550,
      "Ġoriginally": 6551,
      "Ġrefugee": 6552,
      "Ġsmooth": 6553,
      "Ġdolphins": 6554,
      "Ġanonymous": 6555,
      "Ġencounter": 6556,
      "aa": 6557,
      "ds": 6558,
      "oe": 6559,
      "sum": 6560,
      "top": 6561,
      "Ġsink": 6562,
      "Ġdive": 6563,
      "Ġnaked": 6564,
      "Ġitaly": 6565,
      "owing": 6566,
      "usions": 6567,
      "ione": 6568,
      "Ġdear": 6569,
      "Ġquit": 6570,
      "Ġscott": 6571,
      "Ġemer": 6572,
      "Ġsettle": 6573,
      "Ġelections": 6574,
      "Ġeducated": 6575,
      "lessly": 6576,
      "Ġmargin": 6577,
      "Ġdaughters": 6578,
      "Ġfocusing": 6579,
      "Ġceiling": 6580,
      "Ġtouched": 6581,
      "Ġultra": 6582,
      "Ġreports": 6583,
      "dollar": 6584,
      "Ġinnovations": 6585,
      "Ġmotivation": 6586,
      "Ġtort": 6587,
      "Ġelectronics": 6588,
      "Ġrepeated": 6589,
      "Ġsenior": 6590,
      "Ġlawyer": 6591,
      "Ġannounced": 6592,
      "Ġtransplant": 6593,
      "Ġtragedy": 6594,
      "Ġaer": 6595,
      "Ġwise": 6596,
      "ctica": 6597,
      "Ġstable": 6598,
      "Ġknee": 6599,
      "Ġintent": 6600,
      "Ġwilli": 6601,
      "Ġcontains": 6602,
      "Ġindig": 6603,
      "Ġbron": 6604,
      "Ġtraject": 6605,
      "Ġfool": 6606,
      "Ġobl": 6607,
      "Ġconsult": 6608,
      "Ġdrivers": 6609,
      "Ġlaughter": 6610,
      "Ġstrangers": 6611,
      "Ġ195": 6612,
      "Ġmeter": 6613,
      "Ġopens": 6614,
      "Ġbiod": 6615,
      "Ġsubtle": 6616,
      "Ġgovernance": 6617,
      "Ġadding": 6618,
      "Ġcontinues": 6619,
      "Ġspeaker": 6620,
      "Ġconsume": 6621,
      "Ġvolcan": 6622,
      "Ġcircles": 6623,
      "Ġterrorist": 6624,
      "Ġterrorists": 6625,
      "Ġimprovement": 6626,
      "Ġstruggling": 6627,
      "Ġchristian": 6628,
      "Ġtitan": 6629,
      "Ġagricultural": 6630,
      "Ġsymmetry": 6631,
      "Ġingredients": 6632,
      "Ġanxiety": 6633,
      "Ġnurses": 6634,
      "Ġridiculous": 6635,
      "Ġbicycle": 6636,
      "Ġdynamics": 6637,
      "Ġantarctica": 6638,
      "heimer": 6639,
      "Ġgonna": 6640,
      "unclear": 6641,
      "bar": 6642,
      "fold": 6643,
      "iated": 6644,
      "ja": 6645,
      "rus": 6646,
      "view": 6647,
      "Ġtheore": 6648,
      "Ġpunch": 6649,
      "Ġdow": 6650,
      "edy": 6651,
      "Ġkiss": 6652,
      "Ġrio": 6653,
      "Ġactors": 6654,
      "udd": 6655,
      "Ġcliff": 6656,
      "Ġclients": 6657,
      "Ġincident": 6658,
      "Ġfinds": 6659,
      "Ġafterwards": 6660,
      "Ġhelicop": 6661,
      "when": 6662,
      "Ġpointed": 6663,
      "Ġlaid": 6664,
      "Ġbiologists": 6665,
      "Ġmuslims": 6666,
      "Ġdisturb": 6667,
      "Ġ2004": 6668,
      "Ġcraft": 6669,
      "Ġdrawn": 6670,
      "Ġidentified": 6671,
      "Ġ120": 6672,
      "Ġparticipants": 6673,
      "Ġvariation": 6674,
      "Ġdebt": 6675,
      "Ġangle": 6676,
      "Ġhello": 6677,
      "Ġshaped": 6678,
      "Ġdemonstrate": 6679,
      "Ġshopping": 6680,
      "Ġmysterious": 6681,
      "Ġdiagnosed": 6682,
      "Ġboundaries": 6683,
      "Ġwheelch": 6684,
      "Ġdominant": 6685,
      "Ġastonishing": 6686,
      "Ġearthquake": 6687,
      "Ġemphas": 6688,
      "Ġmanifest": 6689,
      "bits": 6690,
      "mers": 6691,
      "ober": 6692,
      "sp": 6693,
      "talk": 6694,
      "Ġtied": 6695,
      "Ġtoys": 6696,
      "Ġdere": 6697,
      "Ġcham": 6698,
      "Ġray": 6699,
      "ares": 6700,
      "Ġevalu": 6701,
      "Ġexped": 6702,
      "Ġhappier": 6703,
      "Ġdish": 6704,
      "Ġsciences": 6705,
      "Ġrelax": 6706,
      "Ġregret": 6707,
      "Ġparas": 6708,
      "Ġrobust": 6709,
      "Ġmusicians": 6710,
      "Ġpainted": 6711,
      "Ġlegit": 6712,
      "Ġfacility": 6713,
      "Ġcrossing": 6714,
      "Ġheaven": 6715,
      "Ġdimension": 6716,
      "Ġreveal": 6717,
      "Ġjewish": 6718,
      "Ġadventure": 6719,
      "viol": 6720,
      "Ġdatabase": 6721,
      "wow": 6722,
      "Ġwra": 6723,
      "Ġsession": 6724,
      "Ġmi": 6725,
      "Ġhip": 6726,
      "Ġdump": 6727,
      "Ġinherent": 6728,
      "Ġwet": 6729,
      "Ġnets": 6730,
      "utical": 6731,
      "izer": 6732,
      "Ġbubb": 6733,
      "Ġpartly": 6734,
      "elly": 6735,
      "Ġmonit": 6736,
      "Ġattitude": 6737,
      "Ġcaps": 6738,
      "Ġrespo": 6739,
      "Ġlabs": 6740,
      "Ġbrave": 6741,
      "Ġobserv": 6742,
      "Ġreduced": 6743,
      "Ġpromote": 6744,
      "Ġparticipation": 6745,
      "Ġpupp": 6746,
      "Ġlinks": 6747,
      "Ġdisappoint": 6748,
      "Ġtricks": 6749,
      "Ġrarely": 6750,
      "Ġshrimp": 6751,
      "Ġathlet": 6752,
      "Ġhemis": 6753,
      "Ġricher": 6754,
      "Ġemerge": 6755,
      "har": 6756,
      "hus": 6757,
      "Ġhier": 6758,
      "Ġnick": 6759,
      "lyn": 6760,
      "Ġanat": 6761,
      "thal": 6762,
      "Ġrh": 6763,
      "unction": 6764,
      "aceutical": 6765,
      "Ġflows": 6766,
      "Ġschem": 6767,
      "Ġimaging": 6768,
      "Ġhighlight": 6769,
      "Ġserved": 6770,
      "Ġcapability": 6771,
      "Ġfiguring": 6772,
      "Ġviet": 6773,
      "Ġceo": 6774,
      "Ġneuron": 6775,
      "Ġreturned": 6776,
      "Ġreminded": 6777,
      "front": 6778,
      "Ġdependent": 6779,
      "Ġsymbols": 6780,
      "Ġinjury": 6781,
      "Ġsmoking": 6782,
      "Ġbranch": 6783,
      "Ġoctober": 6784,
      "Ġwaters": 6785,
      "Ġunbelievable": 6786,
      "bered": 6787,
      "hal": 6788,
      "mod": 6789,
      "makers": 6790,
      "rid": 6791,
      "zheimer": 6792,
      "Ġak": 6793,
      "Ġaes": 6794,
      "Ġod": 6795,
      "Ġboo": 6796,
      "Ġbible": 6797,
      "Ġbars": 6798,
      "enger": 6799,
      "Ġpione": 6800,
      "Ġlit": 6801,
      "Ġgases": 6802,
      "Ġnit": 6803,
      "Ġreb": 6804,
      "Ġsoap": 6805,
      "Ġstages": 6806,
      "Ġstores": 6807,
      "stage": 6808,
      "Ġrating": 6809,
      "ulum": 6810,
      "Ġmail": 6811,
      "Ġalzheimer": 6812,
      "Ġchances": 6813,
      "Ġadap": 6814,
      "Ġcounty": 6815,
      "athan": 6816,
      "Ġsimult": 6817,
      "Ġwarning": 6818,
      "Ġaccidents": 6819,
      "Ġprobability": 6820,
      "Ġphotographer": 6821,
      "Ġlanded": 6822,
      "Ġfailing": 6823,
      "Ġfemales": 6824,
      "Ġsoldier": 6825,
      "Ġpanel": 6826,
      "Ġethical": 6827,
      "Ġassumptions": 6828,
      "Ġinitially": 6829,
      "Ġdetermined": 6830,
      "Ġanalyze": 6831,
      "Ġtribes": 6832,
      "Ġunlikely": 6833,
      "Ġcategories": 6834,
      "Ġelephants": 6835,
      "Ġgradually": 6836,
      "Ġbriefly": 6837,
      "Ġbathroom": 6838,
      "Ġtackle": 6839,
      "Ġdictionary": 6840,
      "Ġignorance": 6841,
      "Ġlungs": 6842,
      "Ġthrew": 6843,
      "Ġsits": 6844,
      "Ġooh": 6845,
      "Ġbol": 6846,
      "Ġbats": 6847,
      "Ġhen": 6848,
      "Ġpad": 6849,
      "Ġpile": 6850,
      "Ġfought": 6851,
      "oma": 6852,
      "Ġbears": 6853,
      "Ġabilities": 6854,
      "Ġmood": 6855,
      "Ġneat": 6856,
      "Ġunderlying": 6857,
      "Ġblame": 6858,
      "Ġsmith": 6859,
      "Ġschiz": 6860,
      "Ġeleg": 6861,
      "Ġartistic": 6862,
      "Ġedges": 6863,
      "Ġinformed": 6864,
      "Ġcurren": 6865,
      "Ġaircraft": 6866,
      "Ġtreatments": 6867,
      "Ġexperimental": 6868,
      "Ġmeasures": 6869,
      "Ġholds": 6870,
      "Ġcombat": 6871,
      "Ġpulling": 6872,
      "Ġincludes": 6873,
      "Ġvacu": 6874,
      "Ġsuggesting": 6875,
      "Ġseparated": 6876,
      "Ġcalculate": 6877,
      "Ġteenagers": 6878,
      "Ġvolunteer": 6879,
      "Ġlinear": 6880,
      "Ġuganda": 6881,
      "related": 6882,
      "Ġmiracle": 6883,
      "Ġpermission": 6884,
      "Ġethiopia": 6885,
      "Ġalcohol": 6886,
      "Ġbiodiversity": 6887,
      "field": 6888,
      "hh": 6889,
      "parent": 6890,
      "rich": 6891,
      "west": 6892,
      "Ġwing": 6893,
      "Ġsin": 6894,
      "Ġcats": 6895,
      "Ġfract": 6896,
      "arre": 6897,
      "Ġstom": 6898,
      "Ġchron": 6899,
      "Ġrivers": 6900,
      "ilit": 6901,
      "Ġdeli": 6902,
      "Ġcomprom": 6903,
      "Ġarctic": 6904,
      "Ġposter": 6905,
      "Ġdisag": 6906,
      "Ġrealm": 6907,
      "Ġmayor": 6908,
      "Ġ2006": 6909,
      "Ġgeographic": 6910,
      "Ġsuccessfully": 6911,
      "Ġfunded": 6912,
      "Ġsensory": 6913,
      "Ġgrandchildren": 6914,
      "Ġbreaks": 6915,
      "Ġfastest": 6916,
      "Ġpredictions": 6917,
      "Ġsuggested": 6918,
      "Ġexception": 6919,
      "Ġcollaborative": 6920,
      "Ġthrowing": 6921,
      "Ġcryst": 6922,
      "Ġphysicist": 6923,
      "Ġshocked": 6924,
      "Ġecosystems": 6925,
      "Ġfrequency": 6926,
      "Ġfrustrated": 6927,
      "Ġsurfaces": 6928,
      "Ġflexible": 6929,
      "Ġcontemporary": 6930,
      "Ġscenario": 6931,
      "Ġexcellent": 6932,
      "Ġreputation": 6933,
      "Ġtear": 6934,
      "Ġain": 6935,
      "Ġbure": 6936,
      "encing": 6937,
      "Ġpale": 6938,
      "ari": 6939,
      "icious": 6940,
      "Ġbegun": 6941,
      "Ġseats": 6942,
      "cking": 6943,
      "inder": 6944,
      "osal": 6945,
      "Ġtwenty": 6946,
      "Ġarrow": 6947,
      "Ġreson": 6948,
      "Ġbrut": 6949,
      "Ġflour": 6950,
      "Ġgenoc": 6951,
      "Ġtrail": 6952,
      "Ġsmallpox": 6953,
      "Ġfarming": 6954,
      "Ġelected": 6955,
      "Ġglobalization": 6956,
      "Ġrestrict": 6957,
      "inson": 6958,
      "Ġ95": 6959,
      "Ġdepressed": 6960,
      "Ġsentences": 6961,
      "Ġballs": 6962,
      "Ġstatist": 6963,
      "Ġsleeping": 6964,
      "Ġtargets": 6965,
      "Ġprisoners": 6966,
      "Ġautomob": 6967,
      "Ġconclude": 6968,
      "Ġsurprisingly": 6969,
      "Ġexpanding": 6970,
      "Ġadditional": 6971,
      "Ġparadox": 6972,
      "market": 6973,
      "Ġtrucks": 6974,
      "Ġintuition": 6975,
      "Ġnutrition": 6976,
      "Ġlawyers": 6977,
      "Ġensure": 6978,
      "Ġbesides": 6979,
      "Ġmerely": 6980,
      "och": 6981,
      "oids": 6982,
      "uity": 6983,
      "yard": 6984,
      "Ġwid": 6985,
      "Ġbiz": 6986,
      "Ġgand": 6987,
      "Ġnerve": 6988,
      "Ġbeet": 6989,
      "opher": 6990,
      "Ġjam": 6991,
      "Ġmeal": 6992,
      "Ġorient": 6993,
      "Ġdecent": 6994,
      "apor": 6995,
      "ardo": 6996,
      "Ġclay": 6997,
      "igned": 6998,
      "chnology": 6999,
      "Ġpersist": 7000,
      "Ġimagery": 7001,
      "Ġfounded": 7002,
      "Ġ191": 7003,
      "aze": 7004,
      "Ġeconomist": 7005,
      "Ġmagical": 7006,
      "Ġpositions": 7007,
      "mingly": 7008,
      "Ġspeakers": 7009,
      "Ġdeliber": 7010,
      "Ġpenn": 7011,
      "Ġobserve": 7012,
      "Ġpredicted": 7013,
      "Ġarray": 7014,
      "Ġaffects": 7015,
      "Ġintervention": 7016,
      "Ġimmediate": 7017,
      "Ġjohns": 7018,
      "Ġhackers": 7019,
      "Ġenterpr": 7020,
      "Ġnurse": 7021,
      "Ġspanish": 7022,
      "Ġschizoph": 7023,
      "Ġdelivery": 7024,
      "part": 7025,
      "rix": 7026,
      "ua": 7027,
      "wl": 7028,
      "Ġthresh": 7029,
      "Ġaward": 7030,
      "Ġsilly": 7031,
      "Ġcott": 7032,
      "Ġms": 7033,
      "Ġmate": 7034,
      "Ġlions": 7035,
      "Ġsole": 7036,
      "Ġub": 7037,
      "third": 7038,
      "Ġconvert": 7039,
      "Ġspa": 7040,
      "Ġenforce": 7041,
      "astroph": 7042,
      "Ġrose": 7043,
      "Ġcontrad": 7044,
      "Ġadoles": 7045,
      "phor": 7046,
      "Ġsmarter": 7047,
      "Ġcaring": 7048,
      "Ġcarol": 7049,
      "Ġasks": 7050,
      "Ġhelpful": 7051,
      "Ġconfir": 7052,
      "Ġconfused": 7053,
      "Ġinnocent": 7054,
      "Ġ700": 7055,
      "Ġsupported": 7056,
      "Ġindustries": 7057,
      "Ġparks": 7058,
      "Ġproposed": 7059,
      "Ġoxford": 7060,
      "Ġsignificantly": 7061,
      "Ġturkey": 7062,
      "Ġmixed": 7063,
      "Ġwidely": 7064,
      "Ġbags": 7065,
      "Ġshrink": 7066,
      "Ġshelter": 7067,
      "Ġcategory": 7068,
      "Ġneurolog": 7069,
      "Ġreefs": 7070,
      "Ġforgotten": 7071,
      "Ġrwanda": 7072,
      "Ġpyramid": 7073,
      "Ġwheelchair": 7074,
      "Ġbizarre": 7075,
      "fin": 7076,
      "half": 7077,
      "riger": 7078,
      "vy": 7079,
      "Ġtu": 7080,
      "Ġtub": 7081,
      "Ġthumb": 7082,
      "ata": 7083,
      "Ġcert": 7084,
      "Ġfile": 7085,
      "Ġfiber": 7086,
      "Ġgate": 7087,
      "state": 7088,
      "iment": 7089,
      "Ġsevent": 7090,
      "Ġwhatso": 7091,
      "adays": 7092,
      "ilize": 7093,
      "ifice": 7094,
      "Ġnowadays": 7095,
      "Ġ28": 7096,
      "Ġindex": 7097,
      "Ġbasket": 7098,
      "Ġinsist": 7099,
      "Ġenthus": 7100,
      "Ġcambr": 7101,
      "Ġjoint": 7102,
      "Ġconnectivity": 7103,
      "Ġparli": 7104,
      "Ġ2003": 7105,
      "Ġrefriger": 7106,
      "Ġassess": 7107,
      "Ġradically": 7108,
      "Ġopera": 7109,
      "Ġtempt": 7110,
      "Ġcivic": 7111,
      "Ġarchitectural": 7112,
      "Ġobservation": 7113,
      "Ġorigami": 7114,
      "Ġarrive": 7115,
      "Ġemerged": 7116,
      "Ġsticks": 7117,
      "Ġcatastroph": 7118,
      "Ġalgae": 7119,
      "Ġphysician": 7120,
      "Ġtuna": 7121,
      "Ġsatellites": 7122,
      "Ġcopyright": 7123,
      "Ġfragile": 7124,
      "forestation": 7125,
      "Ġgathering": 7126,
      "Ġextended": 7127,
      "Ġpasswords": 7128,
      "Ġresilience": 7129,
      "Ġinstructions": 7130,
      "Ġpharmaceutical": 7131,
      "Ġautonomous": 7132,
      "Ġhemisphere": 7133,
      "Ġschizophren": 7134,
      "Ġwhatsoever": 7135,
      ".]": 7136,
      "bru": 7137,
      "gos": 7138,
      "iance": 7139,
      "rome": 7140,
      "erved": 7141,
      "Ġpairs": 7142,
      "eds": 7143,
      "itudes": 7144,
      "aran": 7145,
      "Ġnu": 7146,
      "Ġell": 7147,
      "igation": 7148,
      "opy": 7149,
      "Ġsel": 7150,
      "olit": 7151,
      "Ġneck": 7152,
      "iece": 7153,
      "Ġsafer": 7154,
      "Ġenables": 7155,
      "Ġaggress": 7156,
      "Ġamy": 7157,
      "Ġacid": 7158,
      "Ġbrib": 7159,
      "Ġbrick": 7160,
      "Ġpretend": 7161,
      "athered": 7162,
      "Ġinvolve": 7163,
      "tending": 7164,
      "Ġgrace": 7165,
      "Ġentering": 7166,
      "Ġentrop": 7167,
      "Ġarticles": 7168,
      "Ġmetric": 7169,
      "Ġelite": 7170,
      "Ġregime": 7171,
      "Ġkiller": 7172,
      "Ġgods": 7173,
      "Ġinvested": 7174,
      "Ġinvestors": 7175,
      "Ġsuffered": 7176,
      "Ġimmense": 7177,
      "Ġpanels": 7178,
      "Ġburst": 7179,
      "Ġjudgment": 7180,
      "Ġtranslated": 7181,
      "Ġtribe": 7182,
      "world": 7183,
      "Ġroutine": 7184,
      "Ġdinosaur": 7185,
      "Ġpursue": 7186,
      "Ġgreek": 7187,
      "Ġdialogue": 7188,
      "capes": 7189,
      "Ġprofessionals": 7190,
      "Ġcolumn": 7191,
      "Ġsharp": 7192,
      "Ġscholars": 7193,
      "Ġvacuum": 7194,
      "ga": 7195,
      "viet": 7196,
      "erable": 7197,
      "Ġbos": 7198,
      "enous": 7199,
      "oning": 7200,
      "Ġduck": 7201,
      "ann": 7202,
      "Ġgi": 7203,
      "Ġwhis": 7204,
      "othing": 7205,
      "cel": 7206,
      "Ġrome": 7207,
      "Ġtrash": 7208,
      "Ġclient": 7209,
      "Ġgotta": 7210,
      "Ġfunds": 7211,
      "Ġpubl": 7212,
      "Ġanswered": 7213,
      "Ġweeke": 7214,
      "Ġtedtalk": 7215,
      "clock": 7216,
      "Ġsensor": 7217,
      "Ġexplaining": 7218,
      "Ġapproaches": 7219,
      "Ġscrew": 7220,
      "Ġdomain": 7221,
      "Ġrepresentation": 7222,
      "Ġprimitive": 7223,
      "Ġprimarily": 7224,
      "Ġthreats": 7225,
      "Ġwildlife": 7226,
      "fficient": 7227,
      "Ġbroadcast": 7228,
      "Ġjumped": 7229,
      "Ġattractive": 7230,
      "Ġfabulous": 7231,
      "Ġconstructed": 7232,
      "Ġperceived": 7233,
      "Ġaugust": 7234,
      "Ġrevenue": 7235,
      "Ġgenetically": 7236,
      "Ġinevitable": 7237,
      "Ġarrested": 7238,
      "Ġdecember": 7239,
      "Ġexplosion": 7240,
      "Ġhypothesis": 7241,
      "Ġstereoty": 7242,
      "Ġflorida": 7243,
      "Ġexpansion": 7244,
      "iens": 7245,
      "ocr": 7246,
      "ras": 7247,
      "toc": 7248,
      "Ġbored": 7249,
      "Ġinex": 7250,
      "Ġlg": 7251,
      "Ġstab": 7252,
      "amine": 7253,
      "Ġmode": 7254,
      "Ġspots": 7255,
      "employ": 7256,
      "Ġlean": 7257,
      "Ġagent": 7258,
      "Ġarmed": 7259,
      "Ġbuff": 7260,
      "play": 7261,
      "Ġincor": 7262,
      "Ġwriters": 7263,
      "Ġsimulation": 7264,
      "Ġowner": 7265,
      "Ġbond": 7266,
      "Ġending": 7267,
      "Ġstranger": 7268,
      "Ġcapabilities": 7269,
      "Ġregener": 7270,
      "Ġdistingu": 7271,
      "Ġ800": 7272,
      "Ġtraditions": 7273,
      "Ġsurvived": 7274,
      "Ġrobotics": 7275,
      "Ġsilver": 7276,
      "Ġwinning": 7277,
      "Ġcompetitive": 7278,
      "Ġburied": 7279,
      "Ġoxytoc": 7280,
      "ecd": 7281,
      "Ġdemonstration": 7282,
      "Ġarabic": 7283,
      "Ġclimbing": 7284,
      "Ġtransmission": 7285,
      "Ġhunting": 7286,
      "Ġinitiative": 7287,
      "Ġstroke": 7288,
      "Ġproportion": 7289,
      "Ġindigenous": 7290,
      "Ġoxytocin": 7291,
      "ville": 7292,
      "Ġos": 7293,
      "Ġcable": 7294,
      "Ġbf": 7295,
      "Ġmt": 7296,
      "Ġmri": 7297,
      "Ġhipp": 7298,
      "Ġfer": 7299,
      "Ġdys": 7300,
      "ani": 7301,
      "Ġinches": 7302,
      "Ġgab": 7303,
      "asy": 7304,
      "ication": 7305,
      "Ġbeij": 7306,
      "Ġrecept": 7307,
      "ura": 7308,
      "che": 7309,
      "Ġgore": 7310,
      "Ġjelly": 7311,
      "Ġshout": 7312,
      "Ġchips": 7313,
      "Ġchairs": 7314,
      "Ġupside": 7315,
      "Ġplain": 7316,
      "Ġplug": 7317,
      "Ġcompos": 7318,
      "Ġunpre": 7319,
      "agos": 7320,
      "Ġfebru": 7321,
      "Ġdiscrim": 7322,
      "Ġchannels": 7323,
      "Ġtragic": 7324,
      "Ġinstantly": 7325,
      "Ġcarr": 7326,
      "who": 7327,
      "Ġcrew": 7328,
      "Ġhomework": 7329,
      "Ġcurric": 7330,
      "Ġphysi": 7331,
      "Ġselfish": 7332,
      "Ġaudio": 7333,
      "Ġsquee": 7334,
      "Ġversions": 7335,
      "Ġprinter": 7336,
      "Ġreducing": 7337,
      "Ġsimilarly": 7338,
      "Ġclosing": 7339,
      "Ġimmig": 7340,
      "Ġlifes": 7341,
      "Ġthreatened": 7342,
      "Ġluckily": 7343,
      "Ġfraction": 7344,
      "Ġburned": 7345,
      "Ġauthorities": 7346,
      "Ġinfection": 7347,
      "Ġrolling": 7348,
      "Ġassociation": 7349,
      "Ġliberal": 7350,
      "Ġadopted": 7351,
      "Ġfortunate": 7352,
      "engine": 7353,
      "Ġmathematicians": 7354,
      "Ġadministration": 7355,
      "Ġoccasionally": 7356,
      "Ġparalyzed": 7357,
      "Ġdownt": 7358,
      "Ġparliament": 7359,
      "Ġfebruary": 7360,
      "\"]": 7361,
      "bow": 7362,
      "dam": 7363,
      "oir": 7364,
      "sah": 7365,
      "Ġtes": 7366,
      "Ġwider": 7367,
      "inarily": 7368,
      "Ġhitting": 7369,
      "Ġdies": 7370,
      "Ġdub": 7371,
      "Ġdumb": 7372,
      "Ġink": 7373,
      "Ġrehab": 7374,
      "Ġsoviet": 7375,
      "see": 7376,
      "Ġstake": 7377,
      "umes": 7378,
      "Ġalb": 7379,
      "Ġouts": 7380,
      "Ġintim": 7381,
      "oded": 7382,
      "Ġtriv": 7383,
      "Ġupd": 7384,
      "ortion": 7385,
      "Ġsupre": 7386,
      "Ġcompelling": 7387,
      "Ġleverage": 7388,
      "ache": 7389,
      "Ġpride": 7390,
      "iban": 7391,
      "rained": 7392,
      "Ġrealizing": 7393,
      "conf": 7394,
      "Ġcrick": 7395,
      "Ġextinction": 7396,
      "cedented": 7397,
      "Ġhealthier": 7398,
      "Ġforming": 7399,
      "Ġ2001": 7400,
      "Ġcheese": 7401,
      "Ġexcit": 7402,
      "Ġsecrets": 7403,
      "Ġstrongly": 7404,
      "Ġrequest": 7405,
      "Ġmedication": 7406,
      "Ġincluded": 7407,
      "Ġcovering": 7408,
      "Ġoptimism": 7409,
      "Ġprepare": 7410,
      "working": 7411,
      "Ġbullet": 7412,
      "Ġexpertise": 7413,
      "Ġexponential": 7414,
      "Ġconservative": 7415,
      "Ġcabin": 7416,
      "happy": 7417,
      "Ġelderly": 7418,
      "oying": 7419,
      "rants": 7420,
      "zero": 7421,
      "Ġvel": 7422,
      "Ġsulf": 7423,
      "Ġcig": 7424,
      "Ġcree": 7425,
      "Ġhind": 7426,
      "eday": 7427,
      "edge": 7428,
      "Ġga": 7429,
      "Ġnom": 7430,
      "Ġebol": 7431,
      "road": 7432,
      "opard": 7433,
      "Ġbutt": 7434,
      "ading": 7435,
      "Ġchim": 7436,
      "Ġrhythm": 7437,
      "Ġsomeday": 7438,
      "Ġspain": 7439,
      "Ġunable": 7440,
      "Ġunemploy": 7441,
      "ague": 7442,
      "uded": 7443,
      "Ġtwist": 7444,
      "Ġbug": 7445,
      "Ġdism": 7446,
      "Ġdeserve": 7447,
      "Ġdescription": 7448,
      "Ġbrun": 7449,
      "Ġgrat": 7450,
      "Ġbold": 7451,
      "Ġcaves": 7452,
      "Ġsett": 7453,
      "Ġfoods": 7454,
      "Ġapprox": 7455,
      "Ġdifficulty": 7456,
      "Ġdemands": 7457,
      "Ġstaying": 7458,
      "Ġimproving": 7459,
      "Ġfears": 7460,
      "apping": 7461,
      "Ġsaturn": 7462,
      "Ġdrawings": 7463,
      "Ġbeneath": 7464,
      "Ġcompete": 7465,
      "Ġaccounts": 7466,
      "Ġdamn": 7467,
      "Ġmethane": 7468,
      "Ġfraud": 7469,
      "Ġwealthy": 7470,
      "Ġtissues": 7471,
      "Ġskeleton": 7472,
      "Ġrussian": 7473,
      "Ġdefend": 7474,
      "Ġticket": 7475,
      "Ġmatrix": 7476,
      "Ġcolonies": 7477,
      "Ġconsistent": 7478,
      "Ġhorizon": 7479,
      "Ġtweet": 7480,
      "Ġorchestra": 7481,
      "Ġprosperity": 7482,
      "Ġuncertainty": 7483,
      "Ġunprecedented": 7484,
      "Ġebola": 7485,
      "bing": 7486,
      "human": 7487,
      "maker": 7488,
      "Ġtut": 7489,
      "Ġaunt": 7490,
      "Ġbin": 7491,
      "Ġhors": 7492,
      "Ġhired": 7493,
      "Ġtone": 7494,
      "Ġloo": 7495,
      "Ġlamp": 7496,
      "eda": 7497,
      "Ġbeating": 7498,
      "allow": 7499,
      "Ġforb": 7500,
      "imag": 7501,
      "Ġasian": 7502,
      "Ġjon": 7503,
      "erer": 7504,
      "Ġspray": 7505,
      "Ġunconscious": 7506,
      "Ġuniform": 7507,
      "Ġloving": 7508,
      "Ġstrike": 7509,
      "Ġserving": 7510,
      "Ġcompleted": 7511,
      "Ġstunt": 7512,
      "Ġopenness": 7513,
      "theast": 7514,
      "Ġrestore": 7515,
      "otted": 7516,
      "Ġexcuse": 7517,
      "Ġnorway": 7518,
      "Ġkills": 7519,
      "Ġharness": 7520,
      "Ġdawn": 7521,
      "Ġ85": 7522,
      "Ġlistened": 7523,
      "Ġexplains": 7524,
      "Ġimproved": 7525,
      "Ġkeyboard": 7526,
      "Ġfootage": 7527,
      "Ġperiods": 7528,
      "Ġtracks": 7529,
      "Ġreactions": 7530,
      "Ġleaf": 7531,
      "Ġdetailed": 7532,
      "Ġtranslation": 7533,
      "Ġannual": 7534,
      "Ġachievement": 7535,
      "Ġpigs": 7536,
      "Ġprofoundly": 7537,
      "Ġgarage": 7538,
      "Ġodds": 7539,
      "Ġnutrients": 7540,
      "Ġestablished": 7541,
      "Ġmosquito": 7542,
      "Ġnavigate": 7543,
      "Ġremembered": 7544,
      "Ġtrajectory": 7545,
      "Ġbubbles": 7546,
      "Ġsimultaneously": 7547,
      "Ġgenocide": 7548,
      "Ġthreshold": 7549,
      "Ġexcitement": 7550,
      "kward": 7551,
      "lers": 7552,
      "lings": 7553,
      "nat": 7554,
      "zan": 7555,
      "esthes": 7556,
      "Ġitalian": 7557,
      "icient": 7558,
      "rol": 7559,
      "urable": 7560,
      "changing": 7561,
      "Ġkar": 7562,
      "Ġjar": 7563,
      "Ġshots": 7564,
      "aded": 7565,
      "Ġdeforestation": 7566,
      "quarters": 7567,
      "Ġspons": 7568,
      "ela": 7569,
      "emics": 7570,
      "Ġarist": 7571,
      "Ġloves": 7572,
      "Ġphos": 7573,
      "Ġbrows": 7574,
      "Ġmeanwhile": 7575,
      "Ġeducate": 7576,
      "Ġvalid": 7577,
      "Ġterrifying": 7578,
      "Ġstructural": 7579,
      "Ġsteal": 7580,
      "Ġsupporting": 7581,
      "Ġsatur": 7582,
      "Ġirre": 7583,
      "Ġempire": 7584,
      "Ġawkward": 7585,
      "Ġfault": 7586,
      "Ġclosest": 7587,
      "Ġmindset": 7588,
      "Ġgraphic": 7589,
      "Ġphysicists": 7590,
      "Ġtaliban": 7591,
      "Ġregardless": 7592,
      "Ġrenewable": 7593,
      "Ġscores": 7594,
      "Ġtrigger": 7595,
      "semble": 7596,
      "parents": 7597,
      "Ġcambridge": 7598,
      "saharan": 7599,
      "100": 7600,
      "bul": 7601,
      "gent": 7602,
      "iro": 7603,
      "rical": 7604,
      "tr": 7605,
      "xual": 7606,
      "Ġmild": 7607,
      "Ġfbi": 7608,
      "Ġdating": 7609,
      "Ġlap": 7610,
      "Ġgear": 7611,
      "asters": 7612,
      "Ġkb": 7613,
      "Ġjet": 7614,
      "Ġconvey": 7615,
      "Ġknife": 7616,
      "Ġtends": 7617,
      "Ġouter": 7618,
      "Ġsail": 7619,
      "emen": 7620,
      "Ġmanager": 7621,
      "Ġune": 7622,
      "agon": 7623,
      "Ġclothing": 7624,
      "ounding": 7625,
      "Ġbrid": 7626,
      "Ġhumanitarian": 7627,
      "angible": 7628,
      "Ġowned": 7629,
      "Ġhighway": 7630,
      "Ġmining": 7631,
      "Ġcomputation": 7632,
      "Ġpreserve": 7633,
      "Ġsocially": 7634,
      "Ġsoup": 7635,
      "Ġmusician": 7636,
      "Ġdevil": 7637,
      "Ġbrook": 7638,
      "Ġphotographed": 7639,
      "Ġfacilities": 7640,
      "Ġspreads": 7641,
      "Ġsafely": 7642,
      "Ġmobility": 7643,
      "Ġ2012": 7644,
      "Ġmagnitude": 7645,
      "Ġassumption": 7646,
      "Ġglasses": 7647,
      "Ġpalm": 7648,
      "Ġinterviewed": 7649,
      "Ġhonestly": 7650,
      "Ġmicrobial": 7651,
      "Ġgentleman": 7652,
      "Ġcorporations": 7653,
      "Ġtelescopes": 7654,
      "Ġdiagnosis": 7655,
      "Ġinstitutional": 7656,
      "Ġperceive": 7657,
      "Ġdolphin": 7658,
      "Ġpedest": 7659,
      "Ġobserved": 7660,
      "Ġnurt": 7661,
      "Ġintrig": 7662,
      "Ġtsun": 7663,
      "Ġjesus": 7664,
      "Ġcurriculum": 7665,
      "four": 7666,
      "fast": 7667,
      "long": 7668,
      "Ġsons": 7669,
      "Ġbinary": 7670,
      "Ġmike": 7671,
      "Ġfancy": 7672,
      "Ġfathers": 7673,
      "Ġdrought": 7674,
      "Ġlou": 7675,
      "itous": 7676,
      "Ġgaps": 7677,
      "Ġner": 7678,
      "stone": 7679,
      "Ġmoore": 7680,
      "Ġjuly": 7681,
      "Ġships": 7682,
      "andering": 7683,
      "Ġexport": 7684,
      "Ġprisons": 7685,
      "Ġsynd": 7686,
      "Ġblah": 7687,
      "Ġpref": 7688,
      "Ġprecious": 7689,
      "Ġincar": 7690,
      "Ġfactories": 7691,
      "Ġremained": 7692,
      "Ġremaining": 7693,
      "Ġ36": 7694,
      "nostic": 7695,
      "Ġformal": 7696,
      "Ġheaded": 7697,
      "Ġreasonable": 7698,
      "Ġprofits": 7699,
      "Ġassets": 7700,
      "Ġbeautifully": 7701,
      "Ġcollectively": 7702,
      "Ġexpectancy": 7703,
      "Ġdemographic": 7704,
      "Ġpsychologists": 7705,
      "Ġfriendly": 7706,
      "Ġresponses": 7707,
      "Ġfemin": 7708,
      "Ġreplicate": 7709,
      "Ġpeaceful": 7710,
      "Ġbedroom": 7711,
      "Ġportion": 7712,
      "Ġactivist": 7713,
      "Ġactivists": 7714,
      "Ġhomeless": 7715,
      "Ġsusp": 7716,
      "Ġexhaust": 7717,
      "Ġapplying": 7718,
      "Ġhalluc": 7719,
      "Ġphysicians": 7720,
      "Ġmotivated": 7721,
      "Ġfrog": 7722,
      "Ġvulnerability": 7723,
      "Ġtumors": 7724,
      "Ġlimitations": 7725,
      "Ġqualities": 7726,
      "minute": 7727,
      "Ġminimum": 7728,
      "Ġcomparison": 7729,
      "Ġdragon": 7730,
      "Ġzeal": 7731,
      "Ġownership": 7732,
      "Ġstriking": 7733,
      "Ġcorrespo": 7734,
      "Ġimpressive": 7735,
      "Ġneutral": 7736,
      "Ġpandemic": 7737,
      "Ġdowntown": 7738,
      "aid": 7739,
      "aving": 7740,
      "hm": 7741,
      "made": 7742,
      "Ġsi": 7743,
      "ini": 7744,
      "Ġtooth": 7745,
      "Ġpiz": 7746,
      "Ġfest": 7747,
      "Ġinhab": 7748,
      "isy": 7749,
      "Ġgerm": 7750,
      "Ġgathered": 7751,
      "etics": 7752,
      "ctu": 7753,
      "Ġanten": 7754,
      "Ġuk": 7755,
      "Ġbutter": 7756,
      "Ġshore": 7757,
      "Ġchile": 7758,
      "Ġrats": 7759,
      "ilty": 7760,
      "Ġorph": 7761,
      "umble": 7762,
      "Ġintended": 7763,
      "Ġspont": 7764,
      "arest": 7765,
      "Ġpercept": 7766,
      "Ġaggreg": 7767,
      "udi": 7768,
      "Ġbucks": 7769,
      "Ġdisabled": 7770,
      "Ġcontrary": 7771,
      "Ġherit": 7772,
      "interest": 7773,
      "pled": 7774,
      "Ġoffices": 7775,
      "ails": 7776,
      "Ġdrown": 7777,
      "Ġpointing": 7778,
      "Ġengines": 7779,
      "Ġextension": 7780,
      "Ġsketch": 7781,
      "Ġsubt": 7782,
      "Ġinfl": 7783,
      "Ġwoke": 7784,
      "Ġcamps": 7785,
      "Ġcharges": 7786,
      "Ġbadly": 7787,
      "Ġresearcher": 7788,
      "Ġmorality": 7789,
      "Ġexpecting": 7790,
      "Ġapproaching": 7791,
      "Ġerrors": 7792,
      "Ġpropose": 7793,
      "Ġburden": 7794,
      "Ġconcerns": 7795,
      "Ġtemperatures": 7796,
      "Ġpurposes": 7797,
      "Ġtunnel": 7798,
      "Ġpige": 7799,
      "Ġhistoric": 7800,
      "Ġinsights": 7801,
      "Ġratio": 7802,
      "Ġnegoti": 7803,
      "Ġencouraged": 7804,
      "Ġgenetics": 7805,
      "Ġdesperately": 7806,
      "Ġcurrency": 7807,
      "Ġbeijing": 7808,
      "auc": 7809,
      "bling": 7810,
      "kins": 7811,
      "wind": 7812,
      "ye": 7813,
      "Ġsna": 7814,
      "inery": 7815,
      "atar": 7816,
      "ora": 7817,
      "Ġinher": 7818,
      "leep": 7819,
      "Ġrecess": 7820,
      "Ġredef": 7821,
      "chool": 7822,
      "ola": 7823,
      "illa": 7824,
      "Ġproved": 7825,
      "Ġpeoples": 7826,
      "Ġmapping": 7827,
      "Ġvit": 7828,
      "Ġspat": 7829,
      "Ġworkforce": 7830,
      "agen": 7831,
      "Ġresidents": 7832,
      "cost": 7833,
      "pless": 7834,
      "Ġrac": 7835,
      "anged": 7836,
      "Ġcrimes": 7837,
      "Ġreliable": 7838,
      "Ġ33": 7839,
      "Ġrecall": 7840,
      "Ġfarms": 7841,
      "Ġhardest": 7842,
      "Ġcake": 7843,
      "neys": 7844,
      "Ġmembr": 7845,
      "Ġlocated": 7846,
      "Ġchallenged": 7847,
      "Ġnights": 7848,
      "Ġconstitution": 7849,
      "Ġlanding": 7850,
      "Ġwinds": 7851,
      "Ġmotors": 7852,
      "Ġoccurs": 7853,
      "Ġmedicines": 7854,
      "Ġarrange": 7855,
      "Ġtendency": 7856,
      "Ġdiscovering": 7857,
      "Ġdetection": 7858,
      "Ġstraightforward": 7859,
      "Ġgraduated": 7860,
      "Ġbeaten": 7861,
      "Ġtongue": 7862,
      "Ġcustomer": 7863,
      "Ġclaims": 7864,
      "Ġskelet": 7865,
      "Ġnewspapers": 7866,
      "Ġsubstance": 7867,
      "Ġcosmic": 7868,
      "Ġventure": 7869,
      "Ġcontinuous": 7870,
      "Ġmakers": 7871,
      "Ġanalogy": 7872,
      "Ġrecipe": 7873,
      "Ġconstraints": 7874,
      "Ġenforcement": 7875,
      "],": 7876,
      "].": 7877,
      "away": 7878,
      "fly": 7879,
      "gi": 7880,
      "hot": 7881,
      "lades": 7882,
      "take": 7883,
      "Ġhiding": 7884,
      "Ġpatch": 7885,
      "Ġfires": 7886,
      "Ġdrew": 7887,
      "Ġluc": 7888,
      "ason": 7889,
      "icial": 7890,
      "star": 7891,
      "char": 7892,
      "Ġsew": 7893,
      "Ġcanopy": 7894,
      "Ġcomments": 7895,
      "Ġmelt": 7896,
      "Ġfriday": 7897,
      "Ġenlight": 7898,
      "mental": 7899,
      "Ġarth": 7900,
      "otherap": 7901,
      "Ġram": 7902,
      "Ġrape": 7903,
      "Ġrabb": 7904,
      "Ġoffers": 7905,
      "Ġoffering": 7906,
      "Ġgenu": 7907,
      "perform": 7908,
      "Ġcourses": 7909,
      "Ġinsane": 7910,
      "Ġbelieves": 7911,
      "Ġ2050": 7912,
      "Ġsubur": 7913,
      "Ġsubway": 7914,
      "ashed": 7915,
      "Ġcontinuing": 7916,
      "Ġterribly": 7917,
      "heart": 7918,
      "Ġimprov": 7919,
      "Ġnearby": 7920,
      "Ġurge": 7921,
      "comput": 7922,
      "Ġdegrad": 7923,
      "Ġpromised": 7924,
      "Ġreligions": 7925,
      "Ġestate": 7926,
      "Ġstrategic": 7927,
      "Ġinfluenced": 7928,
      "Ġreminds": 7929,
      "Ġcruel": 7930,
      "Ġbanglades": 7931,
      "lson": 7932,
      "looking": 7933,
      "Ġairplanes": 7934,
      "Ġrestaurants": 7935,
      "Ġpursuit": 7936,
      "Ġsubstant": 7937,
      "Ġexecut": 7938,
      "Ġconducted": 7939,
      "Ġbarrier": 7940,
      "Ġstorytelling": 7941,
      "Ġluxury": 7942,
      "Ġhenry": 7943,
      "Ġcotton": 7944,
      "Ġaggressive": 7945,
      "Ġsupreme": 7946,
      "city": 7947,
      "rian": 7948,
      "Ġtune": 7949,
      "Ġthus": 7950,
      "Ġwrap": 7951,
      "Ġbust": 7952,
      "Ġbatt": 7953,
      "Ġhated": 7954,
      "onic": 7955,
      "Ġdressed": 7956,
      "orious": 7957,
      "itative": 7958,
      "alous": 7959,
      "Ġbend": 7960,
      "Ġstair": 7961,
      "chem": 7962,
      "Ġdop": 7963,
      "opath": 7964,
      "Ġjung": 7965,
      "Ġshit": 7966,
      "Ġrb": 7967,
      "umin": 7968,
      "quis": 7969,
      "Ġupload": 7970,
      "Ġenzy": 7971,
      "Ġenabled": 7972,
      "asty": 7973,
      "Ġleon": 7974,
      "Ġmanual": 7975,
      "Ġpockets": 7976,
      "Ġros": 7977,
      "Ġimpression": 7978,
      "Ġloan": 7979,
      "Ġblo": 7980,
      "Ġindo": 7981,
      "Ġincom": 7982,
      "pend": 7983,
      "Ġtrace": 7984,
      "Ġkevin": 7985,
      "Ġentry": 7986,
      "licit": 7987,
      "Ġjoe": 7988,
      "Ġconnects": 7989,
      "Ġproto": 7990,
      "Ġdistract": 7991,
      "Ġprofile": 7992,
      "Ġcontinents": 7993,
      "iences": 7994,
      "Ġrevol": 7995,
      "Ġbottles": 7996,
      "Ġfailures": 7997,
      "Ġapolog": 7998,
      "Ġecological": 7999,
      "Ġfluores": 8000,
      "Ġlogical": 8001,
      "Ġcartoons": 8002,
      "Ġhopes": 8003,
      "Ġpreparing": 8004,
      "Ġpoems": 8005,
      "Ġconcentration": 8006,
      "Ġpreviously": 8007,
      "Ġshelf": 8008,
      "Ġreconstruct": 8009,
      "burgh": 8010,
      "Ġaccomplish": 8011,
      "Ġdiscipline": 8012,
      "Ġitems": 8013,
      "Ġobstacles": 8014,
      "Ġmetabol": 8015,
      "two": 8016,
      "Ġhelicopter": 8017,
      "Ġderek": 8018,
      "Ġstomach": 8019,
      "Ġcigaret": 8020,
      "bm": 8021,
      "dle": 8022,
      "gal": 8023,
      "grow": 8024,
      "ker": 8025,
      "mar": 8026,
      "pers": 8027,
      "Ġtie": 8028,
      "Ġwires": 8029,
      "Ġbind": 8030,
      "Ġmur": 8031,
      "Ġhob": 8032,
      "ester": 8033,
      "Ġlion": 8034,
      "Ġlord": 8035,
      "Ġgy": 8036,
      "Ġstability": 8037,
      "Ġja": 8038,
      "Ġchains": 8039,
      "Ġexcess": 8040,
      "ifer": 8041,
      "Ġleather": 8042,
      "active": 8043,
      "aby": 8044,
      "Ġagents": 8045,
      "Ġampl": 8046,
      "Ġambit": 8047,
      "Ġacou": 8048,
      "Ġindians": 8049,
      "Ġinterven": 8050,
      "Ġcounting": 8051,
      "Ġendang": 8052,
      "Ġdrone": 8053,
      "Ġdrones": 8054,
      "Ġplanes": 8055,
      "otechnology": 8056,
      "Ġinfant": 8057,
      "Ġconfig": 8058,
      "Ġzones": 8059,
      "Ġpassenger": 8060,
      "Ġcharl": 8061,
      "Ġparach": 8062,
      "Ġremembering": 8063,
      "Ġamazingly": 8064,
      "Ġclassical": 8065,
      "aneous": 8066,
      "Ġstepped": 8067,
      "Ġspeaks": 8068,
      "Ġnonprofit": 8069,
      "Ġtemporary": 8070,
      "Ġencry": 8071,
      "bye": 8072,
      "Ġprediction": 8073,
      "Ġcampus": 8074,
      "Ġpropag": 8075,
      "Ġdrops": 8076,
      "Ġmagnific": 8077,
      "Ġappearance": 8078,
      "Ġignored": 8079,
      "Ġsurrounding": 8080,
      "Ġalternatives": 8081,
      "Ġpartnership": 8082,
      "Ġteenage": 8083,
      "Ġgallery": 8084,
      "Ġrubber": 8085,
      "Ġshifting": 8086,
      "Ġencouraging": 8087,
      "Ġacknowledge": 8088,
      "Ġvagina": 8089,
      "Ġlegislation": 8090,
      "Ġguarantee": 8091,
      "Ġsacrifice": 8092,
      "Ġpalestin": 8093,
      "Ġgenuine": 8094,
      "law": 8095,
      "mart": 8096,
      "yan": 8097,
      "Ġ.": 8098,
      "Ġtatt": 8099,
      "inter": 8100,
      "Ġcows": 8101,
      "Ġbot": 8102,
      "ona": 8103,
      "oran": 8104,
      "asm": 8105,
      "ala": 8106,
      "Ġstones": 8107,
      "chron": 8108,
      "Ġheal": 8109,
      "Ġjose": 8110,
      "outs": 8111,
      "Ġshan": 8112,
      "gend": 8113,
      "Ġproven": 8114,
      "Ġpeers": 8115,
      "Ġconqu": 8116,
      "Ġvary": 8117,
      "Ġvoting": 8118,
      "Ġseeking": 8119,
      "Ġplast": 8120,
      "Ġyourselves": 8121,
      "Ġsuck": 8122,
      "Ġsunday": 8123,
      "Ġcoc": 8124,
      "Ġmanner": 8125,
      "Ġmanagers": 8126,
      "Ġovernight": 8127,
      "Ġ29": 8128,
      "Ġroyal": 8129,
      "weight": 8130,
      "Ġguilty": 8131,
      "Ġbuilds": 8132,
      "rence": 8133,
      "Ġfox": 8134,
      "Ġgrabb": 8135,
      "Ġsmallest": 8136,
      "Ġgenerous": 8137,
      "Ġsupplies": 8138,
      "Ġaddict": 8139,
      "Ġdistances": 8140,
      "Ġsexy": 8141,
      "Ġredes": 8142,
      "Ġargent": 8143,
      "Ġextrem": 8144,
      "Ġspecialized": 8145,
      "Ġscreens": 8146,
      "Ġempowered": 8147,
      "Ġflowing": 8148,
      "Ġreceiving": 8149,
      "Ġcompassionate": 8150,
      "Ġmagnet": 8151,
      "Ġdespair": 8152,
      "Ġhomo": 8153,
      "Ġwheat": 8154,
      "grade": 8155,
      "Ġclassrooms": 8156,
      "Ġsucceeded": 8157,
      "Ġagreement": 8158,
      "Ġofficials": 8159,
      "break": 8160,
      "Ġglamorous": 8161,
      "Ġchromosome": 8162,
      "Ġwedding": 8163,
      "Ġgeometry": 8164,
      "itzer": 8165,
      "Ġethnic": 8166,
      "Ġmonitoring": 8167,
      "Ġvietnam": 8168,
      "Ġubiqu": 8169,
      "Ġtsunami": 8170,
      "Ġambitious": 8171,
      "Ġendangered": 8172,
      "Ġtattoo": 8173,
      "fi": 8174,
      "Ġthread": 8175,
      "Ġtox": 8176,
      "Ġpir": 8177,
      "Ġpause": 8178,
      "onge": 8179,
      "Ġfate": 8180,
      "Ġfits": 8181,
      "Ġdile": 8182,
      "Ġdiving": 8183,
      "Ġingen": 8184,
      "Ġgorge": 8185,
      "Ġngos": 8186,
      "utan": 8187,
      "Ġrethink": 8188,
      "Ġhabits": 8189,
      "Ġstor": 8190,
      "Ġstad": 8191,
      "Ġstatic": 8192,
      "Ġlivest": 8193,
      "Ġseattle": 8194,
      "Ġshipping": 8195,
      "Ġcomet": 8196,
      "ador": 8197,
      "Ġchat": 8198,
      "Ġchop": 8199,
      "Ġrick": 8200,
      "Ġsaudi": 8201,
      "Ġlever": 8202,
      "Ġexposure": 8203,
      "Ġphant": 8204,
      "Ġbless": 8205,
      "Ġtrapped": 8206,
      "Ġski": 8207,
      "Ġheadlines": 8208,
      "Ġorders": 8209,
      "Ġsixth": 8210,
      "Ġviral": 8211,
      "Ġconstit": 8212,
      "Ġnamely": 8213,
      "Ġharbor": 8214,
      "Ġgrandparents": 8215,
      "Ġnonviol": 8216,
      "Ġapproached": 8217,
      "Ġeaten": 8218,
      "Ġpurple": 8219,
      "Ġvacation": 8220,
      "Ġproposition": 8221,
      "Ġextraordinarily": 8222,
      "Ġbanking": 8223,
      "Ġearliest": 8224,
      "Ġgraphics": 8225,
      "Ġcorrel": 8226,
      "Ġphilosopher": 8227,
      "Ġblogs": 8228,
      "Ġprostate": 8229,
      "Ġsummit": 8230,
      "Ġelementary": 8231,
      "Ġreinvent": 8232,
      ".'\"": 8233,
      "Ġassistance": 8234,
      "Ġalexander": 8235,
      "Ġinterpretation": 8236,
      "Ġtanzan": 8237,
      "Ġhawai": 8238,
      "Ġhormone": 8239,
      "Ġsubsid": 8240,
      "Ġrituals": 8241,
      "Ġcoinc": 8242,
      "Ġsyria": 8243,
      "Ġprocedure": 8244,
      "Ġretirement": 8245,
      "Ġglacier": 8246,
      "Ġentropy": 8247,
      "Ġzealand": 8248,
      "otherapy": 8249,
      "Ġdopamine": 8250,
      "40": 8251,
      "aids": 8252,
      "bod": 8253,
      "dis": 8254,
      "good": 8255,
      "produ": 8256,
      "uk": 8257,
      "Ġeric": 8258,
      "Ġcrop": 8259,
      "Ġpit": 8260,
      "Ġdil": 8261,
      "Ġinch": 8262,
      "Ġlt": 8263,
      "Ġeb": 8264,
      "uther": 8265,
      "Ġongoing": 8266,
      "sell": 8267,
      "Ġford": 8268,
      "Ġshine": 8269,
      "ilized": 8270,
      "Ġdeck": 8271,
      "Ġproceed": 8272,
      "Ġvia": 8273,
      "Ġvoy": 8274,
      "ogram": 8275,
      "Ġsav": 8276,
      "izers": 8277,
      "Ġamate": 8278,
      "Ġnewton": 8279,
      "Ġloans": 8280,
      "Ġbrian": 8281,
      "phony": 8282,
      "Ġinterrupt": 8283,
      "Ġuseless": 8284,
      "fulness": 8285,
      "Ġboats": 8286,
      "Ġnumer": 8287,
      "Ġartwork": 8288,
      "Ġreaders": 8289,
      "Ġpatents": 8290,
      "Ġsignature": 8291,
      "arrhe": 8292,
      "Ġmachinery": 8293,
      "Ġlocations": 8294,
      "Ġdiarrhe": 8295,
      "Ġterritory": 8296,
      "Ġretreat": 8297,
      "Ġabsence": 8298,
      "Ġtrains": 8299,
      "Ġholy": 8300,
      "Ġlowest": 8301,
      "Ġtempor": 8302,
      "Ġstays": 8303,
      "Ġcircuits": 8304,
      "Ġreplaced": 8305,
      "Ġaffecting": 8306,
      "Ġimmers": 8307,
      "Ġimmun": 8308,
      "Ġsanitation": 8309,
      "Ġjournalism": 8310,
      "Ġworrying": 8311,
      "Ġindependence": 8312,
      "Ġscanner": 8313,
      "Ġteenager": 8314,
      "Ġtransmit": 8315,
      "Ġpreval": 8316,
      "Ġillustrate": 8317,
      "Ġvegetables": 8318,
      "Ġchimpanzee": 8319,
      "Ġassignment": 8320,
      "Ġbranches": 8321,
      "Ġipod": 8322,
      "Ġtropical": 8323,
      "Ġbronx": 8324,
      "Ġexpedition": 8325,
      "Ġjohnson": 8326,
      "Ġsyndrome": 8327,
      "Ġincarcer": 8328,
      "Ġheritage": 8329,
      "Ġstorage": 8330,
      "bie": 8331,
      "bled": 8332,
      "cor": 8333,
      "fram": 8334,
      "great": 8335,
      "gence": 8336,
      "net": 8337,
      "py": 8338,
      "tra": 8339,
      "uh": 8340,
      "Ġtin": 8341,
      "Ġairl": 8342,
      "Ġss": 8343,
      "Ġsanta": 8344,
      "reen": 8345,
      "ati": 8346,
      "Ġbru": 8347,
      "Ġpor": 8348,
      "Ġpants": 8349,
      "Ġdung": 8350,
      "Ġnap": 8351,
      "Ġech": 8352,
      "Ġstead": 8353,
      "Ġstaring": 8354,
      "Ġstored": 8355,
      "stop": 8356,
      "Ġjazz": 8357,
      "Ġjosh": 8358,
      "Ġneoc": 8359,
      "Ġprosec": 8360,
      "Ġenem": 8361,
      "Ġcompre": 8362,
      "ghai": 8363,
      "Ġexplicit": 8364,
      "Ġads": 8365,
      "Ġadvers": 8366,
      "Ġblink": 8367,
      "Ġcommons": 8368,
      "icked": 8369,
      "Ġrealistic": 8370,
      "Ġinterconnected": 8371,
      "aken": 8372,
      "Ġcarpet": 8373,
      "Ġeditor": 8374,
      "Ġcellular": 8375,
      "neg": 8376,
      "Ġformation": 8377,
      "Ġheading": 8378,
      "pring": 8379,
      "Ġchef": 8380,
      "Ġterrified": 8381,
      "Ġcalm": 8382,
      "Ġaudiences": 8383,
      "Ġfreely": 8384,
      "Ġmarvel": 8385,
      "ushed": 8386,
      "Ġpredators": 8387,
      "Ġsupermarket": 8388,
      "Ġyorker": 8389,
      "Ġperformed": 8390,
      "Ġrisky": 8391,
      "Ġdescribing": 8392,
      "Ġdescribes": 8393,
      "Ġsufficient": 8394,
      "ugal": 8395,
      "Ġcaptain": 8396,
      "Ġdivor": 8397,
      "Ġdivision": 8398,
      "Ġclinics": 8399,
      "Ġpacked": 8400,
      "Ġphenomena": 8401,
      "Ġsadly": 8402,
      "Ġjealous": 8403,
      "Ġepis": 8404,
      "Ġmentor": 8405,
      "Ġscenes": 8406,
      "Ġselected": 8407,
      "Ġstimul": 8408,
      "Ġreproduce": 8409,
      "Ġestimated": 8410,
      "Ġestimates": 8411,
      "Ġdutch": 8412,
      "Ġtroops": 8413,
      "Ġcluster": 8414,
      "Ġdecrease": 8415,
      "Ġlobby": 8416,
      "Ġtrivial": 8417,
      "Ġpizza": 8418,
      "10": 8419,
      "iogen": 8420,
      "rating": 8421,
      "vable": 8422,
      "Ġtoes": 8423,
      "Ġwelf": 8424,
      "Ġnerves": 8425,
      "oman": 8426,
      "lend": 8427,
      "Ġsomal": 8428,
      "Ġdeaf": 8429,
      "ifies": 8430,
      "Ġsperm": 8431,
      "Ġhoward": 8432,
      "aine": 8433,
      "Ġsauce": 8434,
      "aped": 8435,
      "abul": 8436,
      "aches": 8437,
      "Ġoverl": 8438,
      "enses": 8439,
      "asses": 8440,
      "Ġcontest": 8441,
      "Ġreserve": 8442,
      "Ġinterior": 8443,
      "Ġtraits": 8444,
      "Ġwrist": 8445,
      "Ġobt": 8446,
      "Ġcarp": 8447,
      "Ġkeys": 8448,
      "Ġrelief": 8449,
      "Ġslums": 8450,
      "Ġbiof": 8451,
      "Ġgenerating": 8452,
      "Ġcorrupt": 8453,
      "Ġ42": 8454,
      "Ġpassive": 8455,
      "Ġaddiction": 8456,
      "Ġmomentum": 8457,
      "Ġreflection": 8458,
      "Ġequations": 8459,
      "Ġdefic": 8460,
      "Ġhybr": 8461,
      "Ġsensation": 8462,
      "Ġdelay": 8463,
      "Ġdelhi": 8464,
      "Ġshortly": 8465,
      "Ġpersonalized": 8466,
      "Ġdestiny": 8467,
      "ometown": 8468,
      "Ġmainstream": 8469,
      "Ġstatistic": 8470,
      "Ġsynchron": 8471,
      "oked": 8472,
      "Ġmiserable": 8473,
      "Ġcounsel": 8474,
      "Ġremarkably": 8475,
      "Ġblindness": 8476,
      "Ġpackage": 8477,
      "Ġcontribution": 8478,
      "Ġwheels": 8479,
      "Ġtension": 8480,
      "Ġhacking": 8481,
      "Ġdemocrat": 8482,
      "Ġexerc": 8483,
      "Ġconcentrated": 8484,
      "Ġappeal": 8485,
      "Ġfrequently": 8486,
      "Ġpunishment": 8487,
      "Ġsurgeons": 8488,
      "Ġincentive": 8489,
      "Ġmanipulate": 8490,
      "controll": 8491,
      "Ġhormones": 8492,
      "Ġtrauma": 8493,
      "Ġcollapsed": 8494,
      "Ġrecycling": 8495,
      "Ġprecision": 8496,
      "Ġloose": 8497,
      "esthesia": 8498,
      "mun": 8499,
      "press": 8500,
      "rance": 8501,
      "Ġire": 8502,
      "Ġwol": 8503,
      "Ġbh": 8504,
      "Ġbother": 8505,
      "Ġmud": 8506,
      "Ġhometown": 8507,
      "onia": 8508,
      "Ġfallen": 8509,
      "oral": 8510,
      "Ġye": 8511,
      "arians": 8512,
      "Ġgif": 8513,
      "Ġnar": 8514,
      "Ġwhit": 8515,
      "step": 8516,
      "irts": 8517,
      "Ġshakes": 8518,
      "Ġnelson": 8519,
      "Ġcomic": 8520,
      "Ġspill": 8521,
      "Ġseemingly": 8522,
      "ema": 8523,
      "Ġenvelop": 8524,
      "Ġcovers": 8525,
      "Ġclue": 8526,
      "ipts": 8527,
      "Ġrope": 8528,
      "Ġresolve": 8529,
      "Ġreserves": 8530,
      "Ġindones": 8531,
      "Ġrap": 8532,
      "Ġsmiling": 8533,
      "Ġrelation": 8534,
      "Ġinsul": 8535,
      "Ġgrave": 8536,
      "Ġtranscend": 8537,
      "Ġslime": 8538,
      "Ġstrict": 8539,
      "Ġmini": 8540,
      "Ġcared": 8541,
      "Ġbiologist": 8542,
      "Ġspacecraft": 8543,
      "Ġcurves": 8544,
      "Ġsidewalk": 8545,
      "Ġstopping": 8546,
      "Ġparam": 8547,
      "Ġamazed": 8548,
      "Ġ2002": 8549,
      "Ġgirlfriend": 8550,
      "Ġadvances": 8551,
      "Ġmarketplace": 8552,
      "Ġinvestments": 8553,
      "Ġcycles": 8554,
      "Ġmeasurements": 8555,
      "Ġpencil": 8556,
      "Ġpredictable": 8557,
      "ometer": 8558,
      "Ġstraw": 8559,
      "Ġposted": 8560,
      "Ġecology": 8561,
      "Ġlogo": 8562,
      "Ġvariations": 8563,
      "Ġlandscapes": 8564,
      "Ġinfections": 8565,
      "Ġrandomly": 8566,
      "Ġcatching": 8567,
      "Ġnuts": 8568,
      "Ġhistorically": 8569,
      "Ġshocking": 8570,
      "Ġfatal": 8571,
      "Ġaltru": 8572,
      "Ġcriminals": 8573,
      "Ġacademy": 8574,
      "Ġaccuracy": 8575,
      "Ġflags": 8576,
      "Ġkorean": 8577,
      "Ġastronaut": 8578,
      "Ġberlin": 8579,
      "Ġhorizont": 8580,
      "Ġmosquitos": 8581,
      "driven": 8582,
      "Ġfibers": 8583,
      "Ġbureauc": 8584,
      "Ġtubes": 8585,
      "Ġschizophrenia": 8586,
      "Ġpublishing": 8587,
      "Ġbruno": 8588,
      "Ġphosphor": 8589,
      "Ġbangladesh": 8590,
      "Ġshanghai": 8591,
      "Ġphantom": 8592,
      "Ġenemies": 8593,
      "Ġwelfare": 8594,
      "aware": 8595,
      "dad": 8596,
      "hist": 8597,
      "mn": 8598,
      "ugg": 8599,
      "Ġward": 8600,
      "Ġsib": 8601,
      "eries": 8602,
      "Ġandrew": 8603,
      "Ġtony": 8604,
      "Ġpills": 8605,
      "Ġfusion": 8606,
      "Ġdirt": 8607,
      "Ġgained": 8608,
      "vember": 8609,
      "Ġrevers": 8610,
      "Ġsty": 8611,
      "Ġstrain": 8612,
      "storm": 8613,
      "Ġanno": 8614,
      "Ġjunk": 8615,
      "Ġjih": 8616,
      "Ġshirt": 8617,
      "Ġneander": 8618,
      "Ġatom": 8619,
      "ado": 8620,
      "Ġrib": 8621,
      "ules": 8622,
      "Ġpecul": 8623,
      "umented": 8624,
      "cip": 8625,
      "Ġsud": 8626,
      "Ġcoat": 8627,
      "Ġcoke": 8628,
      "Ġunre": 8629,
      "Ġunhappy": 8630,
      "Ġaccent": 8631,
      "Ġresur": 8632,
      "elled": 8633,
      "Ġblown": 8634,
      "Ġhumil": 8635,
      "irect": 8636,
      "plus": 8637,
      "Ġguid": 8638,
      "Ġrelatives": 8639,
      "Ġdrum": 8640,
      "Ġ2020": 8641,
      "Ġminer": 8642,
      "Ġcouples": 8643,
      "Ġorganizing": 8644,
      "Ġhalfway": 8645,
      "Ġlocally": 8646,
      "Ġfollows": 8647,
      "Ġredwood": 8648,
      "Ġarguing": 8649,
      "Ġbreakfast": 8650,
      "Ġfeminist": 8651,
      "Ġcompeting": 8652,
      "Ġattacked": 8653,
      "Ġcontributed": 8654,
      "Ġresponded": 8655,
      "Ġbench": 8656,
      "Ġprevention": 8657,
      "Ġmentally": 8658,
      "Ġbowl": 8659,
      "Ġspinning": 8660,
      "Ġinevitably": 8661,
      "Ġmurder": 8662,
      "Ġelectrodes": 8663,
      "Ġglamour": 8664,
      "Ġlonely": 8665,
      "Ġgrasp": 8666,
      "Ġdelicious": 8667,
      "Ġportrait": 8668,
      "Ġconvenient": 8669,
      "Ġcarolina": 8670,
      "Ġbrooklyn": 8671,
      "Ġmagnificent": 8672,
      "Ġubiquitous": 8673,
      "Ġgorgeous": 8674,
      "Ġpeculiar": 8675,
      "200": 8676,
      "dig": 8677,
      "god": 8678,
      "gments": 8679,
      "jo": 8680,
      "mate": 8681,
      "person": 8682,
      "uction": 8683,
      "Ġties": 8684,
      "Ġthirty": 8685,
      "Ġware": 8686,
      "Ġwore": 8687,
      "Ġcass": 8688,
      "Ġbump": 8689,
      "enh": 8690,
      "Ġpitt": 8691,
      "ancing": 8692,
      "itable": 8693,
      "Ġgross": 8694,
      "uts": 8695,
      "Ġsoc": 8696,
      "cher": 8697,
      "Ġhealing": 8698,
      "three": 8699,
      "Ġshy": 8700,
      "Ġatomic": 8701,
      "Ġorb": 8702,
      "Ġproph": 8703,
      "umines": 8704,
      "ifact": 8705,
      "Ġleban": 8706,
      "Ġunlock": 8707,
      "Ġnovember": 8708,
      "Ġundergra": 8709,
      "Ġintersection": 8710,
      "Ġraped": 8711,
      "Ġoffs": 8712,
      "obs": 8713,
      "Ġbonds": 8714,
      "Ġconsens": 8715,
      "Ġunderstands": 8716,
      "Ġ350": 8717,
      "Ġslower": 8718,
      "Ġbelieving": 8719,
      "Ġartifact": 8720,
      "Ġterrain": 8721,
      "Ġrecre": 8722,
      "Ġ55": 8723,
      "...\"": 8724,
      "Ġformula": 8725,
      "Ġswiss": 8726,
      "Ġcolored": 8727,
      "they": 8728,
      "Ġplanetary": 8729,
      "Ġpolitically": 8730,
      "Ġdeepest": 8731,
      "Ġengineered": 8732,
      "Ġmarath": 8733,
      "Ġradi": 8734,
      "Ġpredator": 8735,
      "Ġsensing": 8736,
      "gener": 8737,
      "Ġcommunicating": 8738,
      "Ġtransforming": 8739,
      "Ġparkinson": 8740,
      "Ġvictor": 8741,
      "Ġtaxes": 8742,
      "Ġcorporation": 8743,
      "copic": 8744,
      "Ġrevealed": 8745,
      "criptions": 8746,
      "Ġegyptian": 8747,
      "Ġpuzzles": 8748,
      "Ġinstalled": 8749,
      "Ġdiameter": 8750,
      "Ġmandela": 8751,
      "Ġclusters": 8752,
      "Ġpulse": 8753,
      "Ġchamber": 8754,
      "Ġadapted": 8755,
      "Ġelegant": 8756,
      "Ġjellyfish": 8757,
      "Ġbridges": 8758,
      "Ġstadium": 8759,
      "Ġphosphorus": 8760,
      ",'": 8761,
      "five": 8762,
      "mony": 8763,
      "powered": 8764,
      "sized": 8765,
      "ÃŃ": 8766,
      "inent": 8767,
      "ativity": 8768,
      "Ġcage": 8769,
      "Ġmk": 8770,
      "Ġmines": 8771,
      "Ġhans": 8772,
      "Ġdent": 8773,
      "Ġly": 8774,
      "Ġlists": 8775,
      "isa": 8776,
      "Ġnodes": 8777,
      "stru": 8778,
      "racy": 8779,
      "thood": 8780,
      "Ġkat": 8781,
      "Ġkoran": 8782,
      "Ġasleep": 8783,
      "Ġmoz": 8784,
      "Ġshops": 8785,
      "Ġdeals": 8786,
      "Ġvice": 8787,
      "qual": 8788,
      "Ġintensive": 8789,
      "Ġsheer": 8790,
      "Ġroles": 8791,
      "Ġbackyard": 8792,
      "Ġearning": 8793,
      "Ġimagining": 8794,
      "Ġfoundations": 8795,
      "Ġminus": 8796,
      "Ġfarther": 8797,
      "cycl": 8798,
      "Ġcorrid": 8799,
      "Ġzoo": 8800,
      "Ġcolumb": 8801,
      "Ġrefused": 8802,
      "Ġequity": 8803,
      "Ġdefault": 8804,
      "Ġnightm": 8805,
      "Ġcalories": 8806,
      "cla": 8807,
      "Ġdepos": 8808,
      "Ġlimbs": 8809,
      "Ġembry": 8810,
      "Ġpenet": 8811,
      "Ġshoe": 8812,
      "Ġconsciously": 8813,
      "Ġdominated": 8814,
      "Ġ1998": 8815,
      "Ġintroduction": 8816,
      "Ġdiscussions": 8817,
      "Ġhopeless": 8818,
      "Ġinfectious": 8819,
      "Ġsweat": 8820,
      "Ġinterviews": 8821,
      "Ġenjoyed": 8822,
      "Ġdoubled": 8823,
      "Ġhydro": 8824,
      "Ġreflected": 8825,
      "Ġaltitude": 8826,
      "Ġcooperate": 8827,
      "Ġharmony": 8828,
      "Ġinstallation": 8829,
      "Ġbonob": 8830,
      "Ġfifty": 8831,
      "coln": 8832,
      "Ġcomplain": 8833,
      "Ġintrins": 8834,
      "Ġoverwhelming": 8835,
      "Ġimplant": 8836,
      "Ġvocal": 8837,
      "Ġscreaming": 8838,
      "Ġgesture": 8839,
      "Ġgrocer": 8840,
      "Ġdevastating": 8841,
      "Ġabandoned": 8842,
      "Ġwilliam": 8843,
      "Ġaesthetic": 8844,
      "Ġaristot": 8845,
      "Ġcocaine": 8846,
      "Ġireland": 8847,
      "Ġinsulin": 8848,
      "Ġjihad": 8849,
      "Ġconsensus": 8850,
      "bot": 8851,
      "function": 8852,
      "oly": 8853,
      "zes": 8854,
      "Ġapr": 8855,
      "income": 8856,
      "Ġbor": 8857,
      "Ġbion": 8858,
      "Ġbite": 8859,
      "Ġbamb": 8860,
      "Ġdv": 8861,
      "Ġnam": 8862,
      "Ġrender": 8863,
      "rade": 8864,
      "Ġsends": 8865,
      "Ġabra": 8866,
      "Ġjane": 8867,
      "Ġworms": 8868,
      "Ġnearest": 8869,
      "Ġcomedy": 8870,
      "Ġmeme": 8871,
      "Ġrings": 8872,
      "ila": 8873,
      "essions": 8874,
      "Ġalbert": 8875,
      "orted": 8876,
      "Ġunle": 8877,
      "Ġevolving": 8878,
      "Ġdonor": 8879,
      "Ġexpressed": 8880,
      "Ġclint": 8881,
      "Ġrod": 8882,
      "Ġimpul": 8883,
      "Ġcontam": 8884,
      "Ġrealities": 8885,
      "Ġscra": 8886,
      "ressing": 8887,
      "Ġgenomes": 8888,
      "Ġtechnically": 8889,
      "Ġapps": 8890,
      "Ġshoulders": 8891,
      "Ġhelpless": 8892,
      "Ġsched": 8893,
      "ava": 8894,
      "Ġ37": 8895,
      "Ġmodest": 8896,
      "Ġattitudes": 8897,
      "Ġelabor": 8898,
      "Ġcorners": 8899,
      "Ġpassage": 8900,
      "Ġprotocol": 8901,
      "Ġbreeding": 8902,
      "Ġgee": 8903,
      "Ġapproved": 8904,
      "Ġmessy": 8905,
      "Ġsteam": 8906,
      "Ġcyl": 8907,
      "Ġpsychologist": 8908,
      "Ġconsumed": 8909,
      "Ġpenal": 8910,
      "Ġiceland": 8911,
      "Ġorigins": 8912,
      "Ġworthy": 8913,
      "Ġtouching": 8914,
      "Ġreactor": 8915,
      "Ġcrossed": 8916,
      "Ġsweep": 8917,
      "Ġmuseums": 8918,
      "Ġcalculated": 8919,
      "Ġdenial": 8920,
      "Ġdestroying": 8921,
      "Ġdemonstrated": 8922,
      "Ġinjured": 8923,
      "Ġcorrectly": 8924,
      "Ġboundary": 8925,
      "Ġregularly": 8926,
      "Ġisraeli": 8927,
      "Ġbelongs": 8928,
      "Ġjewel": 8929,
      "Ġsummar": 8930,
      "Ġlaptops": 8931,
      "Ġneuroscient": 8932,
      "Ġlifted": 8933,
      "Ġfisheries": 8934,
      "Ġmaker": 8935,
      "Ġoverwhelmed": 8936,
      "Ġbarriers": 8937,
      "Ġembarrassing": 8938,
      "Ġassembly": 8939,
      "Ġwhistle": 8940,
      "Ġcousin": 8941,
      "Ġabundance": 8942,
      "Ġutterly": 8943,
      "Ġenhance": 8944,
      "Ġcompromise": 8945,
      "Ġdisagree": 8946,
      "Ġautomobile": 8947,
      "Ġincorpor": 8948,
      "Ġhorses": 8949,
      "Ġparachute": 8950,
      "Ġplastics": 8951,
      "aeda": 8952,
      "bian": 8953,
      "cs": 8954,
      "creat": 8955,
      "eu": 8956,
      "lor": 8957,
      "liness": 8958,
      "mind": 8959,
      "pack": 8960,
      "uctor": 8961,
      "Ġtam": 8962,
      "Ġathe": 8963,
      "Ġsizes": 8964,
      "Ġmama": 8965,
      "Ġhint": 8966,
      "Ġhars": 8967,
      "Ġpound": 8968,
      "any": 8969,
      "Ġlam": 8970,
      "omics": 8971,
      "alt": 8972,
      "Ġrect": 8973,
      "Ġhaz": 8974,
      "ctive": 8975,
      "Ġstun": 8976,
      "igma": 8977,
[...]
