{
  "version": "1.0",
  "truncation": null,
  "padding": null,
  "added_tokens": [
    {
      "id": 0,
      "content": "<s>",
      "single_word": false,
      "lstrip": false,
      "rstrip": false,
      "normalized": false,
      "special": true
    },
    {
      "id": 1,
      "content": "</s>",
      "single_word": false,
      "lstrip": false,
      "rstrip": false,
      "normalized": false,
      "special": true
    },
    {
      "id": 2,
      "content": "<unk>",
      "single_word": false,
      "lstrip": false,
      "rstrip": false,
      "normalized": false,
      "special": true
    },
    {
      "id": 3,
      "content": "<pad>",
      "single_word": false,
      "lstrip": false,
      "rstrip": false,
      "normalized": false,
      "special": true
    }
  ],
  "normalizer": null,
  "pre_tokenizer": {
    "type": "ByteLevel",
    "add_prefix_space": true,
    "trim_offsets": true,
    "use_regex": true
  },
  "post_processor": {
    "type": "TemplateProcessing",
    "single": [
      {
        "SpecialToken": {
          "id": "<s>",
          "type_id": 0
        }
      },
      {
        "Sequence": {
          "id": "A",
          "type_id": 0
        }
      },
      {
        "SpecialToken": {
          "id": "</s>",
          "type_id": 0
        }
      }
    ],
    "pair": [
      {
        "Sequence": {
          "id": "A",
          "type_id": 0
        }
      },
      {
        "Sequence": {
          "id": "B",
          "type_id": 1
        }
      }
    ],
    "special_tokens": {
      "</s>": {
        "id": "</s>",
        "ids": [
          1
        ],
        "tokens": [
          "</s>"
        ]
      },
      "<s>": {
        "id": "<s>",
        "ids": [
          0
        ],
        "tokens": [
          "<s>"
        ]
      }
    }
  },
  "decoder": {
    "type": "ByteLevel",
    "add_prefix_space": true,
    "trim_offsets": true,
    "use_regex": true
  },
  "model": {
    "type": "BPE",
    "dropout": null,
    "unk_token": "<unk>",
    "continuing_subword_prefix": null,
    "end_of_word_suffix": null,
    "fuse_unk": false,
    "vocab": {
      "<s>": 0,
      "</s>": 1,
      "<unk>": 2,
      "<pad>": 3,
      "!": 4,
      "\"": 5,
      "#": 6,
      "$": 7,
      "%": 8,
      "&": 9,
      "'": 10,
      "(": 11,
      ")": 12,
      "*": 13,
      "+": 14,
      ",": 15,
      "-": 16,
      ".": 17,
      "/": 18,
      "0": 19,
      "1": 20,
      "2": 21,
      "3": 22,
      "4": 23,
      "5": 24,
      "6": 25,
      "7": 26,
      "8": 27,
      "9": 28,
      ":": 29,
      ";": 30,
      "=": 31,
      "?": 32,
      "@": 33,
      "[": 34,
      "]": 35,
      "^": 36,
      "_": 37,
      "`": 38,
      "a": 39,
      "b": 40,
      "c": 41,
      "d": 42,
      "e": 43,
      "f": 44,
      "g": 45,
      "h": 46,
      "i": 47,
      "j": 48,
      "k": 49,
      "l": 50,
      "m": 51,
      "n": 52,
      "o": 53,
      "p": 54,
      "q": 55,
      "r": 56,
      "s": 57,
      "t": 58,
      "u": 59,
      "v": 60,
      "w": 61,
      "x": 62,
      "y": 63,
      "z": 64,
      "{": 65,
      "|": 66,
      "~": 67,
      "¡": 68,
      "¢": 69,
      "£": 70,
      "¤": 71,
      "¥": 72,
      "¦": 73,
      "§": 74,
      "¨": 75,
      "©": 76,
      "ª": 77,
      "«": 78,
      "¬": 79,
      "®": 80,
      "¯": 81,
      "°": 82,
      "±": 83,
      "²": 84,
      "³": 85,
      "´": 86,
      "µ": 87,
      "¶": 88,
      "¸": 89,
      "¹": 90,
      "º": 91,
      "»": 92,
      "¼": 93,
      "½": 94,
      "¾": 95,
      "¿": 96,
      "Â": 97,
      "Ã": 98,
      "Ä": 99,
      "Å": 100,
      "È": 101,
      "Ì": 102,
      "Ï": 103,
      "Ø": 104,
      "Ù": 105,
      "à": 106,
      "á": 107,
      "â": 108,
      "ä": 109,
      "è": 110,
      "é": 111,
      "ï": 112,
      "Ġ": 113,
      "ġ": 114,
      "Ģ": 115,
      "ģ": 116,
      "Ĥ": 117,
      "Ħ": 118,
      "ħ": 119,
      "ĩ": 120,
      "Ī": 121,
      "ī": 122,
      "ĭ": 123,
      "į": 124,
      "Ĳ": 125,
      "ĳ": 126,
      "Ĵ": 127,
      "ĵ": 128,
      "Ķ": 129,
      "Ĺ": 130,
      "ĺ": 131,
      "Ļ": 132,
      "Ľ": 133,
      "ľ": 134,
      "Ŀ": 135,
      "ł": 136,
      "Ń": 137,
      "Ġd": 138,
      "es": 139,
      "en": 140,
      "Ã©": 141,
      "Ġl": 142,
      "Ġp": 143,
      "on": 144,
      "Ġc": 145,
      "ou": 146,
      "qu": 147,
      "ai": 148,
      "Ġs": 149,
      "Ġa": 150,
      "re": 151,
      "Ġde": 152,
      "Ġm": 153,
      "an": 154,
      "er": 155,
      "Ġqu": 156,
      "ent": 157,
      "et": 158,
      "Ġv": 159,
      "Ġn": 160,
      "un": 161,
      "Ġt": 162,
      "ous": 163,
      "il": 164,
      "Ġet": 165,
      "is": 166,
      "le": 167,
      "in": 168,
      "Ġun": 169,
      "Ġpa": 170,
      "Ġf": 171,
      "ti": 172,
      "Ġla": 173,
      "Ġj": 174,
      "ĠÃ": 175,
      "eu": 176,
      "Ġque": 177,
      "est": 178,
      "it": 179,
      "Ġle": 180,
      "om": 181,
      "Ġles": 182,
      "our": 183,
      "or": 184,
      "ons": 185,
      "Ġen": 186,
      "Ã¨": 187,
      "ĠÃł": 188,
      "el": 189,
      "ment": 190,
      "Ġr": 191,
      "ais": 192,
      "te": 193,
      "Ġb": 194,
      "us": 195,
      "Ġdes": 196,
      "ait": 197,
      "ont": 198,
      "ro": 199,
      "ant": 200,
      "Ġnous": 201,
      "ar": 202,
      "au": 203,
      "oi": 204,
      "me": 205,
      "ĠÃ©": 206,
      "ans": 207,
      "ve": 208,
      "Ġg": 209,
      "ce": 210,
      "Ġil": 211,
      "Ġvous": 212,
      "Ġpour": 213,
      "Ġje": 214,
      "ur": 215,
      "Ġpar": 216,
      "Ġcom": 217,
      "Ġce": 218,
      "Ġpas": 219,
      "Ġune": 220,
      "Ġch": 221,
      "Ġqui": 222,
      "ri": 223,
      "Ġau": 224,
      "tre": 225,
      "os": 226,
      "Ġdans": 227,
      "tion": 228,
      "ch": 229,
      "al": 230,
      "que": 231,
      "Ġpl": 232,
      "ci": 233,
      "Ġtr": 234,
      "Ġest": 235,
      "eur": 236,
      "se": 237,
      "res": 238,
      "de": 239,
      "at": 240,
      "onn": 241,
      "mp": 242,
      "ain": 243,
      "ol": 244,
      "ĠdÃ©": 245,
      "ag": 246,
      "ie": 247,
      "tÃ©": 248,
      "Ġre": 249,
      "Ġav": 250,
      "Ġpro": 251,
      "Ġin": 252,
      "rÃ©": 253,
      "Ġplus": 254,
      "si": 255,
      "Ġsi": 256,
      "elle": 257,
      "Ġdu": 258,
      "ĠrÃ©": 259,
      "Ãª": 260,
      "Ġne": 261,
      "Ġmais": 262,
      "les": 263,
      "ouv": 264,
      "av": 265,
      "Ġsur": 266,
      "Ġe": 267,
      "Ġh": 268,
      "li": 269,
      "ers": 270,
      "out": 271,
      "Ġse": 272,
      "Ġi": 273,
      "ens": 274,
      "pp": 275,
      "end": 276,
      "Ġdi": 277,
      "aire": 278,
      "ra": 279,
      "and": 280,
      "Ġave": 281,
      "Ġpeu": 282,
      "ab": 283,
      "Ġo": 284,
      "ac": 285,
      "Ġmon": 286,
      "as": 287,
      "Ġsu": 288,
      "ation": 289,
      "Ã©e": 290,
      "Ã¨re": 291,
      "itÃ©": 292,
      "Ã¨s": 293,
      "ir": 294,
      "Ġy": 295,
      "onc": 296,
      "oir": 297,
      "ien": 298,
      "Ġsont": 299,
      "ĠÃ©t": 300,
      "Ġon": 301,
      "Ġcet": 302,
      "ff": 303,
      "Ġavec": 304,
      "Ġan": 305,
      "Ġtout": 306,
      "Ġfait": 307,
      "mes": 308,
      "ut": 309,
      "Ġces": 310,
      "Ġvo": 311,
      "Ġal": 312,
      "§a": 313,
      "am": 314,
      "ĠÃ§a": 315,
      "Ã©t": 316,
      "di": 317,
      "Ġ-": 318,
      "Ġils": 319,
      "âĢ": 320,
      "Ġcomme": 321,
      "Ġex": 322,
      "Ġcette": 323,
      "Ġou": 324,
      "Ġquel": 325,
      "aient": 326,
      "Ġmo": 327,
      "Ãł": 328,
      "Ġchos": 329,
      "ĠÂ": 330,
      "ne": 331,
      "âĢĻ": 332,
      "ort": 333,
      "Ġ:": 334,
      "Ġ?": 335,
      "eux": 336,
      "Ġcomp": 337,
      "Ã©es": 338,
      "ure": 339,
      "Ġfaire": 340,
      "Ġcel": 341,
      "ul": 342,
      "ques": 343,
      "ui": 344,
      "Ġpr": 345,
      "eurs": 346,
      "Ġdonc": 347,
      "ez": 348,
      "Ġont": 349,
      "Ġ--": 350,
      "Ã©s": 351,
      "Ġgr": 352,
      "ati": 353,
      "lement": 354,
      "ang": 355,
      "ors": 356,
      "mi": 357,
      "Ġavons": 358,
      "Ġme": 359,
      "Ġte": 360,
      "iv": 361,
      "ct": 362,
      "oup": 363,
      "eau": 364,
      "ess": 365,
      "ist": 366,
      "ois": 367,
      "Ã©r": 368,
      "uis": 369,
      "age": 370,
      "Ġapp": 371,
      "Ġ1": 372,
      "Ġdev": 373,
      "ĠÃª": 374,
      "une": 375,
      "Ġpeut": 376,
      "Ġbien": 377,
      "ĠtrÃ¨s": 378,
      "Ãªme": 379,
      "og": 380,
      "vez": 381,
      "ux": 382,
      "ite": 383,
      "Ġcomm": 384,
      "Ġent": 385,
      "ence": 386,
      "ail": 387,
      "oin": 388,
      "Ġno": 389,
      "Ġcon": 390,
      "tr": 391,
      "ter": 392,
      "ap": 393,
      "Ġ\"": 394,
      "00": 395,
      "Ġcela": 396,
      "ic": 397,
      "Ġar": 398,
      "ert": 399,
      "ique": 400,
      "ler": 401,
      "rai": 402,
      "Ġquand": 403,
      "Ġmonde": 404,
      "lÃ©": 405,
      "aux": 406,
      "onne": 407,
      "Ġpers": 408,
      "Ã©ri": 409,
      "Ġgens": 410,
      "mb": 411,
      "Ġcons": 412,
      "Ã©n": 413,
      "ille": 414,
      "Ã´": 415,
      "Ġvrai": 416,
      "Ġtrav": 417,
      "ys": 418,
      "Ã¨me": 419,
      "ot": 420,
      "ants": 421,
      "ard": 422,
      "ten": 423,
      "elles": 424,
      "enc": 425,
      "Ã§": 426,
      "Ġelle": 427,
      "Ġma": 428,
      "ils": 429,
      "aut": 430,
      "ĠmÃªme": 431,
      "Ġdit": 432,
      "che": 433,
      "ĠprÃ©": 434,
      "Ġchose": 435,
      "Ġnotre": 436,
      "Ġparce": 437,
      "ĠÃªtre": 438,
      "id": 439,
      "Ġleur": 440,
      "ance": 441,
      "Ġcont": 442,
      "ussi": 443,
      "rer": 444,
      "ig": 445,
      "Ã¹": 446,
      "pr": 447,
      "um": 448,
      "Ġbeau": 449,
      "Ġso": 450,
      "Ġpouv": 451,
      "endre": 452,
      "ue": 453,
      "ord": 454,
      "ĠÂ«": 455,
      "Ġalors": 456,
      "Ġmain": 457,
      "ale": 458,
      "Ġsuis": 459,
      "Ġaux": 460,
      "ĠoÃ¹": 461,
      "Ġtous": 462,
      "Ġsa": 463,
      "Ġdis": 464,
      "ours": 465,
      "util": 466,
      "Ã©c": 467,
      "Ġdeux": 468,
      "ond": 469,
      "Ġdiff": 470,
      "coup": 471,
      "Ġimp": 472,
      "ĠÃ©tait": 473,
      "Ġparti": 474,
      "ins": 475,
      "ĠÃ©tÃ©": 476,
      "orm": 477,
      "Ġbeaucoup": 478,
      "enti": 479,
      "Ġdire": 480,
      "Ġaussi": 481,
      "ine": 482,
      "able": 483,
      "tes": 484,
      "Ġ2": 485,
      "ace": 486,
      "Ġvraiment": 487,
      "Ġmar": 488,
      "Ġjus": 489,
      "ni": 490,
      "ense": 491,
      "utilis": 492,
      "tions": 493,
      "esp": 494,
      "ĠÂ»": 495,
      "Ġcar": 496,
      "Ġtou": 497,
      "Ġmil": 498,
      "du": 499,
      "Ġtravail": 500,
      "sent": 501,
      "co": 502,
      "Ġli": 503,
      "app": 504,
      "Ġvie": 505,
      "Ã©tait": 506,
      "Ġser": 507,
      "orte": 508,
      "mps": 509,
      "Ġson": 510,
      "Ġprob": 511,
      "rois": 512,
      "Ġpre": 513,
      "Ġdonn": 514,
      "Ġaut": 515,
      "Ġchoses": 516,
      "ph": 517,
      "Ġans": 518,
      "ĠcrÃ©": 519,
      "Ġseu": 520,
      "Ġvoi": 521,
      "Ãªtre": 522,
      "ad": 523,
      "Ġnos": 524,
      "Ġpuis": 525,
      "Ġas": 526,
      "ĠlÃł": 527,
      "oc": 528,
      "ser": 529,
      "Ġper": 530,
      "Ġcomment": 531,
      "ement": 532,
      "ĠÃ©c": 533,
      "ommes": 534,
      "olog": 535,
      "Ġmainten": 536,
      "Ġpos": 537,
      "Ġvou": 538,
      "Ġquelque": 539,
      "Ġmoi": 540,
      "Ġpet": 541,
      "fi": 542,
      "Ġpersonn": 543,
      "ations": 544,
      "Ġpremi": 545,
      "Ġvoir": 546,
      "Ġvotre": 547,
      "ĠdÃ©c": 548,
      "Ġvi": 549,
      "Ġmaintenant": 550,
      "Ġph": 551,
      "Ã»": 552,
      "vent": 553,
      "Ġter": 554,
      "pe": 555,
      "Ġmes": 556,
      "Ġai": 557,
      "Ġreg": 558,
      "tique": 559,
      "Ġpou": 560,
      "Ġam": 561,
      "Ġat": 562,
      "Ġgrand": 563,
      "ouve": 564,
      "Ġenf": 565,
      "ents": 566,
      "anc": 567,
      "Ġpens": 568,
      "ge": 569,
      "Ġac": 570,
      "oire": 571,
      "omb": 572,
      "Ġexp": 573,
      "Ġici": 574,
      "Ġutilis": 575,
      "Ġmont": 576,
      "Ġpense": 577,
      "Ġtemps": 578,
      "Ã¢": 579,
      "ante": 580,
      "sion": 581,
      "jet": 582,
      "em": 583,
      "Ġmilli": 584,
      "par": 585,
      "Ġfois": 586,
      "Ġfin": 587,
      "Ġcha": 588,
      "Ġvoy": 589,
      "lÃ¨": 590,
      "Ġchang": 591,
      "Ġann": 592,
      "ĠdiffÃ©r": 593,
      "ble": 594,
      "ĠmÃ©": 595,
      "Ġim": 596,
      "Ġavait": 597,
      "Ġob": 598,
      "tement": 599,
      "ouver": 600,
      "im": 601,
      "Ġentre": 602,
      "Ġca": 603,
      "âĻ": 604,
      "its": 605,
      "Ġpouvez": 606,
      "cher": 607,
      "ion": 608,
      "Ġmer": 609,
      "Ġfa": 610,
      "Ġsav": 611,
      "ĠâĻ": 612,
      "ay": 613,
      "Ġfor": 614,
      "ions": 615,
      "Ġcert": 616,
      "ob": 617,
      "Ġman": 618,
      "ex": 619,
      "Ġcertain": 620,
      "op": 621,
      "Ġprop": 622,
      "Ġmal": 623,
      "ris": 624,
      "Ġenv": 625,
      "Ġpu": 626,
      "core": 627,
      "rait": 628,
      "ande": 629,
      "Ġvoici": 630,
      "Ġencore": 631,
      "mple": 632,
      "Ġsommes": 633,
      "Ġnon": 634,
      "ĠfaÃ§": 635,
      "Ġpersonnes": 636,
      "aires": 637,
      "cu": 638,
      "Ġleurs": 639,
      "Ġdem": 640,
      "Ġpart": 641,
      "endant": 642,
      "ver": 643,
      "form": 644,
      "Ġjour": 645,
      "Ġfais": 646,
      "ts": 647,
      "ĠrÃ©p": 648,
      "olu": 649,
      "Ã¨res": 650,
      "Ġarri": 651,
      "alis": 652,
      "ction": 653,
      "Ġcommenc": 654,
      "Ġautre": 655,
      "ile": 656,
      "ments": 657,
      "ĠgÃ©n": 658,
      "Ã®": 659,
      "Ġess": 660,
      "Ġid": 661,
      "ĠâĻ«": 662,
      "Ġdont": 663,
      "Ġpays": 664,
      "..": 665,
      "ill": 666,
      "Ġco": 667,
      "lu": 668,
      "enir": 669,
      "Ġst": 670,
      "Ġjam": 671,
      "Ġavoir": 672,
      "semb": 673,
      "Ġtoutes": 674,
      "sez": 675,
      "Ġfem": 676,
      "aine": 677,
      "entre": 678,
      "ourd": 679,
      "Ġder": 680,
      "Ġeu": 681,
      "Ġelles": 682,
      "quoi": 683,
      "alitÃ©": 684,
      "Ġavez": 685,
      "Ġtech": 686,
      "ier": 687,
      "Ġjuste": 688,
      "ellement": 689,
      "Ġva": 690,
      "Ġsans": 691,
      "Ġbes": 692,
      "Ġk": 693,
      "alement": 694,
      "yst": 695,
      "Ġques": 696,
      "Ġvais": 697,
      "ĠfaÃ§on": 698,
      "Ġbesoin": 699,
      "Ġlui": 700,
      "ner": 701,
      "Ġcor": 702,
      "ong": 703,
      "Ġinter": 704,
      "Ġcap": 705,
      "iÃ¨re": 706,
      "Ġimport": 707,
      "Ġbon": 708,
      "ats": 709,
      "met": 710,
      "tru": 711,
      "sÃ©": 712,
      "hui": 713,
      "jourd": 714,
      ".\"": 715,
      "Ġquelques": 716,
      "Ã©ra": 717,
      "Ġsoci": 718,
      "Ġpourquoi": 719,
      "bli": 720,
      "prÃ¨s": 721,
      "Ġhum": 722,
      "Ġtrois": 723,
      "Ġ3": 724,
      "Ġtu": 725,
      "Ġtrans": 726,
      "Ġcol": 727,
      "Ġjamais": 728,
      "Ġchaque": 729,
      "Ġtechn": 730,
      "oy": 731,
      "ult": 732,
      "Ġpoin": 733,
      "ĠrÃ©s": 734,
      "nent": 735,
      "veau": 736,
      "ĠaprÃ¨s": 737,
      "iste": 738,
      "ĠannÃ©es": 739,
      "Ġpendant": 740,
      "Ġsyst": 741,
      "Ġall": 742,
      "Ġcl": 743,
      "istoire": 744,
      "iss": 745,
      "ĠdÃ©p": 746,
      "urs": 747,
      "Ġconn": 748,
      "Ġenfants": 749,
      "Ġins": 750,
      "imp": 751,
      "Ġmet": 752,
      "Ã©g": 753,
      "Ġbi": 754,
      "Ġaujourd": 755,
      "lez": 756,
      "mer": 757,
      "tu": 758,
      "Ġveux": 759,
      "Ġpouvons": 760,
      "opp": 761,
      "Ġmom": 762,
      "Ġmerci": 763,
      "Ġsou": 764,
      "Ġcompr": 765,
      "ĠintÃ©": 766,
      "ing": 767,
      "Ġeff": 768,
      "ages": 769,
      "ise": 770,
      "autres": 771,
      "Ġderni": 772,
      "ombre": 773,
      "lÃ¨me": 774,
      "Ġpol": 775,
      "Ġmoins": 776,
      "ĠproblÃ¨me": 777,
      "Ġpersonne": 778,
      "Ġses": 779,
      "ologie": 780,
      "Ġw": 781,
      "Ġvis": 782,
      "Ġinc": 783,
      "ures": 784,
      "Ġlors": 785,
      "jours": 786,
      "Ġfr": 787,
      "illes": 788,
      "Ġtoujours": 789,
      "ces": 790,
      "Ġexe": 791,
      "Ġvoul": 792,
      "ros": 793,
      "Ġrest": 794,
      "Ġseulement": 795,
      "Ġor": 796,
      "uire": 797,
      "Ġnouv": 798,
      "ĠdÃ©v": 799,
      "Ġcommun": 800,
      "Ġcer": 801,
      "Ġparler": 802,
      "Ġviv": 803,
      "Ġrec": 804,
      "rit": 805,
      "Ġpeuvent": 806,
      "Ġmat": 807,
      "vous": 808,
      "Ġregard": 809,
      "aines": 810,
      "Ġrep": 811,
      "Ġab": 812,
      "Ġpetit": 813,
      "uer": 814,
      "Ã´t": 815,
      "ues": 816,
      "cep": 817,
      "Ġsoit": 818,
      "ĠÃ©v": 819,
      "els": 820,
      "Ġavant": 821,
      "Ġmoment": 822,
      "000": 823,
      "rop": 824,
      "ature": 825,
      "eure": 826,
      "Ġsci": 827,
      "ĠsÃ»": 828,
      "Ġsavez": 829,
      "Ã©tÃ©": 830,
      "Ġprof": 831,
      "ĠpremiÃ¨re": 832,
      "tif": 833,
      "ches": 834,
      "Ġquoi": 835,
      "Ġni": 836,
      "min": 837,
      "Ġdemand": 838,
      "Ġprodu": 839,
      "Ġnombre": 840,
      "lent": 841,
      "je": 842,
      "per": 843,
      "ies": 844,
      "Ġlong": 845,
      "Ġatt": 846,
      "Ġpartie": 847,
      "ĠÃ©tu": 848,
      "iez": 849,
      "elopp": 850,
      "Ġad": 851,
      "Ġcas": 852,
      "Ġessay": 853,
      "quer": 854,
      "Ġautres": 855,
      "Ã©tais": 856,
      "Ġtoute": 857,
      "onom": 858,
      "ables": 859,
      "ĠÃ©taient": 860,
      "puis": 861,
      "cid": 862,
      "Ġquestion": 863,
      "ĠdiffÃ©rent": 864,
      "Ġconc": 865,
      "Ġmi": 866,
      "Ġnouve": 867,
      "arde": 868,
      "Ġpubli": 869,
      "Ġ5": 870,
      "Ġpi": 871,
      "omme": 872,
      "nes": 873,
      "Âł": 874,
      "Ġcrois": 875,
      "Ġsig": 876,
      "ales": 877,
      "ide": 878,
      "Ġvoyez": 879,
      "all": 880,
      "Ġvers": 881,
      "roy": 882,
      "ateur": 883,
      "ves": 884,
      "Ġexemple": 885,
      "Ġmeille": 886,
      "ĠdÃ©velopp": 887,
      "autre": 888,
      "ains": 889,
      "hÃ©": 890,
      "Ġmin": 891,
      "gent": 892,
      "ĠcommencÃ©": 893,
      "Ġplan": 894,
      "Ġcent": 895,
      "ĠsystÃ¨me": 896,
      "Ã©lÃ©": 897,
      "antes": 898,
      "Ġcour": 899,
      "ences": 900,
      "chÃ©": 901,
      "Ġenvir": 902,
      "ordin": 903,
      "Ġmod": 904,
      "Ġceci": 905,
      "Ġsp": 906,
      "Ġsouv": 907,
      "oit": 908,
      "Ã¨ne": 909,
      "tiques": 910,
      "Ġjou": 911,
      "acc": 912,
      "Ġrais": 913,
      "Ġappel": 914,
      "Ġvoit": 915,
      "Ġesp": 916,
      "Ġdepuis": 917,
      "rais": 918,
      "Ġpoint": 919,
      "dre": 920,
      "Ġgrande": 921,
      "uite": 922,
      "Ġbr": 923,
      "ress": 924,
      "Ġrien": 925,
      "Ġpri": 926,
      "ĠsÃ»r": 927,
      "tres": 928,
      "Ġrev": 929,
      "Ġveu": 930,
      "roit": 931,
      "Ġsimp": 932,
      "ivers": 933,
      "Ġfonc": 934,
      "Ġjusqu": 935,
      "Ġphot": 936,
      "Ġquelqu": 937,
      "ĠmaniÃ¨re": 938,
      "vÃ©": 939,
      "Ġ4": 940,
      "Ġain": 941,
      "aiss": 942,
      "ars": 943,
      "iques": 944,
      "Ġtant": 945,
      "Ġtrouv": 946,
      "one": 947,
      "Ġainsi": 948,
      "agin": 949,
      "avais": 950,
      "Ġbou": 951,
      "ĠdÃ©b": 952,
      "Ġpris": 953,
      "ĠÃªtes": 954,
      "Ġsous": 955,
      "rez": 956,
      "use": 957,
      "Ġsec": 958,
      "rent": 959,
      "semble": 960,
      "gan": 961,
      "Ġgen": 962,
      "adi": 963,
      "Ġaur": 964,
      "Ġpoli": 965,
      "ient": 966,
      "Ġmoy": 967,
      "Ġcomb": 968,
      "Ġvoil": 969,
      "ilitÃ©": 970,
      "itu": 971,
      "Ġ20": 972,
      "Ãªte": 973,
      "Ġacc": 974,
      "Ġfond": 975,
      "Ġpermet": 976,
      "Ġfaut": 977,
      "Ġpossi": 978,
      "Ġmus": 979,
      "olution": 980,
      "Ġconf": 981,
      "Ġtrouver": 982,
      "Ġfemmes": 983,
      "bles": 984,
      "idÃ©": 985,
      "oll": 986,
      "qui": 987,
      "Ġsens": 988,
      "exp": 989,
      "des": 990,
      "Ġregarde": 991,
      "suite": 992,
      "Ġfam": 993,
      "Ġsais": 994,
      "Ġfonction": 995,
      "att": 996,
      "Ġaf": 997,
      "Ġvu": 998,
      "Ġ19": 999,
      "Ġprojet": 1000,
      "enu": 1001,
      "Ġfont": 1002,
      "tÃ©ri": 1003,
      "ĠprÃ©sent": 1004,
      "Ġfil": 1005,
      "Ġensuite": 1006,
      "ĠdÃ©f": 1007,
      "Ġtravers": 1008,
      "Ġnature": 1009,
      "Ġcontr": 1010,
      "Ġprog": 1011,
      "Ġpourrait": 1012,
      "Ġassez": 1013,
      "Ġcerveau": 1014,
      "ign": 1015,
      "Ġz": 1016,
      "Ġrapp": 1017,
      "ĠrÃ©f": 1018,
      "ouvert": 1019,
      "ĠdonnÃ©es": 1020,
      "Ġpasse": 1021,
      "part": 1022,
      "ateurs": 1023,
      "Ġbas": 1024,
      "Ġcher": 1025,
      "ĠvoilÃł": 1026,
      "Ġ10": 1027,
      "Ġver": 1028,
      "ps": 1029,
      "ĠcÃ´": 1030,
      "Ġtechnologie": 1031,
      "cip": 1032,
      "Åĵ": 1033,
      "Ġlu": 1034,
      "Ġprendre": 1035,
      "Ġsuiv": 1036,
      "tive": 1037,
      "Ġpouvoir": 1038,
      "ĠcrÃ©er": 1039,
      "Ġsorte": 1040,
      "ĠdÃ©m": 1041,
      "Ġmillions": 1042,
      "Ġlais": 1043,
      "Ġty": 1044,
      "Ġvos": 1045,
      "ann": 1046,
      "ĠmÃ©di": 1047,
      "Ġfac": 1048,
      "Ġsc": 1049,
      "Ġbl": 1050,
      "cle": 1051,
      "Ġdevons": 1052,
      "endu": 1053,
      "Ġimportant": 1054,
      "Ġplu": 1055,
      "Ġeux": 1056,
      "Ġpres": 1057,
      "Ġnouveau": 1058,
      "Ġfer": 1059,
      "Ġint": 1060,
      "ĠÃ©le": 1061,
      "aÃ®": 1062,
      "ram": 1063,
      "Ġass": 1064,
      "Ġend": 1065,
      "Ġgenre": 1066,
      "Ġparf": 1067,
      "mis": 1068,
      "Ġemp": 1069,
      "air": 1070,
      "Ġceux": 1071,
      "Ġauc": 1072,
      "Ġdur": 1073,
      "Ã©rÃ©": 1074,
      "gie": 1075,
      "Ġdiffic": 1076,
      "Ġcertains": 1077,
      "Ġdou": 1078,
      "ric": 1079,
      "int": 1080,
      "nement": 1081,
      "Ġcomprendre": 1082,
      "Ġcontin": 1083,
      "Ã¨te": 1084,
      "Ġpremier": 1085,
      "ĠidÃ©e": 1086,
      "der": 1087,
      "rique": 1088,
      "Ġpeux": 1089,
      "ites": 1090,
      "ablement": 1091,
      "Ġsol": 1092,
      "ĠdÃ©j": 1093,
      "Ġcou": 1094,
      "Ġsau": 1095,
      "ĠtÃ©lÃ©": 1096,
      "Ġri": 1097,
      "nous": 1098,
      "lig": 1099,
      "Ġdess": 1100,
      "bre": 1101,
      "Ġchez": 1102,
      "aille": 1103,
      "ĠdÃ©jÃł": 1104,
      "Ġfut": 1105,
      "Ġliv": 1106,
      "ines": 1107,
      "raph": 1108,
      "istes": 1109,
      "ition": 1110,
      "ĠsÃ©": 1111,
      "Ġterre": 1112,
      "...": 1113,
      "ĠpassÃ©": 1114,
      "Ġplut": 1115,
      "Ġlorsque": 1116,
      "ĠÃ©g": 1117,
      "Ġgroup": 1118,
      "tant": 1119,
      "Ġdonner": 1120,
      "Ġrem": 1121,
      "Ġpren": 1122,
      "Ġmoyen": 1123,
      "Ġmis": 1124,
      "ras": 1125,
      "asse": 1126,
      "ĠÃ©tudi": 1127,
      "ĠplutÃ´t": 1128,
      "Ġmort": 1129,
      "rÃª": 1130,
      "Ġgros": 1131,
      "Ġproc": 1132,
      "Ġsimplement": 1133,
      "uit": 1134,
      "Ġrecher": 1135,
      "uv": 1136,
      "ager": 1137,
      "nif": 1138,
      "Ġsy": 1139,
      "titu": 1140,
      "itÃ©s": 1141,
      "Ġparticu": 1142,
      "Ġtour": 1143,
      "ĠintÃ©ress": 1144,
      "Ġbonne": 1145,
      "Ġimagin": 1146,
      "ganis": 1147,
      "Ġdoll": 1148,
      "Ġinf": 1149,
      "ĠrÃ©g": 1150,
      "ĠsociÃ©tÃ©": 1151,
      "iÃ¨me": 1152,
      "unis": 1153,
      "are": 1154,
      "Ġtrop": 1155,
      "Ġcoup": 1156,
      "Ġrou": 1157,
      "Ġres": 1158,
      "ass": 1159,
      "Ġgl": 1160,
      "Ġhistoire": 1161,
      "Ġsavoir": 1162,
      "atique": 1163,
      "Ġress": 1164,
      "ĠrÃ©alis": 1165,
      "uc": 1166,
      "Ġtrain": 1167,
      "Ġcontre": 1168,
      "ĠproblÃ¨": 1169,
      "Ġ000": 1170,
      "Ġoui": 1171,
      "tÃ©s": 1172,
      "ĠproblÃ¨mes": 1173,
      "Ġvol": 1174,
      "tiv": 1175,
      "Ġsemb": 1176,
      "Ġplupart": 1177,
      "ĠdÃ©s": 1178,
      "Ġjours": 1179,
      "Ġpublic": 1180,
      "Ġenviron": 1181,
      "ets": 1182,
      "Ġnouvelle": 1183,
      "Ġport": 1184,
      "Ġag": 1185,
      "ange": 1186,
      "Ġchangement": 1187,
      "Ġmag": 1188,
      "Ġba": 1189,
      "Ã©p": 1190,
      "quÃ©": 1191,
      "ĠexpÃ©ri": 1192,
      "Ġven": 1193,
      "Ġaller": 1194,
      "Ġmettre": 1195,
      "Ġmois": 1196,
      "Ġmontrer": 1197,
      "rib": 1198,
      "Ġgouver": 1199,
      "sions": 1200,
      "mÃ©": 1201,
      "Ġappr": 1202,
      "Ġmieux": 1203,
      "vis": 1204,
      "Ġsoi": 1205,
      "ente": 1206,
      "Ġti": 1207,
      "art": 1208,
      "ore": 1209,
      "ĠÃ©conom": 1210,
      "antÃ©": 1211,
      "Ġqua": 1212,
      "ĠÃ©p": 1213,
      "quelle": 1214,
      "Ġchanger": 1215,
      "essus": 1216,
      "Ġcorps": 1217,
      "Ġraison": 1218,
      "Ġpass": 1219,
      "ici": 1220,
      "lex": 1221,
      "Ġaff": 1222,
      "Ġrel": 1223,
      "Ġ!": 1224,
      "omp": 1225,
      "Ġdollars": 1226,
      "Ġprin": 1227,
      "Ġindi": 1228,
      "Ã´le": 1229,
      "Ġlaquelle": 1230,
      "Ġseul": 1231,
      "Ġserait": 1232,
      "ole": 1233,
      "histoire": 1234,
      "env": 1235,
      "Ġsal": 1236,
      "Ġanim": 1237,
      "Ġpetite": 1238,
      "Ġresp": 1239,
      "Ġpasser": 1240,
      "Ġnom": 1241,
      "Ġcli": 1242,
      "Ġes": 1243,
      "Ġcal": 1244,
      "Ġ6": 1245,
      "ĠmodÃ¨": 1246,
      "Ġavaient": 1247,
      "Ġcelui": 1248,
      "lÃł": 1249,
      "raient": 1250,
      "Ġdoit": 1251,
      "Ã©v": 1252,
      "Ġrap": 1253,
      "Ġdro": 1254,
      "ancer": 1255,
      "Ġveut": 1256,
      "Ġmilliard": 1257,
      "Ġlieu": 1258,
      "mment": 1259,
      "rÃ©sent": 1260,
      "nÃ©": 1261,
      "Ġcin": 1262,
      "Ġple": 1263,
      "Ġserv": 1264,
      "iles": 1265,
      "agit": 1266,
      "Ġtrouve": 1267,
      "Ġinform": 1268,
      "Ġincroy": 1269,
      "ĠamÃ©ri": 1270,
      "Ġfemme": 1271,
      "Ġmot": 1272,
      "Ġpenser": 1273,
      "euse": 1274,
      "act": 1275,
      "ĠrÃ©pons": 1276,
      "duire": 1277,
      "Ġville": 1278,
      "th": 1279,
      "cul": 1280,
      "ĠsantÃ©": 1281,
      "Ġcours": 1282,
      "Ġconstr": 1283,
      "Ġcommunau": 1284,
      "mÃªme": 1285,
      "Ġvont": 1286,
      "ger": 1287,
      "Ġrob": 1288,
      "onnement": 1289,
      "Ġcompte": 1290,
      "rir": 1291,
      "ari": 1292,
      "ĠcÃ´tÃ©": 1293,
      "quel": 1294,
      "Ġsimple": 1295,
      "Ġmondi": 1296,
      "Ġsujet": 1297,
      "vais": 1298,
      "ention": 1299,
      "ĠprÃ¨s": 1300,
      "ones": 1301,
      "ances": 1302,
      "Ġparticuli": 1303,
      "Ġconv": 1304,
      "Ġsem": 1305,
      "Ġcellu": 1306,
      "ieurs": 1307,
      "cation": 1308,
      "orti": 1309,
      "Ġhaut": 1310,
      "ctu": 1311,
      "Ġpropos": 1312,
      "Ġutiliser": 1313,
      "ĠreprÃ©sent": 1314,
      "Ġconstru": 1315,
      "Ãªmes": 1316,
      "rÃ©s": 1317,
      "rions": 1318,
      "cture": 1319,
      "Ġret": 1320,
      "avoir": 1321,
      "Ġlig": 1322,
      "Ġentrepr": 1323,
      "ulture": 1324,
      "Ã¯": 1325,
      "encont": 1326,
      "oires": 1327,
      "ĠÃ©ch": 1328,
      "orme": 1329,
      "Ġchi": 1330,
      "Ġsignif": 1331,
      "Ġpropre": 1332,
      "be": 1333,
      "net": 1334,
      "Ġrac": 1335,
      "Ġplace": 1336,
      "ĠrÃ©alitÃ©": 1337,
      "Ġallons": 1338,
      "isme": 1339,
      "Ġensemble": 1340,
      "ca": 1341,
      "Ġguer": 1342,
      "Ġlumi": 1343,
      "Ġseule": 1344,
      "Ġsouvent": 1345,
      "Ġheure": 1346,
      "Ġprogram": 1347,
      "ĠdÃ©cid": 1348,
      "Ġrencont": 1349,
      "Ġscienti": 1350,
      "Ġcelle": 1351,
      "Ġpossible": 1352,
      "Ġth": 1353,
      "argent": 1354,
      "ĠdiffÃ©rentes": 1355,
      "Ġsour": 1356,
      "Ġop": 1357,
      "Ġregardez": 1358,
      "Ġ200": 1359,
      "Ġhommes": 1360,
      "Ġjourn": 1361,
      "Ã©ner": 1362,
      "Ġdom": 1363,
      "tÃ©rieur": 1364,
      "Ġordin": 1365,
      "Ġmau": 1366,
      "af": 1367,
      "univers": 1368,
      "Ġsera": 1369,
      "Ġ7": 1370,
      "Ġmaison": 1371,
      "Ġforme": 1372,
      "ĠmÃ©t": 1373,
      "Ġnour": 1374,
      "Ġoc": 1375,
      "Ġquatre": 1376,
      "Ã©li": 1377,
      "iennent": 1378,
      "tra": 1379,
      "oque": 1380,
      "idÃ©e": 1381,
      "Ġtard": 1382,
      "Ġrend": 1383,
      "Ġpop": 1384,
      "riÃ¨re": 1385,
      "Ġdifficile": 1386,
      "Ã©d": 1387,
      "ĠrÃ©pond": 1388,
      "tez": 1389,
      "gn": 1390,
      "tent": 1391,
      "Ġautour": 1392,
      "moi": 1393,
      "ysi": 1394,
      "avons": 1395,
      "Ġ8": 1396,
      "Ġdist": 1397,
      "Ã¨ce": 1398,
      "Ã©nergie": 1399,
      "Ġface": 1400,
      "ograph": 1401,
      "Ġrapide": 1402,
      "unes": 1403,
      "inter": 1404,
      "Ġlib": 1405,
      "ĠrÃ©sult": 1406,
      "ses": 1407,
      "ĠtrouvÃ©": 1408,
      "ĠprÃ©c": 1409,
      "\".": 1410,
      "ec": 1411,
      "Ġfamille": 1412,
      "Ġfaisons": 1413,
      "Ġmauvais": 1414,
      "fs": 1415,
      "ression": 1416,
      "Ġmor": 1417,
      "Ġsort": 1418,
      "Ġpuiss": 1419,
      "Ġniveau": 1420,
      "Ġquelle": 1421,
      "Ġfaites": 1422,
      "Ġ;": 1423,
      "Ġform": 1424,
      "Ã©rer": 1425,
      "ĠvidÃ©": 1426,
      "Ġpopul": 1427,
      "Ġsorti": 1428,
      "Ġallez": 1429,
      "Ġfai": 1430,
      "riez": 1431,
      "ĠÃ©tats": 1432,
      "Ġphysi": 1433,
      "eures": 1434,
      "Ġpresque": 1435,
      "uses": 1436,
      "Ġsuper": 1437,
      "Ġorganis": 1438,
      "iter": 1439,
      "Ġgroupe": 1440,
      "Ġreste": 1441,
      "ĠplanÃ¨te": 1442,
      "Ġsupp": 1443,
      "ru": 1444,
      "Ġeh": 1445,
      "gment": 1446,
      "Ġparle": 1447,
      "Ġlang": 1448,
      "onde": 1449,
      "ĠsiÃ¨": 1450,
      "Ã¨tres": 1451,
      "Ġhomme": 1452,
      "tri": 1453,
      "Ġobten": 1454,
      "Ġtravailler": 1455,
      "Ġind": 1456,
      "Ġmach": 1457,
      "Ġcause": 1458,
      "Ġinv": 1459,
      "az": 1460,
      "Ġmilliards": 1461,
      "Ġfl": 1462,
      "omm": 1463,
      "Ġ9": 1464,
      "Ġmesure": 1465,
      "Ã©ration": 1466,
      "ĠlumiÃ¨re": 1467,
      "ĠrÃ©c": 1468,
      "importe": 1469,
      "lÃ©ch": 1470,
      "ov": 1471,
      "Ã©ment": 1472,
      "Ġplusieurs": 1473,
      "Ġappris": 1474,
      "Ġvoulez": 1475,
      "Ġsavons": 1476,
      "ĠÃ©galement": 1477,
      "cteur": 1478,
      "isse": 1479,
      "ĠcomplÃ¨": 1480,
      "Ġtype": 1481,
      "Ġconcep": 1482,
      "ĠthÃ©": 1483,
      "Ġcommence": 1484,
      "Ġtellement": 1485,
      "ose": 1486,
      "Ġok": 1487,
      "Ã©qu": 1488,
      "agne": 1489,
      "Ġchac": 1490,
      "Ġappar": 1491,
      "ĠdÃ©but": 1492,
      "ette": 1493,
      "Ġconne": 1494,
      "Ġchar": 1495,
      "Ġpauv": 1496,
      "Ġdisp": 1497,
      "Ġfilm": 1498,
      "ĠamÃ©ric": 1499,
      "Ġnouvelles": 1500,
      "anger": 1501,
      "ĠdemandÃ©": 1502,
      "Ġpartir": 1503,
      "Ġpe": 1504,
      "Ġpati": 1505,
      "ĠÃ©n": 1506,
      "ĠrÃ©flÃ©ch": 1507,
      "acitÃ©": 1508,
      "ĠrÃ©ponse": 1509,
      "Ã©ci": 1510,
      "appelle": 1511,
      "Ġguerre": 1512,
      "ĠspÃ©ci": 1513,
      "Ġfab": 1514,
      "ĠmarchÃ©": 1515,
      "Ġcommencer": 1516,
      "Â»": 1517,
      "Ġcinq": 1518,
      "Ġhist": 1519,
      "tein": 1520,
      "Ġdoi": 1521,
      "inform": 1522,
      "Ġphoto": 1523,
      "ises": 1524,
      "tionn": 1525,
      "oles": 1526,
      "Ġtest": 1527,
      "prit": 1528,
      "Ġmen": 1529,
      "Ġconstruire": 1530,
      "Ġcertaines": 1531,
      "enf": 1532,
      "ĠmÃ¨re": 1533,
      "Ġenfant": 1534,
      "Ġproduit": 1535,
      "ĠdiffÃ©rents": 1536,
      "Ġsent": 1537,
      "rÃ©e": 1538,
      "ront": 1539,
      "anti": 1540,
      "Ġparfois": 1541,
      "Ġremar": 1542,
      "Ġcri": 1543,
      "ĠdonnÃ©": 1544,
      "Ġhab": 1545,
      "orer": 1546,
      "Ġpetits": 1547,
      "sionn": 1548,
      "ĠidÃ©es": 1549,
      "Ġdonne": 1550,
      "Ġtomb": 1551,
      "ĠcoÃ»": 1552,
      "Ġpouvait": 1553,
      "Ġprobablement": 1554,
      "ĠrÃ©se": 1555,
      "Ġscience": 1556,
      "Ġextr": 1557,
      "Ġvue": 1558,
      "Ġhumain": 1559,
      "Ġregarder": 1560,
      "chet": 1561,
      "pt": 1562,
      "Ã©cu": 1563,
      "Ġ15": 1564,
      "fiques": 1565,
      "Ġquestions": 1566,
      "od": 1567,
      "avant": 1568,
      "Ġconnaiss": 1569,
      "Ġretour": 1570,
      "Ġ100": 1571,
      "Ġchois": 1572,
      "Ġsignifie": 1573,
      "Ġjeu": 1574,
      "ĠbÃ¢": 1575,
      "Ġdemande": 1576,
      "Ġsub": 1577,
      "Ġfour": 1578,
      "Ã¨mes": 1579,
      "ĠannÃ©e": 1580,
      "Ġligne": 1581,
      "ah": 1582,
      "bilitÃ©": 1583,
      "dec": 1584,
      "ĠsÃ©ri": 1585,
      "Ġprincip": 1586,
      "Ã¢ce": 1587,
      "Ġ30": 1588,
      "Ġche": 1589,
      "ĠgrÃ¢ce": 1590,
      "Ġculture": 1591,
      "Ġnew": 1592,
      "ĠdÃ©couvert": 1593,
      "Ġlivre": 1594,
      "ĠdÃ©veloppement": 1595,
      "riture": 1596,
      "Ġcro": 1597,
      "ĠderniÃ¨re": 1598,
      "Ġpo": 1599,
      "accord": 1600,
      "if": 1601,
      "ĠdÃ©t": 1602,
      "Ġ50": 1603,
      "Ã©l": 1604,
      "ĠmÃ©dec": 1605,
      "Ġmic": 1606,
      "Ġrecherche": 1607,
      "Ġcellules": 1608,
      "Ġloin": 1609,
      "Ġmouve": 1610,
      "Ġpensez": 1611,
      "Ġprocessus": 1612,
      "leur": 1613,
      "ĠcommunautÃ©": 1614,
      "Ġhumains": 1615,
      "Ã¨g": 1616,
      "Ġjeunes": 1617,
      "Ġheures": 1618,
      "Ġviol": 1619,
      "Ġvient": 1620,
      "fique": 1621,
      "ĠÃ©lect": 1622,
      "Ġris": 1623,
      "agn": 1624,
      "Ġrendre": 1625,
      "Ġpartout": 1626,
      "ĠtÃªte": 1627,
      "Ġtransform": 1628,
      "ate": 1629,
      "Ġcombien": 1630,
      "Ġgouvernement": 1631,
      "Ġlog": 1632,
      "Ġabs": 1633,
      "Ġlit": 1634,
      "uss": 1635,
      "Ġparl": 1636,
      "utes": 1637,
      "Ġtruc": 1638,
      "Ġdisc": 1639,
      "Ġdevez": 1640,
      "Ġtechnolog": 1641,
      "Ġvoiture": 1642,
      "espace": 1643,
      "cev": 1644,
      "Ġproch": 1645,
      "pect": 1646,
      "Ġexpli": 1647,
      "Ġretr": 1648,
      "Ġcomplex": 1649,
      "ire": 1650,
      "rÃ¨s": 1651,
      "ĠmodÃ¨le": 1652,
      "ienne": 1653,
      "Ġted": 1654,
      "Ġnaturel": 1655,
      "ĠcomplÃ¨tement": 1656,
      "Ġsitu": 1657,
      "Ġmots": 1658,
      "Ġvivre": 1659,
      "Ġexac": 1660,
      "Ġendroit": 1661,
      "man": 1662,
      "Ġobser": 1663,
      "oix": 1664,
      "issent": 1665,
      "Ġpous": 1666,
      "ĠvÃ©r": 1667,
      "ative": 1668,
      "tifs": 1669,
      "temps": 1670,
      "Ġfi": 1671,
      "Ġexc": 1672,
      "Ġdisent": 1673,
      "Ġbase": 1674,
      "Ġvoud": 1675,
      "ell": 1676,
      "Ġvir": 1677,
      "Ġyeux": 1678,
      "ges": 1679,
      "ĠdÃ©pl": 1680,
      "ĠpÃ¨re": 1681,
      "Ġju": 1682,
      "ds": 1683,
      "Ġterr": 1684,
      "vid": 1685,
      "Ġmeilleur": 1686,
      "rons": 1687,
      "Ġsex": 1688,
      "Ġcomporte": 1689,
      "Ġaucune": 1690,
      "Ġpolitique": 1691,
      "Ġstru": 1692,
      "ĠÃ©lÃ©": 1693,
      "uritÃ©": 1694,
      "abord": 1695,
      "ĠlÃ©g": 1696,
      "Ġarrive": 1697,
      "Ġaugment": 1698,
      "Ġpeur": 1699,
      "Ã§u": 1700,
      "ĠÃ©qui": 1701,
      "Ġvoulais": 1702,
      "ĠexpÃ©rience": 1703,
      "ili": 1704,
      "Ġrobot": 1705,
      "ital": 1706,
      "ĠprotÃ©": 1707,
      "Ġamis": 1708,
      "ox": 1709,
      "Ġcam": 1710,
      "fier": 1711,
      "Ġprend": 1712,
      "mpl": 1713,
      "ĠâĢ": 1714,
      "Ġentendu": 1715,
      "Ġdevenir": 1716,
      "ĠvidÃ©o": 1717,
      "Ġaucun": 1718,
      "Ã¨ces": 1719,
      "ĠtÃ©lÃ©ph": 1720,
      "pes": 1721,
      "Ġloc": 1722,
      "Ġneu": 1723,
      "Ġchoix": 1724,
      "abilitÃ©": 1725,
      "Ġlab": 1726,
      "Ġnum": 1727,
      "men": 1728,
      "Ġcroy": 1729,
      "Ġconsci": 1730,
      "ration": 1731,
      "Ã§ons": 1732,
      "Ġexpl": 1733,
      "Ġmusique": 1734,
      "Ġdieu": 1735,
      "Ġsel": 1736,
      "Ġvale": 1737,
      "Ġtrait": 1738,
      "Ġlim": 1739,
      "Ġaider": 1740,
      "Ġanimaux": 1741,
      "Ġsurv": 1742,
      "ĠdÃ©cidÃ©": 1743,
      "Ġmontre": 1744,
      "ĠmatÃ©ri": 1745,
      "ĠnÃ©c": 1746,
      "intÃ©rieur": 1747,
      "ĠcrÃ©Ã©": 1748,
      "Ġreconn": 1749,
      "Ġessayer": 1750,
      "Ġang": 1751,
      "ustri": 1752,
      "ĠderniÃ¨res": 1753,
      "iquement": 1754,
      "Ã©cole": 1755,
      "Ġgar": 1756,
      "inc": 1757,
      "ĠpensÃ©": 1758,
      "Ãªt": 1759,
      "ĠdeuxiÃ¨me": 1760,
      "Ġminutes": 1761,
      "Ġracont": 1762,
      "oci": 1763,
      "pi": 1764,
      "\",": 1765,
      "Ġvoyons": 1766,
      "eff": 1767,
      "ĠsÃ©c": 1768,
      "Ġavions": 1769,
      "aitement": 1770,
      "Ġ[": 1771,
      "atis": 1772,
      "Ġdeven": 1773,
      "aÃ®tre": 1774,
      "ĠnÃ©cess": 1775,
      "Ġvois": 1776,
      "Ġafin": 1777,
      "bes": 1778,
      "Ġlequel": 1779,
      "ieu": 1780,
      "aces": 1781,
      "ĠbÃ¢ti": 1782,
      "Ġnation": 1783,
      "Ġmalad": 1784,
      "ade": 1785,
      "Ġgrands": 1786,
      "Ġimage": 1787,
      "Ġexactement": 1788,
      "heure": 1789,
      "ron": 1790,
      "Ġbat": 1791,
      "Ġdernier": 1792,
      "Ġprofond": 1793,
      "ĠappelÃ©": 1794,
      "ĠintÃ©ressant": 1795,
      "Ġfille": 1796,
      "Ġactu": 1797,
      "Ġoff": 1798,
      "iner": 1799,
      "Ġbout": 1800,
      "Ġdesign": 1801,
      "jec": 1802,
      "matique": 1803,
      "Ġsait": 1804,
      "Ã©ro": 1805,
      "ĠÃ©crit": 1806,
      "ĠÂ».": 1807,
      "Ġcolle": 1808,
      "ible": 1809,
      "Ġincroyable": 1810,
      "dia": 1811,
      "Ġsix": 1812,
      "face": 1813,
      "Ġunivers": 1814,
      "Ġvoulons": 1815,
      "Ġjouer": 1816,
      "rire": 1817,
      "action": 1818,
      "ĠrÃ¨g": 1819,
      "ĠcapacitÃ©": 1820,
      "Ġfutur": 1821,
      "Ġout": 1822,
      "Ġchacun": 1823,
      "Ġobjet": 1824,
      "ouvrir": 1825,
      "Ġmilliers": 1826,
      "Ġtot": 1827,
      "duis": 1828,
      "nov": 1829,
      "Ġarriver": 1830,
      "Ġradi": 1831,
      "Ġmarche": 1832,
      "Ġcentre": 1833,
      "Ġbar": 1834,
      "ĠsiÃ¨cle": 1835,
      "Ġenvoy": 1836,
      "ettes": 1837,
      "Ã¨rement": 1838,
      "Ġaurait": 1839,
      "ducation": 1840,
      "ran": 1841,
      "Ġpot": 1842,
      "Ġconnais": 1843,
      "intÃ©": 1844,
      "Ã©rence": 1845,
      "auche": 1846,
      "Ġcancer": 1847,
      "ĠrÃ©v": 1848,
      "Ġsuc": 1849,
      "Ġselon": 1850,
      "Ġlar": 1851,
      "Ġnourriture": 1852,
      "mo": 1853,
      "Ġgrandes": 1854,
      "ern": 1855,
      "Ġnord": 1856,
      "Ġcompris": 1857,
      "ode": 1858,
      "ork": 1859,
      "Ã©rique": 1860,
      "envir": 1861,
      "Ġdois": 1862,
      "Ġmari": 1863,
      "onnes": 1864,
      "Ġsecond": 1865,
      "iens": 1866,
      "Ã©tu": 1867,
      "Ġrapidement": 1868,
      "avez": 1869,
      "Ġdevant": 1870,
      "Ġhistoires": 1871,
      "hum": 1872,
      "vers": 1873,
      "ton": 1874,
      "aimer": 1875,
      "Ġsim": 1876,
      "Ġsud": 1877,
      "Ġref": 1878,
      "oh": 1879,
      "ind": 1880,
      "Ġrapport": 1881,
      "lus": 1882,
      "veille": 1883,
      "ĠrÃ©ellement": 1884,
      "Ġprix": 1885,
      "Ġcherch": 1886,
      "Ġcit": 1887,
      "Ġvilles": 1888,
      "cident": 1889,
      "lais": 1890,
      "Ġpra": 1891,
      "Ġempl": 1892,
      "Ġapprendre": 1893,
      "Ġressemb": 1894,
      "Ġsemble": 1895,
      "yc": 1896,
      "Ġnorm": 1897,
      "sible": 1898,
      "cien": 1899,
      "Ġdiri": 1900,
      "tim": 1901,
      "Ġinternet": 1902,
      "Ġmondiale": 1903,
      "Ġphysique": 1904,
      "tiÃ©": 1905,
      "Ġense": 1906,
      "Ġfinalement": 1907,
      "Ġressemble": 1908,
      "aud": 1909,
      "Ġcoll": 1910,
      "cup": 1911,
      "dez": 1912,
      "iser": 1913,
      "ĠrÃª": 1914,
      "Ġarriv": 1915,
      "Ġdemander": 1916,
      "Ġlongtemps": 1917,
      "Ġpopulation": 1918,
      "ĠsÃ©curitÃ©": 1919,
      "erre": 1920,
      "Ġtaille": 1921,
      "Ġban": 1922,
      "Ġmeilleure": 1923,
      "Ġgo": 1924,
      "aime": 1925,
      "Ġtend": 1926,
      "roits": 1927,
      "avait": 1928,
      "Ġimportante": 1929,
      "Ġintel": 1930,
      "Ġcroiss": 1931,
      "lant": 1932,
      "ĠthÃ©or": 1933,
      "ĠdÃ»": 1934,
      "sy": 1935,
      "Ġparents": 1936,
      "Ġmaj": 1937,
      "Ġprov": 1938,
      "dent": 1939,
      "gu": 1940,
      "Ġart": 1941,
      "Ġgag": 1942,
      "ath": 1943,
      "ĠdÃ©fin": 1944,
      "Ġdroit": 1945,
      "Ġporte": 1946,
      "tÃ©e": 1947,
      "Ġmilieu": 1948,
      "Ġtravaille": 1949,
      "Ġveulent": 1950,
      "Ġimaginez": 1951,
      "Ġcan": 1952,
      "Ġbut": 1953,
      "Ġsouff": 1954,
      "hab": 1955,
      "cier": 1956,
      "Ġvoix": 1957,
      "Ġachet": 1958,
      "Ġchance": 1959,
      "Ġdevrait": 1960,
      "Ġimages": 1961,
      "ĠdiffÃ©rence": 1962,
      "ĠÃ¢": 1963,
      "Ġchine": 1964,
      "yp": 1965,
      "aÃ®t": 1966,
      "homme": 1967,
      "ication": 1968,
      "ĠarrÃª": 1969,
      "Ġrespons": 1970,
      "Ã¨nes": 1971,
      "Ġpetites": 1972,
      "gÃ©": 1973,
      "Ġfort": 1974,
      "Ġtrou": 1975,
      "Ġpap": 1976,
      "tien": 1977,
      "Ġfacile": 1978,
      "Ġnuit": 1979,
      "duit": 1980,
      "grÃ©": 1981,
      "ĠprÃ©f": 1982,
      "airement": 1983,
      "Ġprom": 1984,
      "oiss": 1985,
      "Ġentier": 1986,
      "tivitÃ©": 1987,
      "ctions": 1988,
      "Ġ%": 1989,
      "Ġpuisse": 1990,
      "Ġyork": 1991,
      "Ġscientifiques": 1992,
      "ĠÃ©tr": 1993,
      "Ġmouvement": 1994,
      "Ġdevenu": 1995,
      "ĠchangÃ©": 1996,
      "Ġforce": 1997,
      "Ġali": 1998,
      "ĠgÃ©nÃ©r": 1999,
      "Ġmaladie": 2000,
      "Ġsuite": 2001,
      "orter": 2002,
      "Ġpay": 2003,
      "Ġdessus": 2004,
      "Ġis": 2005,
      "Ã©ch": 2006,
      "ĠsystÃ¨mes": 2007,
      "Ġvite": 2008,
      "Ġdesc": 2009,
      "ribu": 2010,
      "Ã©b": 2011,
      "Ġmarch": 2012,
      "ĠarrivÃ©": 2013,
      "Ġinformations": 2014,
      "information": 2015,
      "ow": 2016,
      "cteurs": 2017,
      "Ġindivid": 2018,
      "Ġplein": 2019,
      "ĠcontrÃ´le": 2020,
      "Ġsenti": 2021,
      "Ġlesqu": 2022,
      "Ġcontinu": 2023,
      "Ġgauche": 2024,
      "outer": 2025,
      "amment": 2026,
      "ax": 2027,
      "ach": 2028,
      "Ġquanti": 2029,
      "Ġsalle": 2030,
      "ament": 2031,
      "Ã©an": 2032,
      "chite": 2033,
      "Åĵur": 2034,
      "Ġextra": 2035,
      "Ġhumaine": 2036,
      "ĠgÃ©": 2037,
      "Ġvies": 2038,
      "ĠmÃ©dica": 2039,
      "Ġtable": 2040,
      "Ġren": 2041,
      "Ġ18": 2042,
      "ĠÃ©norme": 2043,
      "tic": 2044,
      "Ġdevient": 2045,
      "Ġmess": 2046,
      "usement": 2047,
      "aimerais": 2048,
      "ome": 2049,
      "Ġtemp": 2050,
      "Ġjeune": 2051,
      "Ġappro": 2052,
      "hi": 2053,
      "ĠparlÃ©": 2054,
      "Ġvenir": 2055,
      "aide": 2056,
      "ĠpÃ©ri": 2057,
      "Ġci": 2058,
      "ĠrÃ©ussi": 2059,
      "Ġdoivent": 2060,
      "Ġment": 2061,
      "Ġnoir": 2062,
      "Ġfeu": 2063,
      "Ġcompos": 2064,
      "Ġtechnologies": 2065,
      "esprit": 2066,
      "Ġbal": 2067,
      "Ġeffic": 2068,
      "ber": 2069,
      "Ġpouvais": 2070,
      "annÃ©es": 2071,
      "Ġay": 2072,
      "erne": 2073,
      "Ġmerveille": 2074,
      "Ġmachine": 2075,
      "oth": 2076,
      "ĠdÃ©cis": 2077,
      "Ġproduits": 2078,
      "Ġphotos": 2079,
      "Ã©le": 2080,
      "atiques": 2081,
      "Ġdispar": 2082,
      "ĠÃ©tudiants": 2083,
      "rant": 2084,
      "la": 2085,
      "Ġchem": 2086,
      "ĠutilisÃ©": 2087,
      "Ġcir": 2088,
      "Ġsurpr": 2089,
      "Ġsolution": 2090,
      "Ġnouveaux": 2091,
      "issement": 2092,
      "ĠrÃ©seau": 2093,
      "ok": 2094,
      "Ġpoiss": 2095,
      "Ġlorsqu": 2096,
      "Ġimm": 2097,
      "Ġeng": 2098,
      "ocra": 2099,
      "Ġsituation": 2100,
      "Ġcroissance": 2101,
      "da": 2102,
      "Ġpsy": 2103,
      "Ġappelle": 2104,
      "Ġcommen": 2105,
      "Ġtransp": 2106,
      "Ġparticulier": 2107,
      "Ġexiste": 2108,
      "Ġendroits": 2109,
      "Ġvoudrais": 2110,
      "Ġcompren": 2111,
      "Ġcapable": 2112,
      "Ġdr": 2113,
      "arri": 2114,
      "yn": 2115,
      "ĠÂ»,": 2116,
      "Ġus": 2117,
      "Ġeffet": 2118,
      "Ġfonctionne": 2119,
      "Ġcentaines": 2120,
      "Ã¨rent": 2121,
      "Ġsuff": 2122,
      "Ġconcent": 2123,
      "cevoir": 2124,
      "Ġsurface": 2125,
      "Ġmemb": 2126,
      "Ġsole": 2127,
      "Ġenvironnement": 2128,
      "annÃ©e": 2129,
      "oudre": 2130,
      "Ġcamp": 2131,
      "mÃªmes": 2132,
      "Ġfra": 2133,
      "bas": 2134,
      "Ġinst": 2135,
      "Ġressour": 2136,
      "aite": 2137,
      "Ġchiff": 2138,
      "acer": 2139,
      "Ġimpli": 2140,
      "ĠâĻª": 2141,
      "Ġ40": 2142,
      "Ġpourtant": 2143,
      "ulti": 2144,
      "Ġlaissez": 2145,
      "Ġpsych": 2146,
      "orat": 2147,
      "Ġprogramme": 2148,
      "afrique": 2149,
      "Ġsoleil": 2150,
      "Ġ12": 2151,
      "Ġconfi": 2152,
      "Ġfondament": 2153,
      "?\"": 2154,
      "Ġentreprises": 2155,
      "ĠmoitiÃ©": 2156,
      "Ġcomportement": 2157,
      "st": 2158,
      "Ġsemaines": 2159,
      "Ġfabri": 2160,
      "ma": 2161,
      "Ġcr": 2162,
      "Ġaj": 2163,
      "Ġwe": 2164,
      "ect": 2165,
      "ĠderriÃ¨re": 2166,
      "Ġait": 2167,
      "Ġkil": 2168,
      "Ã©ducation": 2169,
      "Ġciv": 2170,
      "Ġpartager": 2171,
      "Ġparmi": 2172,
      "let": 2173,
      "aie": 2174,
      "Ġtraitement": 2175,
      "lir": 2176,
      "Ġseconde": 2177,
      "Ġlaisser": 2178,
      "Ġsemaine": 2179,
      "oins": 2180,
      "Ġstructure": 2181,
      "Ġbo": 2182,
      "assi": 2183,
      "Ġbure": 2184,
      "Ġappare": 2185,
      "ĠgÃ©nÃ©": 2186,
      "ĠtroisiÃ¨me": 2187,
      "ĠpossibilitÃ©": 2188,
      "Ġdroite": 2189,
      "Ġten": 2190,
      "ĠrÃ©soudre": 2191,
      "ĠrÃ©sultats": 2192,
      "Ġpan": 2193,
      "role": 2194,
      "Ġparc": 2195,
      "Ġopp": 2196,
      "ĠpÃ©t": 2197,
      "Ġ25": 2198,
      "Ġcarte": 2199,
      "Ġtermes": 2200,
      "expÃ©ri": 2201,
      "Ġchange": 2202,
      "Ġsoient": 2203,
      "Ġmicro": 2204,
      "Ã©tat": 2205,
      "isation": 2206,
      "inÃ©": 2207,
      "Ġessenti": 2208,
      "Ġsortir": 2209,
      "utiliser": 2210,
      "ĠÃ©ner": 2211,
      "Ġvision": 2212,
      "Ġoh": 2213,
      "Ġautant": 2214,
      "Ġpauvre": 2215,
      "bres": 2216,
      "Ġpourraient": 2217,
      "Ġ?\"": 2218,
      "Ġheureux": 2219,
      "reg": 2220,
      "ĠbÃ©n": 2221,
      "Ġappli": 2222,
      "Ġterme": 2223,
      "Ġpropres": 2224,
      "Ġamen": 2225,
      "Ġlivres": 2226,
      "Ġsh": 2227,
      "Ġmol": 2228,
      "atri": 2229,
      "ĠbÃ©b": 2230,
      "atif": 2231,
      "Ġmaladi": 2232,
      "quent": 2233,
      "ĠmÃªmes": 2234,
      "Ġgal": 2235,
      "atÃ©g": 2236,
      "pl": 2237,
      "Ġfilles": 2238,
      "Ġgard": 2239,
      "Ġem": 2240,
      "Ġsang": 2241,
      "tient": 2242,
      "han": 2243,
      "Ġcondi": 2244,
      "Ġpie": 2245,
      "ĠqualitÃ©": 2246,
      "inf": 2247,
      "Ġreven": 2248,
      "ĠprÃ©cis": 2249,
      "Ġmaladies": 2250,
      "iti": 2251,
      "Ġble": 2252,
      "Ġcommer": 2253,
      "Ġraisons": 2254,
      "ug": 2255,
      "alent": 2256,
      "ices": 2257,
      "Ġattein": 2258,
      "ĠcontrÃ´": 2259,
      "Ġcalcul": 2260,
      "ĠÃ©tions": 2261,
      "Ġpourrions": 2262,
      "Ġdurant": 2263,
      "ori": 2264,
      "ĠallÃ©": 2265,
      "Ġmatin": 2266,
      "onomie": 2267,
      "aff": 2268,
      "Ġpatients": 2269,
      "nation": 2270,
      "Ġenfin": 2271,
      "Ġnombreux": 2272,
      "Ġcris": 2273,
      "reux": 2274,
      "ĠconsÃ©qu": 2275,
      "tivement": 2276,
      "Ġconstruit": 2277,
      "Ġfas": 2278,
      "Ġconst": 2279,
      "Ġconsid": 2280,
      "Ġsign": 2281,
      "Ġordinateur": 2282,
      "Ġvari": 2283,
      "Ġcarb": 2284,
      "Ã©poque": 2285,
      "aller": 2286,
      "ĠpiÃ¨ce": 2287,
      "tout": 2288,
      "Ġram": 2289,
      "Ġvoyage": 2290,
      "ĠdÃ©mocra": 2291,
      "Ġsortes": 2292,
      "Ġexist": 2293,
      "ĠmÃ¨tres": 2294,
      "Ġdisait": 2295,
      "Ġfran": 2296,
      "Ġsite": 2297,
      "itaire": 2298,
      "arti": 2299,
      "ĠrÃ©sultat": 2300,
      "Ġmorce": 2301,
      "emp": 2302,
      "ule": 2303,
      "gues": 2304,
      "oph": 2305,
      "up": 2306,
      "Ġprofess": 2307,
      "ailleurs": 2308,
      "uri": 2309,
      "Ġenc": 2310,
      "Ġtradi": 2311,
      "Ġlire": 2312,
      "Ġscientifique": 2313,
      "Ġimpos": 2314,
      "Ġpremiers": 2315,
      "Ġpensons": 2316,
      "ctement": 2317,
      "Ġrent": 2318,
      "Ġemb": 2319,
      "ĠentiÃ¨re": 2320,
      "ĠgÃ©nÃ©ra": 2321,
      "Ġconscience": 2322,
      "Ġvaleur": 2323,
      "Ġpoints": 2324,
      "ute": 2325,
      "Ġtra": 2326,
      "illage": 2327,
      "Ġclasse": 2328,
      "Ġami": 2329,
      "Ġras": 2330,
      "Ġnombreuses": 2331,
      "oritÃ©": 2332,
      "ĠÃ©l": 2333,
      "nements": 2334,
      "Ġsucc": 2335,
      "lait": 2336,
      "xte": 2337,
      "aÃ¯": 2338,
      "iller": 2339,
      "amour": 2340,
      "ĠdiffÃ©rente": 2341,
      "ĠextrÃªme": 2342,
      "ĠlittÃ©": 2343,
      "ciens": 2344,
      "ĠmontrÃ©": 2345,
      "universitÃ©": 2346,
      "tie": 2347,
      "Ġprot": 2348,
      "Ġproduire": 2349,
      "entes": 2350,
      "ĠessayÃ©": 2351,
      "Ġmam": 2352,
      "Ġmati": 2353,
      "Ãªtes": 2354,
      "urer": 2355,
      "Ġconte": 2356,
      "Ġcelles": 2357,
      "ĠdÃ©cl": 2358,
      "Ġpensent": 2359,
      "Ġextraordin": 2360,
      "Ġfou": 2361,
      "ice": 2362,
      "ends": 2363,
      "ret": 2364,
      "urg": 2365,
      "astique": 2366,
      "ortun": 2367,
      "Ġafrique": 2368,
      "uel": 2369,
      "ĠÃ©conomique": 2370,
      "essay": 2371,
      "Ġconfiance": 2372,
      "ĠamÃ©li": 2373,
      "Ġressources": 2374,
      "oie": 2375,
      "Ġquit": 2376,
      "Ġtri": 2377,
      "Ã¨se": 2378,
      "ĠmathÃ©": 2379,
      "Ġassis": 2380,
      "Ġprenez": 2381,
      "ĠthÃ©orie": 2382,
      "Ġsac": 2383,
      "Ġrelig": 2384,
      "Ġrester": 2385,
      "ĠrÃ©el": 2386,
      "Ġconsomm": 2387,
      "phÃ¨re": 2388,
      "Ġdo": 2389,
      "rou": 2390,
      "ĠprÃ©v": 2391,
      "Ġobtenir": 2392,
      "Ġcy": 2393,
      "ancÃ©": 2394,
      "Ġglob": 2395,
      "ĠÃ©mo": 2396,
      "Ġinvent": 2397,
      "Ġraconter": 2398,
      "ĠrÃ©volution": 2399,
      "Ġvit": 2400,
      "oration": 2401,
      "Ġressent": 2402,
      "Ġfourn": 2403,
      "Ġviennent": 2404,
      "Ġ60": 2405,
      "ĠtÃ©lÃ©phone": 2406,
      "ĠjournÃ©e": 2407,
      "Ġouvert": 2408,
      "Ġtaux": 2409,
      "ĠrÃ©alisÃ©": 2410,
      "ĠÃ©quipe": 2411,
      "ĠdÃ©velopper": 2412,
      "itesse": 2413,
      "yth": 2414,
      "ĠcÅĵur": 2415,
      "Ġfaisant": 2416,
      "ĠdÃ©fi": 2417,
      "Ġjeux": 2418,
      "espÃ¨re": 2419,
      "Ġchemin": 2420,
      "Ġsyn": 2421,
      "Ġrelation": 2422,
      "ĠdÃ©ter": 2423,
      "Ġmains": 2424,
      "ĠscÃ¨ne": 2425,
      "ĠnÃ©g": 2426,
      "Ġvitesse": 2427,
      "rope": 2428,
      "ologique": 2429,
      "Ġsouh": 2430,
      "vÃ©e": 2431,
      "Ġmour": 2432,
      "Ġpourriez": 2433,
      "Ġchercher": 2434,
      "Ġfils": 2435,
      "Ġgars": 2436,
      "ĠtravaillÃ©": 2437,
      "Ġfaisait": 2438,
      "Ġabsolu": 2439,
      "onner": 2440,
      "dessus": 2441,
      "urb": 2442,
      "Ġdomaine": 2443,
      "Ġmarcher": 2444,
      "mÃ©e": 2445,
      "ĠdÃ©ch": 2446,
      "Ġgroupes": 2447,
      "iers": 2448,
      "Ġarti": 2449,
      "onte": 2450,
      "Ġsurtout": 2451,
      "ĠmÃ©c": 2452,
      "istre": 2453,
      "ĠÃ©tant": 2454,
      "Ġdevrions": 2455,
      "Ġaliment": 2456,
      "Ġbureau": 2457,
      "cal": 2458,
      "Ġ80": 2459,
      "Ġpotenti": 2460,
      "Ġvoulait": 2461,
      "nie": 2462,
      "ĠdÃ¨s": 2463,
      "cole": 2464,
      "Ġfini": 2465,
      "ĠrÃ©flÃ©chir": 2466,
      "ĠquantitÃ©": 2467,
      "ke": 2468,
      "Ã§on": 2469,
      "ĠrÃ©un": 2470,
      "ĠcoÃ»t": 2471,
      "ĠsuccÃ¨s": 2472,
      "Ġrempl": 2473,
      "Ġchamp": 2474,
      "tit": 2475,
      "eaux": 2476,
      "ĠcollÃ¨": 2477,
      "Ġrisque": 2478,
      "ĠbÃ¢timent": 2479,
      "mat": 2480,
      "Ġbac": 2481,
      "Ġcontinuer": 2482,
      "Ġobjec": 2483,
      "Ġvoitures": 2484,
      "ĠrÃ¨gles": 2485,
      "Ġoutils": 2486,
      "Ġchev": 2487,
      "ctes": 2488,
      "Ġinternation": 2489,
      "miner": 2490,
      "Ã©volution": 2491,
      "Ġdest": 2492,
      "Ġetats": 2493,
      "cter": 2494,
      "Ġcertaine": 2495,
      "Ġriches": 2496,
      "Ġtel": 2497,
      "leurs": 2498,
      "ĠespÃ¨ces": 2499,
      "Ġanal": 2500,
      "Ġpreu": 2501,
      "Ġattention": 2502,
      "rÃªt": 2503,
      "Ġjet": 2504,
      "ĠmodÃ¨les": 2505,
      "Ġtent": 2506,
      "environnement": 2507,
      "cte": 2508,
      "Ġrendu": 2509,
      "teau": 2510,
      "Ãªts": 2511,
      "Ġlaborat": 2512,
      "ĠconfÃ©rence": 2513,
      "Ġbras": 2514,
      "Ġchau": 2515,
      "Ã´p": 2516,
      "titude": 2517,
      "Ġlangage": 2518,
      "ĠÅĵ": 2519,
      "Ġetc": 2520,
      "Ã¢ge": 2521,
      "ĠgÃ©ni": 2522,
      "Ġpapier": 2523,
      "br": 2524,
      "Ġvert": 2525,
      "Ġutilisant": 2526,
      "Ġaura": 2527,
      "Ġtendance": 2528,
      "Ġpropri": 2529,
      "onie": 2530,
      "Ġbons": 2531,
      "ĠconsidÃ©": 2532,
      "Ġmeilleurs": 2533,
      "Ã©lect": 2534,
      "teurs": 2535,
      "Ġtas": 2536,
      "ith": 2537,
      "Ġatta": 2538,
      "Ġbonnes": 2539,
      "Ġperdu": 2540,
      "Ġpor": 2541,
      "organis": 2542,
      "Ġaccep": 2543,
      "ĠgÃ©nÃ©ration": 2544,
      "ĠgÃ©nÃ©ral": 2545,
      "Ġweb": 2546,
      "Ġpoi": 2547,
      "Ġallait": 2548,
      "Ġpauvres": 2549,
      "Ġsept": 2550,
      "Ġzone": 2551,
      "Ġrouge": 2552,
      "Ġdroits": 2553,
      "ormes": 2554,
      "Ġseront": 2555,
      "Ġsavent": 2556,
      "ĠrÃ´le": 2557,
      "Ġneur": 2558,
      "inois": 2559,
      "oyer": 2560,
      "ĠvÃ©ritÃ©": 2561,
      "Ġdemi": 2562,
      "Ġposer": 2563,
      "Ġrecherches": 2564,
      "ĠÃ©poque": 2565,
      "Ġnu": 2566,
      "appel": 2567,
      "ĠÃ©qu": 2568,
      "Ġobjets": 2569,
      "aise": 2570,
      "aute": 2571,
      "cemment": 2572,
      "ĠÃ©volu": 2573,
      "ĠrÃ©gion": 2574,
      "ĠmatiÃ¨re": 2575,
      "ĠmÃ©can": 2576,
      "ĠnÃ©": 2577,
      "Ġprise": 2578,
      "Ġpouvaient": 2579,
      "novation": 2580,
      "dit": 2581,
      "Ġmur": 2582,
      "Ġutilise": 2583,
      "imagin": 2584,
      "Ġordinateurs": 2585,
      "Ġgu": 2586,
      "ĠmÃ©m": 2587,
      "Ġvivent": 2588,
      "expl": 2589,
      "expÃ©rience": 2590,
      "Ġfant": 2591,
      "Ġrue": 2592,
      "ĠrÃ©cemment": 2593,
      "Ġconvain": 2594,
      "Ġpeine": 2595,
      "Ġgoog": 2596,
      "arer": 2597,
      "oÃ¹": 2598,
      "Ġ.": 2599,
      "issant": 2600,
      "ibles": 2601,
      "Ġprojets": 2602,
      "Ġmoyenne": 2603,
      "gÃ©n": 2604,
      "Ã¨tre": 2605,
      "arr": 2606,
      "Ġcompli": 2607,
      "Ġzones": 2608,
      "ĠdÃ©tail": 2609,
      "Ġstr": 2610,
      "ock": 2611,
      "veaux": 2612,
      "agÃ©": 2613,
      "Ġanti": 2614,
      "tons": 2615,
      "Ġformes": 2616,
      "mettre": 2617,
      "Ġappren": 2618,
      "Ġabsolument": 2619,
      "Ġto": 2620,
      "Ġbu": 2621,
      "Ġ11": 2622,
      "ocÃ©an": 2623,
      "ĠrencontrÃ©": 2624,
      "Ġindustri": 2625,
      "Ġlut": 2626,
      "ĠÃ©tat": 2627,
      "Ġsource": 2628,
      "resse": 2629,
      "ulaire": 2630,
      "Ã©conomie": 2631,
      "Ġvoie": 2632,
      "Ġmalheure": 2633,
      "Ġinstitu": 2634,
      "Ġtit": 2635,
      "osition": 2636,
      "Ġpratique": 2637,
      "Ã¨de": 2638,
      "lions": 2639,
      "ographie": 2640,
      "ĠextrÃªmement": 2641,
      "erv": 2642,
      "Ġgra": 2643,
      "Ġchinois": 2644,
      "Ġdites": 2645,
      "ouverte": 2646,
      "Ġliber": 2647,
      "Ġtrucs": 2648,
      "Ġmessage": 2649,
      "ĠdÃ©te": 2650,
      "Ã©taient": 2651,
      "Ġpolitiques": 2652,
      "ctive": 2653,
      "Ġbus": 2654,
      "oute": 2655,
      "ĠÃ©vid": 2656,
      "Ġtypes": 2657,
      "heur": 2658,
      "Ġcop": 2659,
      "ĠdÃ©pens": 2660,
      "import": 2661,
      "orts": 2662,
      "ĠcrÃ©e": 2663,
      "Ġgoogle": 2664,
      "cin": 2665,
      "ĠreprÃ©sente": 2666,
      "Ġloi": 2667,
      "Ġchangements": 2668,
      "impression": 2669,
      "Ġblanc": 2670,
      "ĠsociÃ©tÃ©s": 2671,
      "Ġrappel": 2672,
      "dÃ©": 2673,
      "teur": 2674,
      "dire": 2675,
      "ides": 2676,
      "Ġcapables": 2677,
      "Ġcrise": 2678,
      "ĠtÃ¢": 2679,
      "Ġ199": 2680,
      "euses": 2681,
      "ĠreÃ§u": 2682,
      "istan": 2683,
      "Ã©ti": 2684,
      "Ġhabit": 2685,
      "uy": 2686,
      "Ġpai": 2687,
      "raÃ®": 2688,
      "Ġriv": 2689,
      "ĠdÃ©g": 2690,
      "Ġsymp": 2691,
      "Ġfaite": 2692,
      "Ġkilom": 2693,
      "ote": 2694,
      "Ġsociaux": 2695,
      "Ġinstant": 2696,
      "Ġvisage": 2697,
      "ĠamÃ©ricains": 2698,
      "Ġvirus": 2699,
      "ĠbÃ©nÃ©": 2700,
      "Ġ,": 2701,
      "Ġcuis": 2702,
      "ĠespÃ¨ce": 2703,
      "ĠmÃ©th": 2704,
      "Ġdirige": 2705,
      "Ġsil": 2706,
      "Ġvenu": 2707,
      "Ġdivers": 2708,
      "ast": 2709,
      "Ġassoci": 2710,
      "Ġclimatique": 2711,
      "ĠpÃ©riode": 2712,
      "Ġefficace": 2713,
      "Ã¨tes": 2714,
      "amb": 2715,
      "ĠdÃ©pend": 2716,
      "enne": 2717,
      "Ġchans": 2718,
      "ĠparticuliÃ¨rement": 2719,
      "ligent": 2720,
      "Ġimaginer": 2721,
      "Ġenseign": 2722,
      "Ġparticip": 2723,
      "ĠcrÃ©ati": 2724,
      "ĠdÃ©couvrir": 2725,
      "aissance": 2726,
      "ĠmÃ©dicaments": 2727,
      "Ġcompar": 2728,
      "Ġconse": 2729,
      "Ġrassemb": 2730,
      "anche": 2731,
      "Ġval": 2732,
      "ĠexpÃ©riences": 2733,
      "lin": 2734,
      "anitÃ©": 2735,
      "Ġmauvaise": 2736,
      "ĠpÃ©trole": 2737,
      "con": 2738,
      "quÃ©s": 2739,
      "Ġmanger": 2740,
      "adn": 2741,
      "Ġmani": 2742,
      "ĠsÃ©rie": 2743,
      "allait": 2744,
      "Ġchimi": 2745,
      "Ġcollab": 2746,
      "hen": 2747,
      "pendant": 2748,
      "Ġsuivre": 2749,
      "rement": 2750,
      "oris": 2751,
      "Ġpire": 2752,
      "Ġrelations": 2753,
      "Ġprochaine": 2754,
      "matiques": 2755,
      "Ġutil": 2756,
      "Ġvas": 2757,
      "Ġconception": 2758,
      "vement": 2759,
      "Ġcependant": 2760,
      "Ġinde": 2761,
      "Ġcouleur": 2762,
      "Ġspect": 2763,
      "inde": 2764,
      "Ġutilisent": 2765,
      "idemment": 2766,
      "Ġespace": 2767,
      "ĠrÃ©aliser": 2768,
      "Ġsimil": 2769,
      "Ġcitoy": 2770,
      "issez": 2771,
      "osi": 2772,
      "Ġmoyens": 2773,
      "Ġ201": 2774,
      "Ġmulti": 2775,
      "Ġja": 2776,
      "Ġlead": 2777,
      "osÃ©": 2778,
      "Ġpensais": 2779,
      "Ġlet": 2780,
      "Ġquarti": 2781,
      "Ġpermis": 2782,
      "fici": 2783,
      "ĠbactÃ©ri": 2784,
      "eng": 2785,
      "ĠtÃ©": 2786,
      "Ġenreg": 2787,
      "ralement": 2788,
      "aprÃ¨s": 2789,
      "ĠprÃ©si": 2790,
      "Ġphil": 2791,
      "Ġsavais": 2792,
      "cule": 2793,
      "gÃ¨ne": 2794,
      "ĠdÃ©si": 2795,
      "Ġx": 2796,
      "tir": 2797,
      "Ġbre": 2798,
      "rie": 2799,
      "Ġconvers": 2800,
      "Ġsomme": 2801,
      "Ġplais": 2802,
      "ape": 2803,
      "ĠphÃ©n": 2804,
      "Ġunique": 2805,
      "ack": 2806,
      "Ġsocial": 2807,
      "vre": 2808,
      "Ġparties": 2809,
      "Ġfinan": 2810,
      "Ġcroire": 2811,
      "ĠappelÃ©e": 2812,
      "Ġmillion": 2813,
      "Ġviolence": 2814,
      "Ġsuffis": 2815,
      "Ġgaz": 2816,
      "Ġposi": 2817,
      "Ġinterv": 2818,
      "Ġdoute": 2819,
      "Ġentreprise": 2820,
      "ĠvÃ©rit": 2821,
      "Ġimpossible": 2822,
      "dans": 2823,
      "avÃ¨re": 2824,
      "rale": 2825,
      "ash": 2826,
      "ĠÃ©tude": 2827,
      "zar": 2828,
      "Ġton": 2829,
      "ates": 2830,
      "ĠhÃ©": 2831,
      "Ġbonheur": 2832,
      "Ġtransf": 2833,
      "ĠÃ©tudes": 2834,
      "Ġatte": 2835,
      "Ġroute": 2836,
      "hors": 2837,
      "Ġuniquement": 2838,
      "Ġfro": 2839,
      "tives": 2840,
      "ĠrÃ©uss": 2841,
      "Ġcompas": 2842,
      "ctures": 2843,
      "Ġprofes": 2844,
      "Ġpermettre": 2845,
      "ĠâĢĵ": 2846,
      "Ġtotalement": 2847,
      "Ġvillage": 2848,
      "appr": 2849,
      "Ġtransformer": 2850,
      "ĠÃ©lÃ©ments": 2851,
      "Ġge": 2852,
      "nies": 2853,
      "Ġvolont": 2854,
      "ĠrÃ©pondu": 2855,
      "Ġexpliquer": 2856,
      "ĠlibertÃ©": 2857,
      "ia": 2858,
      "Ġhuit": 2859,
      "amÃ©rique": 2860,
      "Ġ90": 2861,
      "Ġpatient": 2862,
      "Ġfrapp": 2863,
      "quÃ©e": 2864,
      "Ġsom": 2865,
      "Ġmou": 2866,
      "Ġmeur": 2867,
      "Ġgri": 2868,
      "ĠÃ©to": 2869,
      "Ġcode": 2870,
      "Ġcomplexe": 2871,
      "industri": 2872,
      "ĠmolÃ©cu": 2873,
      "Ġliste": 2874,
      "avenir": 2875,
      "Ġnav": 2876,
      "Ġpeup": 2877,
      "Ġdisons": 2878,
      "Ġterri": 2879,
      "ĠcommunautÃ©s": 2880,
      "lam": 2881,
      "Ġproduction": 2882,
      "Ġrevenir": 2883,
      "oss": 2884,
      "mid": 2885,
      "espoir": 2886,
      "ĠÃ©crire": 2887,
      "paravant": 2888,
      "Ġidenti": 2889,
      "Ġlangue": 2890,
      "Ġterrain": 2891,
      "Ġintelligent": 2892,
      "Ġcompassion": 2893,
      "Ġpen": 2894,
      "Ġtelle": 2895,
      "Ġbelle": 2896,
      "Ġproduis": 2897,
      "itude": 2898,
      "ĠrÃ©pondre": 2899,
      "Ġfav": 2900,
      "ĠphÃ©nom": 2901,
      "vitÃ©": 2902,
      "Ġdisant": 2903,
      "Ġconnec": 2904,
      "uelle": 2905,
      "orig": 2906,
      "Ġsup": 2907,
      "olutions": 2908,
      "Ġconfl": 2909,
      "Ġlesquelles": 2910,
      "Ġconditions": 2911,
      "Ġmars": 2912,
      "ĠmÃ©l": 2913,
      "Ġexemp": 2914,
      "ĠregardÃ©": 2915,
      "ĠcamÃ©ra": 2916,
      "Ġdirection": 2917,
      "alisation": 2918,
      "Ġdispon": 2919,
      "Ġerre": 2920,
      "Ġdos": 2921,
      "ĠÃ©tonn": 2922,
      "Ġexam": 2923,
      "Ġvieux": 2924,
      "Ġrobots": 2925,
      "Ġchiffres": 2926,
      "ĠlittÃ©ralement": 2927,
      "Ġsoir": 2928,
      "Ġdix": 2929,
      "Ġvraie": 2930,
      "ordre": 2931,
      "Ġsuivante": 2932,
      "ĠmÃ©dias": 2933,
      "Ġcarbone": 2934,
      "gue": 2935,
      "Ã©lÃ¨": 2936,
      "Ġgraph": 2937,
      "actÃ©": 2938,
      "Ġchoisir": 2939,
      "cles": 2940,
      "ali": 2941,
      "Ġmodi": 2942,
      "Ġlaboratoire": 2943,
      "bl": 2944,
      "rimer": 2945,
      "Ġconnu": 2946,
      "Ġlogici": 2947,
      "Ġdeviennent": 2948,
      "serv": 2949,
      "Ġrepro": 2950,
      "ĠfaÃ§ons": 2951,
      "Ġeffec": 2952,
      "Ġorig": 2953,
      "Ġservice": 2954,
      "Ġatteindre": 2955,
      "bon": 2956,
      "entrepr": 2957,
      "issage": 2958,
      "Ġlongue": 2959,
      "Ġvent": 2960,
      "ĠtÃ´t": 2961,
      "Ġray": 2962,
      "Ġsein": 2963,
      "Ġdimin": 2964,
      "Ġpolice": 2965,
      "ricitÃ©": 2966,
      "Ġconstruction": 2967,
      "ĠpauvretÃ©": 2968,
      "Ġexemples": 2969,
      "bo": 2970,
      "Ġdehors": 2971,
      "Ġuns": 2972,
      "ĠcrÃ©ation": 2973,
      "ĠdÃ©cen": 2974,
      "Ġsociale": 2975,
      "gt": 2976,
      "Ġsout": 2977,
      "duction": 2978,
      "Ġinstru": 2979,
      "Ġglace": 2980,
      "ĠreÃ§": 2981,
      "Ġ16": 2982,
      "Ġdevait": 2983,
      "Ġaim": 2984,
      "Ġbord": 2985,
      "niques": 2986,
      "Ġposition": 2987,
      "ĠsÃ©qu": 2988,
      "Ġ70": 2989,
      "Ġdimen": 2990,
      "Ġlois": 2991,
      "Ġinspi": 2992,
      "Ġsentiment": 2993,
      "cent": 2994,
      "Ġcoin": 2995,
      "ĠcÃ©rÃ©": 2996,
      "Ġjoh": 2997,
      "Ġfacil": 2998,
      "ĠmÃ©decine": 2999,
      "ĠstratÃ©g": 3000,
      "Ġcru": 3001,
      "riv": 3002,
      "Ġservices": 3003,
      "Ġgagner": 3004,
      "tin": 3005,
      "agir": 3006,
      "rap": 3007,
      "mble": 3008,
      "Ġfamilles": 3009,
      "itaires": 3010,
      "uler": 3011,
      "Ġgrav": 3012,
      "Ġesprit": 3013,
      "Ġsurviv": 3014,
      "Ġpaix": 3015,
      "Ġchris": 3016,
      "Ġauparavant": 3017,
      "Ġplantes": 3018,
      "Ġdirectement": 3019,
      "Ġlibre": 3020,
      "Ġadul": 3021,
      "Ġhar": 3022,
      "Ġdessin": 3023,
      "Ġremarqu": 3024,
      "ĠdÃ©mocratie": 3025,
      "mos": 3026,
      "Ġforte": 3027,
      "orÃ©": 3028,
      "ĠgÃ¨nes": 3029,
      "Ġfinir": 3030,
      "Ġsentir": 3031,
      "Ġtraiter": 3032,
      "Ġsus": 3033,
      "Ġtap": 3034,
      "Ġtiss": 3035,
      "ĠforÃªt": 3036,
      "ĠdÃ©veloppÃ©": 3037,
      "ĠÃ©cole": 3038,
      "Ġhy": 3039,
      "Ġperd": 3040,
      "ĠpremiÃ¨res": 3041,
      "Ġbizar": 3042,
      "ĠÃ©videmment": 3043,
      "Ġsolaire": 3044,
      "uclÃ©": 3045,
      "mar": 3046,
      "onti": 3047,
      "oser": 3048,
      "ray": 3049,
      "issons": 3050,
      "rentissage": 3051,
      "inv": 3052,
      "ĠaccÃ¨s": 3053,
      "Ġaccomp": 3054,
      "ry": 3055,
      "Ġvend": 3056,
      "Ġfus": 3057,
      "Ġcat": 3058,
      "Ġcad": 3059,
      "Ġinvest": 3060,
      "bi": 3061,
      "Ã©qui": 3062,
      "Ġpeau": 3063,
      "Ġdipl": 3064,
      "Ġcellule": 3065,
      "Ġextraordinaire": 3066,
      "industrie": 3067,
      "ak": 3068,
      "Ġhaute": 3069,
      "Ġsug": 3070,
      "mbre": 3071,
      "Ġautom": 3072,
      "Ġutilisons": 3073,
      "humanitÃ©": 3074,
      "innovation": 3075,
      "Ġfallait": 3076,
      "rÃ©hen": 3077,
      "Ġsoy": 3078,
      "ĠÃ©coles": 3079,
      "ĠimmÃ©": 3080,
      "ordinateur": 3081,
      "Ġinflu": 3082,
      "Ġincroyablement": 3083,
      "ĠpÃ©n": 3084,
      "avaient": 3085,
      "ĠÃ©cl": 3086,
      "Ġclair": 3087,
      "Ġsouvenir": 3088,
      "Ġsauver": 3089,
      "ĠkilomÃ¨tres": 3090,
      "Ġdange": 3091,
      "ĠingÃ©n": 3092,
      "ĠrÃ©duire": 3093,
      "Ġand": 3094,
      "fiÃ©": 3095,
      "Ġaide": 3096,
      "Ġsoins": 3097,
      "anim": 3098,
      "Ġparten": 3099,
      "Ġsoud": 3100,
      "del": 3101,
      "ĠÃ©lÃ¨": 3102,
      "Ġpartage": 3103,
      "Ġimportantes": 3104,
      "ception": 3105,
      "Ġ500": 3106,
      "Ġsimples": 3107,
      "vision": 3108,
      "Ġprofesseur": 3109,
      "cs": 3110,
      "Ġ14": 3111,
      "Ġstup": 3112,
      "Ġversion": 3113,
      "ĠÃ©chelle": 3114,
      "ĠrÃ©seaux": 3115,
      "Ġmalheureusement": 3116,
      "Ġeffectivement": 3117,
      "Ġclin": 3118,
      "Ġregardons": 3119,
      "internet": 3120,
      "ĠâĢĶ": 3121,
      "ĠnuclÃ©": 3122,
      "Ġforc": 3123,
      "Ġorgan": 3124,
      "Ġprenons": 3125,
      "eusement": 3126,
      "Ġemploy": 3127,
      "Ġmorceau": 3128,
      "Ġtraditionn": 3129,
      "Ġcombin": 3130,
      "Ġmachines": 3131,
      "enfants": 3132,
      "Ġanglais": 3133,
      "Ġsat": 3134,
      "ĠÃ©mer": 3135,
      "Ġcertainement": 3136,
      "Ġprison": 3137,
      "Ġafric": 3138,
      "oxy": 3139,
      "Ġmembres": 3140,
      "Ġjohn": 3141,
      "Ġru": 3142,
      "Ġpourrais": 3143,
      "Ġcham": 3144,
      "Ġhor": 3145,
      "Ġ17": 3146,
      "Ġcong": 3147,
      "Ġimporte": 3148,
      "Ġcommencent": 3149,
      "aujourd": 3150,
      "Ġaspect": 3151,
      "Ġgouvernements": 3152,
      "ĠnumÃ©ro": 3153,
      "Ġmourir": 3154,
      "ption": 3155,
      "ett": 3156,
      "Ġir": 3157,
      "Ġprennent": 3158,
      "ĠprotÃ©ger": 3159,
      "chitecture": 3160,
      "Ġayant": 3161,
      "ĠpÃª": 3162,
      "Ã©rons": 3163,
      "enseig": 3164,
      "Ġtravaillent": 3165,
      "Ġpayer": 3166,
      "chent": 3167,
      "Ġgrat": 3168,
      "Ġentend": 3169,
      "Ġvivons": 3170,
      "Ġacheter": 3171,
      "ĠgÃ©nial": 3172,
      "Ġjap": 3173,
      "Ġpros": 3174,
      "ĠpensÃ©e": 3175,
      "Ã´pital": 3176,
      "50": 3177,
      "Ġta": 3178,
      "resp": 3179,
      "Ġviens": 3180,
      "image": 3181,
      "Ġmanque": 3182,
      "ĠrÃ©sist": 3183,
      "Ġcommuni": 3184,
      "Ġsuivant": 3185,
      "Ġconcept": 3186,
      "Ġopportun": 3187,
      "Ġhonn": 3188,
      "Ġcapit": 3189,
      "Ġfronti": 3190,
      "ĠmatÃ©riaux": 3191,
      "chant": 3192,
      "atures": 3193,
      "ĠmalgrÃ©": 3194,
      "Ġpuissance": 3195,
      "ĠtempÃ©r": 3196,
      "actÃ©ris": 3197,
      "Ġvacc": 3198,
      "ĠcaractÃ©ris": 3199,
      "ĠprogrÃ¨s": 3200,
      "Ġparfait": 3201,
      "Ġcontexte": 3202,
      "Ġlent": 3203,
      "Ġsolutions": 3204,
      "Ġpage": 3205,
      "Ġroy": 3206,
      "ulle": 3207,
      "Ġaime": 3208,
      "ligence": 3209,
      "Ġparlons": 3210,
      "Ġlarge": 3211,
      "Ġsecondes": 3212,
      "Ġapproche": 3213,
      "lons": 3214,
      "user": 3215,
      "ocu": 3216,
      "ĠarriÃ¨re": 3217,
      "Ġjournal": 3218,
      "Ġhabitu": 3219,
      "delÃł": 3220,
      "Ġjapon": 3221,
      "Ġouv": 3222,
      "Ġattend": 3223,
      "indi": 3224,
      "tÃ©es": 3225,
      "rÃ©es": 3226,
      "Ġfaits": 3227,
      "Ġcaf": 3228,
      "aliste": 3229,
      "Ġvivant": 3230,
      "Ġnational": 3231,
      "cations": 3232,
      "dg": 3233,
      "land": 3234,
      "Ġste": 3235,
      "Ġtw": 3236,
      "Ġquelles": 3237,
      "ulation": 3238,
      "ĠnÃ©cessaire": 3239,
      "Ġcommerci": 3240,
      "Ġprofessionn": 3241,
      "ĠvÃ©cu": 3242,
      "Ġgam": 3243,
      "onnÃ©": 3244,
      "Ġencour": 3245,
      "Ġ13": 3246,
      "Ġconcerne": 3247,
      "Ġcourant": 3248,
      "Ã©chelle": 3249,
      "ĠboÃ®": 3250,
      "enant": 3251,
      "Ġproche": 3252,
      "Ġancien": 3253,
      "ĠÃ©tudier": 3254,
      "Ġactuellement": 3255,
      "Ġmasse": 3256,
      "uni": 3257,
      "lem": 3258,
      "ĠfrÃ©": 3259,
      "tenir": 3260,
      "ĠmÃ©dic": 3261,
      "Ġpoisson": 3262,
      "ĠpropriÃ©tÃ©": 3263,
      "Ġ...": 3264,
      "Ġbill": 3265,
      "veill": 3266,
      "Ġgrandi": 3267,
      "Ġmorts": 3268,
      "Ġchir": 3269,
      "Ġha": 3270,
      "ormais": 3271,
      "Ġpriv": 3272,
      "ĠcompÃ©t": 3273,
      "Ġjusti": 3274,
      "Ġstatis": 3275,
      "Ġcorre": 3276,
      "ĠintÃ©ressante": 3277,
      "ĠÃ©trang": 3278,
      "ĠgÃ©nÃ©tique": 3279,
      "Ġgalax": 3280,
      "Ã©lectricitÃ©": 3281,
      "allu": 3282,
      "Ġrequ": 3283,
      "Ġcontinue": 3284,
      "ĠcommenÃ§ons": 3285,
      "Ġmode": 3286,
      "Ġcompagn": 3287,
      "ensemble": 3288,
      "apprentissage": 3289,
      "Ġessayons": 3290,
      "Ġciel": 3291,
      "Ġsin": 3292,
      "indre": 3293,
      "ĠÃ©ti": 3294,
      "ĠintÃ©g": 3295,
      "Ġtourn": 3296,
      "Ġgarder": 3297,
      "mie": 3298,
      "aurais": 3299,
      "Ġchant": 3300,
      "Ġfaible": 3301,
      "ynam": 3302,
      "vi": 3303,
      "Ġmerveilleux": 3304,
      "Ġsan": 3305,
      "Ġvic": 3306,
      "Ġkm": 3307,
      "Ġpanne": 3308,
      "Ġlis": 3309,
      "Ġfaux": 3310,
      "time": 3311,
      "Ġdevoir": 3312,
      "ĠdÃ©sormais": 3313,
      "Ġterror": 3314,
      "ĠbÃ©bÃ©": 3315,
      "ĠcollÃ¨gues": 3316,
      "ane": 3317,
      "Ġoubli": 3318,
      "Ġdocu": 3319,
      "Ġsen": 3320,
      "ĠÃ©mis": 3321,
      "atives": 3322,
      "Ġcorresp": 3323,
      "Ġoccident": 3324,
      "ĠrÃªve": 3325,
      "ĠmÃ©moire": 3326,
      "Ġvendre": 3327,
      "Ġcombat": 3328,
      "Ġda": 3329,
      "Ġpublique": 3330,
      "Ġanimal": 3331,
      "Ġsouris": 3332,
      "Ġmang": 3333,
      "ĠvÃ©": 3334,
      "Ãªtres": 3335,
      "ĠprÃªt": 3336,
      "Ġconvainc": 3337,
      "Ġcorrespond": 3338,
      "ades": 3339,
      "Ġbrill": 3340,
      "Ġsauf": 3341,
      "uels": 3342,
      "Ġconcevoir": 3343,
      "Ġtermin": 3344,
      "Ġportable": 3345,
      "Ġconnaissance": 3346,
      "Ġobserv": 3347,
      "Ġpied": 3348,
      "Ġpotentiel": 3349,
      "ĠchaÃ®": 3350,
      "allais": 3351,
      "Ġchanson": 3352,
      "Ġbles": 3353,
      "ĠdÃ©li": 3354,
      "Ġdiv": 3355,
      "Ġmob": 3356,
      "Ġcourt": 3357,
      "Ġsauv": 3358,
      "ĠprÃ©fÃ©rÃ©": 3359,
      "Ġpoissons": 3360,
      "Ġbais": 3361,
      "Ġcartes": 3362,
      "Ġretrouv": 3363,
      "Ġsouhait": 3364,
      "Ġneurones": 3365,
      "Ġsommet": 3366,
      "gne": 3367,
      "Ġrevenu": 3368,
      "Ġconstruis": 3369,
      "Ġcuri": 3370,
      "itation": 3371,
      "olÃ©": 3372,
      "Ġatti": 3373,
      "exist": 3374,
      "aliser": 3375,
      "ĠresponsabilitÃ©": 3376,
      "Ġfascin": 3377,
      "aison": 3378,
      "ĠcomprÃ©hen": 3379,
      "Ġentrer": 3380,
      "Ġbiologie": 3381,
      "Ġsymb": 3382,
      "ĠnumÃ©rique": 3383,
      "ĠdÃ©cisions": 3384,
      "Ġmous": 3385,
      "Ġquo": 3386,
      "Ġhe": 3387,
      "Ġclassi": 3388,
      "Ġeffets": 3389,
      "Ġmagnif": 3390,
      "Ġtirer": 3391,
      "Ġtomber": 3392,
      "Ġdiscours": 3393,
      "Ġlien": 3394,
      "urÃ©": 3395,
      "Ġois": 3396,
      "Ġpil": 3397,
      "arc": 3398,
      "Ġreti": 3399,
      "erts": 3400,
      "Ġaband": 3401,
      "ĠrÃ©ponses": 3402,
      "Ġenseig": 3403,
      "hic": 3404,
      "antique": 3405,
      "ague": 3406,
      "Ġdevraient": 3407,
      "Ġcommunication": 3408,
      "Ġessentiellement": 3409,
      "Ġpoids": 3410,
      "Ġcitoyens": 3411,
      "ĠrÃ©t": 3412,
      "ĠcarriÃ¨re": 3413,
      "Ã©galitÃ©": 3414,
      "ĠmajoritÃ©": 3415,
      "importance": 3416,
      "odes": 3417,
      "arg": 3418,
      "Ġpousser": 3419,
      "Ġfabriquer": 3420,
      "Ġleaders": 3421,
      "ĠprÃ©sident": 3422,
      "Ġinqui": 3423,
      "Ġpouvions": 3424,
      "appro": 3425,
      "Ġvoulu": 3426,
      "Ġchef": 3427,
      "ĠmÃ©decin": 3428,
      "Ġsexe": 3429,
      "Ġvaleurs": 3430,
      "origine": 3431,
      "gner": 3432,
      "lot": 3433,
      "Ġcos": 3434,
      "ĠcÃ©lÃ¨": 3435,
      "ini": 3436,
      "Ãªtement": 3437,
      "Ġentendre": 3438,
      "ologiques": 3439,
      "Ġtrouvent": 3440,
      "ĠsÃ©par": 3441,
      "Ġtourner": 3442,
      "Ġconnex": 3443,
      "Ġfilms": 3444,
      "mon": 3445,
      "Ġpert": 3446,
      "Ġsm": 3447,
      "Ġtoi": 3448,
      "rig": 3449,
      "riques": 3450,
      "actions": 3451,
      "issait": 3452,
      "Ġ198": 3453,
      "ĠempÃª": 3454,
      "ĠvÃ©hic": 3455,
      "Ġbomb": 3456,
      "Ġprote": 3457,
      "Ġign": 3458,
      "Ġarbres": 3459,
      "Ġposs": 3460,
      "Ġconcern": 3461,
      "ieur": 3462,
      "Ã«": 3463,
      "Ã©di": 3464,
      "Ġtex": 3465,
      "Ġmanif": 3466,
      "Ġvoulaient": 3467,
      "Ġvoler": 3468,
      "ĠdÃ©cision": 3469,
      "lÃ©e": 3470,
      "entitÃ©": 3471,
      "amÃ©li": 3472,
      "Ġclairement": 3473,
      "Ġmondial": 3474,
      "he": 3475,
      "zaines": 3476,
      "Ġtenir": 3477,
      "Ġpal": 3478,
      "este": 3479,
      "roph": 3480,
      "Ġrestau": 3481,
      "Ġprogrammes": 3482,
      "ĠamÃ©ricain": 3483,
      "Ġneuf": 3484,
      "Ġcampagne": 3485,
      "Ġbleu": 3486,
      "Ġspectac": 3487,
      "liquer": 3488,
      "endroit": 3489,
      "ĠÃªtres": 3490,
      "Ã»t": 3491,
      "Ġactiv": 3492,
      "Ġtuer": 3493,
      "ĠamÃ©rique": 3494,
      "Ġatteint": 3495,
      "Ġfacilement": 3496,
      "Ġsugg": 3497,
      "log": 3498,
      "Ġlaiss": 3499,
      "Ġbro": 3500,
      "rot": 3501,
      "ĠlancÃ©": 3502,
      "Ġauxqu": 3503,
      "Ġpuissent": 3504,
      "Ġamus": 3505,
      "ĠentiÃ¨rement": 3506,
      "ĠcontrÃ´ler": 3507,
      "Ġfinanci": 3508,
      "Ġrom": 3509,
      "Ġremp": 3510,
      "ami": 3511,
      "Ġconduit": 3512,
      "Ġlesquels": 3513,
      "Ġrevenus": 3514,
      "ĠcrÃ©ativitÃ©": 3515,
      "Ã¨ge": 3516,
      "Ġillus": 3517,
      "lÃ©ment": 3518,
      "Ġ21": 3519,
      "Ġfaisaient": 3520,
      "ĠpiÃ¨ces": 3521,
      "ĠdÃ©bat": 3522,
      "Ġpermettent": 3523,
      "Ġtort": 3524,
      "ĠÃ©du": 3525,
      "cipe": 3526,
      "Ġrej": 3527,
      "Ġaimer": 3528,
      "alisme": 3529,
      "Ġfonctionner": 3530,
      "ghan": 3531,
      "ĠmÃ¢": 3532,
      "Ġsty": 3533,
      "Ġmoderne": 3534,
      "enez": 3535,
      "Ġcens": 3536,
      "Ġhors": 3537,
      "ĠprÃ©s": 3538,
      "ĠbeautÃ©": 3539,
      "Ġ24": 3540,
      "Ġpose": 3541,
      "Ġpersonnel": 3542,
      "attend": 3543,
      "Ġmicros": 3544,
      "Ġcre": 3545,
      "Ġmise": 3546,
      "anz": 3547,
      "illi": 3548,
      "Ġplate": 3549,
      "cieux": 3550,
      "agent": 3551,
      "Ġimportants": 3552,
      "Ġadap": 3553,
      "Ġdifficiles": 3554,
      "Ġdevenue": 3555,
      "diatement": 3556,
      "fe": 3557,
      "Ġlancer": 3558,
      "ĠÃ©conomie": 3559,
      "tern": 3560,
      "ige": 3561,
      "cope": 3562,
      "Ġformid": 3563,
      "uvre": 3564,
      "Ġseuls": 3565,
      "Ġamb": 3566,
      "rim": 3567,
      "Ġimpact": 3568,
      "ĠprÃ©senter": 3569,
      "Ġurb": 3570,
      "Ġdynam": 3571,
      "lever": 3572,
      "Ġdevais": 3573,
      "ĠmÃ©decins": 3574,
      "Ġressembler": 3575,
      "ĠÃ©trange": 3576,
      "Ġmagnifique": 3577,
      "gement": 3578,
      "ley": 3579,
      "ĠdÃ©mont": 3580,
      "Ġmission": 3581,
      "Ġbateau": 3582,
      "ĠimmÃ©diatement": 3583,
      "amp": 3584,
      "ener": 3585,
      "Ġconstitu": 3586,
      "Ġpost": 3587,
      "environ": 3588,
      "ĠmathÃ©matiques": 3589,
      "ĠsupÃ©ri": 3590,
      "hy": 3591,
      "ustr": 3592,
      "asser": 3593,
      "uter": 3594,
      "ĠdÃ©mar": 3595,
      "Ġfix": 3596,
      "Ġpeuple": 3597,
      "Ġquoti": 3598,
      "itant": 3599,
      "ĠÃ©tab": 3600,
      "Ġperform": 3601,
      "Ġperdre": 3602,
      "Ġsouviens": 3603,
      "Ġdurable": 3604,
      "Ġpleine": 3605,
      "Ġdistribu": 3606,
      "Ġculturel": 3607,
      "empl": 3608,
      "ket": 3609,
      "Ã©ans": 3610,
      "quant": 3611,
      "Ã¨que": 3612,
      "Ġgre": 3613,
      "mique": 3614,
      "Ġmoments": 3615,
      "essayer": 3616,
      "Ġquartier": 3617,
      "Ġara": 3618,
      "ortÃ©": 3619,
      "aissent": 3620,
      "ĠidÃ©": 3621,
      "Ġconsommation": 3622,
      "com": 3623,
      "Ġfen": 3624,
      "Ġpassent": 3625,
      "Ã©sie": 3626,
      "agement": 3627,
      "ĠapprÃ©": 3628,
      "Ġfinal": 3629,
      "Ġmeilleures": 3630,
      "Ġaffaires": 3631,
      "ĠocÃ©ans": 3632,
      "ĠgarÃ§on": 3633,
      "Ġradio": 3634,
      "Ġcompagnie": 3635,
      "Ġhas": 3636,
      "Ġforces": 3637,
      "Ġregardant": 3638,
      "Ġcentr": 3639,
      "Ġphotograph": 3640,
      "ĠarrÃªter": 3641,
      "aider": 3642,
      "Ġryth": 3643,
      "Ġbois": 3644,
      "arrÃª": 3645,
      "ĠprÃªts": 3646,
      "Ġpuisque": 3647,
      "Ġchambre": 3648,
      "Ġcouvert": 3649,
      "Ġmas": 3650,
      "Ġparlent": 3651,
      "Ġverrez": 3652,
      "Ġpuissant": 3653,
      "Ġinstitutions": 3654,
      "Ġah": 3655,
      "Ġnoire": 3656,
      "Ġtre": 3657,
      "ĠdÃ©couverte": 3658,
      "Ġbesoins": 3659,
      "Ġhistor": 3660,
      "Ġvirtu": 3661,
      "Ġlimites": 3662,
      "ĠvÃ©ri": 3663,
      "Ġplac": 3664,
      "Ġplong": 3665,
      "ĠdÃ©couv": 3666,
      "Ġsciences": 3667,
      "ĠbrÃ»": 3668,
      "ĠsÃ©le": 3669,
      "Ġoutil": 3670,
      "Ġsoudain": 3671,
      "Ġos": 3672,
      "Ġrepr": 3673,
      "Ġcardia": 3674,
      "Ġabe": 3675,
      "Ġfonctionn": 3676,
      "atta": 3677,
      "ules": 3678,
      "aume": 3679,
      "ĠdÃ©part": 3680,
      "rastru": 3681,
      "Ġmesurer": 3682,
      "Ġchacune": 3683,
      "Ġchoisi": 3684,
      "Ġcomplexes": 3685,
      "ĠrÃ©cup": 3686,
      "Ġquels": 3687,
      "ĠprÃ©par": 3688,
      "Ġsuivi": 3689,
      "Ġdistance": 3690,
      "ĠbactÃ©ries": 3691,
      "ressi": 3692,
      "ĠrÃ©ser": 3693,
      "Ġcondu": 3694,
      "Ġbio": 3695,
      "Ġformation": 3696,
      "ĠvidÃ©os": 3697,
      "ĠamÃ©liorer": 3698,
      "Ġber": 3699,
      "ards": 3700,
      "emb": 3701,
      "ana": 3702,
      "Ġbos": 3703,
      "umer": 3704,
      "Ġ300": 3705,
      "ĠprocÃ©d": 3706,
      "Ġcalif": 3707,
      "ĠprÃ©cÃ©d": 3708,
      "cl": 3709,
      "osoph": 3710,
      "Ġcontact": 3711,
      "ĠdiffÃ©rences": 3712,
      "extÃ©rieur": 3713,
      "Ġrecons": 3714,
      "Ġlaisse": 3715,
      "Ġrisques": 3716,
      "Ġcroyez": 3717,
      "Ġenvoyer": 3718,
      "ĠbÃ©bÃ©s": 3719,
      "ĠconsÃ©quences": 3720,
      "Ġconversation": 3721,
      "Ġplaisir": 3722,
      "mosphÃ¨re": 3723,
      "Ġjustice": 3724,
      "aj": 3725,
      "Ġsing": 3726,
      "architecture": 3727,
      "Ġparal": 3728,
      "avantage": 3729,
      "ĠÃ©nergie": 3730,
      "Ġpieds": 3731,
      "ĠphÃ©nomÃ¨ne": 3732,
      "ĠtempÃ©rature": 3733,
      "ĠcomprÃ©hension": 3734,
      "xim": 3735,
      "Ġailleurs": 3736,
      "Ġlond": 3737,
      "Ġhu": 3738,
      "Ġsecteur": 3739,
      "Ġcontenu": 3740,
      "Ġcontraire": 3741,
      "Ġmoteur": 3742,
      "agnos": 3743,
      "Ġdescend": 3744,
      "ĠentraÃ®": 3745,
      "Ġeurope": 3746,
      "Ġriche": 3747,
      "Ġmouvements": 3748,
      "estre": 3749,
      "Ġro": 3750,
      "ĠbrÃ©s": 3751,
      "auff": 3752,
      "lier": 3753,
      "Ġdisaient": 3754,
      "Ġtechniques": 3755,
      "ĠÃ©lÃ©ment": 3756,
      "ronique": 3757,
      "Ġemmen": 3758,
      "Ġcalifor": 3759,
      "iend": 3760,
      "Ã©re": 3761,
      "Ġmange": 3762,
      "Ġpours": 3763,
      "ater": 3764,
      "ĠrÃ©action": 3765,
      "adore": 3766,
      "ĠrÃ©comp": 3767,
      "atisf": 3768,
      "Ġconnaissez": 3769,
      "Ġcircul": 3770,
      "ĠboÃ®te": 3771,
      "dis": 3772,
      "ingÃ©n": 3773,
      "Ġprincipe": 3774,
      "ki": 3775,
      "Ġbe": 3776,
      "alie": 3777,
      "ĠrÃ©vÃ©": 3778,
      "intel": 3779,
      "ĠsÃ©rieux": 3780,
      "quÃ©es": 3781,
      "omes": 3782,
      "Ġgol": 3783,
      "activitÃ©": 3784,
      "atifs": 3785,
      "Ġmonter": 3786,
      "Ġfaisais": 3787,
      "Ġadop": 3788,
      "ĠamÃ©ricaine": 3789,
      "off": 3790,
      "Â´": 3791,
      "Ġ'": 3792,
      "Ġpier": 3793,
      "sibles": 3794,
      "Ġhyp": 3795,
      "trait": 3796,
      "occup": 3797,
      "Ġrespect": 3798,
      "ĠmarchÃ©s": 3799,
      "Ġbizarre": 3800,
      "son": 3801,
      "ĠmÃ©r": 3802,
      "Ġpassion": 3803,
      "Ġperspe": 3804,
      "Ġcontribu": 3805,
      "Ġminute": 3806,
      "ĠenvoyÃ©": 3807,
      "Ġappareil": 3808,
      "Ġpreuve": 3809,
      "apprendre": 3810,
      "chÃ©s": 3811,
      "ressÃ©": 3812,
      "Ġdiagnos": 3813,
      "Ġarchite": 3814,
      "exc": 3815,
      "Ġtechnique": 3816,
      "Ġfonds": 3817,
      "ĠprofondÃ©ment": 3818,
      "Ġphilosoph": 3819,
      "Ġdimensions": 3820,
      "ĠdiplÃ´": 3821,
      "ĠÃ©lÃ¨ves": 3822,
      "hous": 3823,
      "Ġsch": 3824,
      "era": 3825,
      "eug": 3826,
      "oty": 3827,
      "Ġsavait": 3828,
      "ĠrÃ©pand": 3829,
      "Ġsoutien": 3830,
      "Ġpassionn": 3831,
      "Ġplastique": 3832,
      "Ã©rences": 3833,
      "ĠconÃ§u": 3834,
      "Ġargent": 3835,
      "Ã§ant": 3836,
      "Ġspati": 3837,
      "Ġcouleurs": 3838,
      "Ġparticules": 3839,
      "enfant": 3840,
      "Ã©tudi": 3841,
      "ĠÃ¢ge": 3842,
      "Ġhasard": 3843,
      "Ġred": 3844,
      "Ġinnov": 3845,
      "occu": 3846,
      "Ġpression": 3847,
      "Ġpassait": 3848,
      "Ġnaissance": 3849,
      "Ġarrivent": 3850,
      "Ã©rap": 3851,
      "Ġrencontrer": 3852,
      "ĠremarquÃ©": 3853,
      "ĠbÃ¢timents": 3854,
      "Ġcivil": 3855,
      "Ġsignal": 3856,
      "Ġanalys": 3857,
      "Ġroyaume": 3858,
      "Ã«l": 3859,
      "Ġquotid": 3860,
      "Ġmaisons": 3861,
      "Ġappelons": 3862,
      "ĠmusÃ©e": 3863,
      "Ġsold": 3864,
      "Ġservir": 3865,
      "Ġnaturelle": 3866,
      "ĠÃ©toiles": 3867,
      "tation": 3868,
      "ĠÃ©tape": 3869,
      "aph": 3870,
      "Ġseraient": 3871,
      "ombres": 3872,
      "Ġrappelle": 3873,
      "ĠÃ©levÃ©": 3874,
      "Ã©pend": 3875,
      "Ġlogiciel": 3876,
      "Ġmanifest": 3877,
      "Ġmit": 3878,
      "eue": 3879,
      "appar": 3880,
      "Ġcomprend": 3881,
      "Ġbouger": 3882,
      "Ġflot": 3883,
      "ĠtÃ¢che": 3884,
      "book": 3885,
      "ghanistan": 3886,
      "ave": 3887,
      "Ġpat": 3888,
      "Ġrues": 3889,
      "rice": 3890,
      "Ġcoeur": 3891,
      "Ġferme": 3892,
      "ycl": 3893,
      "habitude": 3894,
      "prÃ©": 3895,
      "Ġpont": 3896,
      "oure": 3897,
      "resser": 3898,
      "Ġderniers": 3899,
      "ĠdÃ©fis": 3900,
      "Ġlignes": 3901,
      "Ġindividu": 3902,
      "ĠmÃ©dicament": 3903,
      "ias": 3904,
      "ya": 3905,
      "Ġcu": 3906,
      "Ġap": 3907,
      "ĠmaÃ®": 3908,
      "Ġremarque": 3909,
      "ĠvÃ©ritable": 3910,
      "lt": 3911,
      "Ġfol": 3912,
      "Ġcapt": 3913,
      "Ġconfront": 3914,
      "ĠprÃ©sentation": 3915,
      "ĠzÃ©ro": 3916,
      "Ġpeint": 3917,
      "Ġlogique": 3918,
      "ĠpossibilitÃ©s": 3919,
      "ĠinventÃ©": 3920,
      "gor": 3921,
      "Ġsatisf": 3922,
      "Ġjard": 3923,
      "arras": 3924,
      "ĠgÃ©rer": 3925,
      "Ġpark": 3926,
      "Ã©cran": 3927,
      "Ġreligion": 3928,
      "ĠbrÃ©sil": 3929,
      "inos": 3930,
      "antill": 3931,
      "Ġmotiv": 3932,
      "ĠÃ©lev": 3933,
      "Ġprochaines": 3934,
      "ĠgagnÃ©": 3935,
      "Ġconcentrer": 3936,
      "conque": 3937,
      "Ġdedans": 3938,
      "urent": 3939,
      "truire": 3940,
      "Ġconserv": 3941,
      "Ġvide": 3942,
      "Ġmontrent": 3943,
      "attention": 3944,
      "ĠcÃ´te": 3945,
      "Ġsujets": 3946,
      "Ġtableau": 3947,
      "arrive": 3948,
      "ĠdÃ©tails": 3949,
      "Ġcuisine": 3950,
      "ĠdiversitÃ©": 3951,
      "Ġmultip": 3952,
      "ha": 3953,
      "Ġmut": 3954,
      "Ġrare": 3955,
      "chauff": 3956,
      "Ġdizaines": 3957,
      "Ġanc": 3958,
      "ĠconÃ§": 3959,
      "Ġlieux": 3960,
      "Ġdouleur": 3961,
      "ĠÃ©lectrique": 3962,
      "Ġstructures": 3963,
      "Ġindividus": 3964,
      "ĠdÃ©clar": 3965,
      "ĠnuclÃ©aire": 3966,
      "Ġprotection": 3967,
      "ood": 3968,
      "rain": 3969,
      "ĠclÃ©": 3970,
      "isÃ©": 3971,
      "Ġball": 3972,
      "Ġchap": 3973,
      "ciper": 3974,
      "Ġ2000": 3975,
      "Ġdonnent": 3976,
      "objet": 3977,
      "ĠlaissÃ©": 3978,
      "Ġdemandez": 3979,
      "Ġcollec": 3980,
      "Ġdestin": 3981,
      "ĠcompÃ©tences": 3982,
      "Ġlondres": 3983,
      "Ġtrib": 3984,
      "times": 3985,
      "ĠÃ©cou": 3986,
      "ĠposÃ©": 3987,
      "Ġcritique": 3988,
      "Ġdiscussi": 3989,
      "Ġradic": 3990,
      "Ġcalifornie": 3991,
      "ama": 3992,
      "Ġblog": 3993,
      "Ġdifficul": 3994,
      "ĠÃ©tudiÃ©": 3995,
      "Ġobserver": 3996,
      "Ġfantastique": 3997,
      "lic": 3998,
      "Ġcerveaux": 3999,
      "Ġmath": 4000,
      "Ġporter": 4001,
      "Ġorganisation": 4002,
      "Ġfabric": 4003,
      "ĠcomplexitÃ©": 4004,
      "Ã©tude": 4005,
      "ĠÃ¢g": 4006,
      "Ã©quipe": 4007,
      "hu": 4008,
      "Ġdav": 4009,
      "Ġstim": 4010,
      "Ġrecomm": 4011,
      "jour": 4012,
      "esse": 4013,
      "Ġlyc": 4014,
      "europe": 4015,
      "Ġgarde": 4016,
      "Ġparv": 4017,
      "Ġvih": 4018,
      "ĠcolÃ¨re": 4019,
      "Ġjoue": 4020,
      "Ġrencontre": 4021,
      "Ġfacebook": 4022,
      "Ġconnaissons": 4023,
      "ĠdÃ©placer": 4024,
      "ĠcafÃ©": 4025,
      "ĠchaÃ®ne": 4026,
      "Ġdar": 4027,
      "ende": 4028,
      "chÃ©e": 4029,
      "ington": 4030,
      "ĠrÃ©gi": 4031,
      "Ġtests": 4032,
      "ĠmatÃ©riel": 4033,
      "Ġchercheurs": 4034,
      "ĠdÃ©finition": 4035,
      "ĠmolÃ©cules": 4036,
      "ĠcÃ©lÃ¨bre": 4037,
      "ieux": 4038,
      "Ġlune": 4039,
      "Ġmig": 4040,
      "illÃ©": 4041,
      "Ã©ric": 4042,
      "Ġhumaines": 4043,
      "ĠconnaÃ®tre": 4044,
      "Ġcourse": 4045,
      "Ġfonctionnent": 4046,
      "Ġartifici": 4047,
      "ĠmÃ©thode": 4048,
      "aci": 4049,
      "non": 4050,
      "ano": 4051,
      "Ġiniti": 4052,
      "ĠcompÃ©ti": 4053,
      "ulÃ©": 4054,
      "Ġtravaillons": 4055,
      "imm": 4056,
      "Ġstress": 4057,
      "ĠplanÃ¨tes": 4058,
      "Ġmagas": 4059,
      "Ġutile": 4060,
      "alog": 4061,
      "Ġsep": 4062,
      "ick": 4063,
      "Ġchauss": 4064,
      "Ġfrag": 4065,
      "Ġpermettez": 4066,
      "Ġformer": 4067,
      "ĠrÃªves": 4068,
      "Ġtransport": 4069,
      "entreprise": 4070,
      "arrÃªter": 4071,
      "housias": 4072,
      "Ġpensait": 4073,
      "Ġabord": 4074,
      "Ġ197": 4075,
      "Ġdevenus": 4076,
      "Ġchien": 4077,
      "Ġentour": 4078,
      "Ġarmes": 4079,
      "Ġenvers": 4080,
      "ĠgÃ©nome": 4081,
      "ultures": 4082,
      "ĠÃ©vÃ©": 4083,
      "ĠtÃ©lÃ©vision": 4084,
      "Ġtiers": 4085,
      "ĠÃ©chou": 4086,
      "Ġarticle": 4087,
      "Ġchimiques": 4088,
      ",\"": 4089,
      "esti": 4090,
      "adap": 4091,
      "Ġstock": 4092,
      "Ġaccord": 4093,
      "Ġverre": 4094,
      "ĠrÃ©gions": 4095,
      "ĠspÃ©cial": 4096,
      "ĠÃ©motions": 4097,
      "ĠdÃ©chets": 4098,
      "Ġpreuves": 4099,
      "Ġfroid": 4100,
      "Ġcommuniquer": 4101,
      "onf": 4102,
      "Ġdiap": 4103,
      "Ġquasi": 4104,
      "informations": 4105,
      "ĠgarÃ§ons": 4106,
      "ĠÃ©vident": 4107,
      "Ġavis": 4108,
      "Ġbibli": 4109,
      "Ġtitre": 4110,
      "Ġrythme": 4111,
      "Ġcog": 4112,
      "Ġauquel": 4113,
      "Ġinse": 4114,
      "ĠrÃ©chauff": 4115,
      "Ġimpres": 4116,
      "ĠallÃ©s": 4117,
      "ropÃ©": 4118,
      "Ġvenait": 4119,
      "Ġamener": 4120,
      "ĠÃ©motionn": 4121,
      "Ġgraphique": 4122,
      "cons": 4123,
      "uits": 4124,
      "Ġcul": 4125,
      "Ġpare": 4126,
      "aill": 4127,
      "ots": 4128,
      "ĠdÃ©termin": 4129,
      "intelligence": 4130,
      "mÃ¨re": 4131,
      "yse": 4132,
      "orient": 4133,
      "usse": 4134,
      "Ġhi": 4135,
      "utilise": 4136,
      "Ġvoient": 4137,
      "Ġoblig": 4138,
      "Ġcapital": 4139,
      "Ġtranspar": 4140,
      "Ġmich": 4141,
      "Ġprim": 4142,
      "Ġenregist": 4143,
      "Ġadultes": 4144,
      "gorith": 4145,
      "pour": 4146,
      "Ġcultures": 4147,
      "quis": 4148,
      "Ġmons": 4149,
      "Ġmenti": 4150,
      "ores": 4151,
      "usion": 4152,
      "Ġdivis": 4153,
      "Ġouais": 4154,
      "ologues": 4155,
      "Ġbruit": 4156,
      "Ġscol": 4157,
      "ĠexpÃ©riment": 4158,
      "ilibre": 4159,
      "Ġbanque": 4160,
      "Ġdeb": 4161,
      "inte": 4162,
      "Ġlev": 4163,
      "acitÃ©s": 4164,
      "casion": 4165,
      "Ġnoirs": 4166,
      "atrice": 4167,
      "imaginer": 4168,
      "Ġorigin": 4169,
      "Ġsoyez": 4170,
      "hÃ´pital": 4171,
      "Ġvaut": 4172,
      "Ġbatt": 4173,
      "Ġgui": 4174,
      "rier": 4175,
      "ĠÃ©viter": 4176,
      "Ġauraient": 4177,
      "riculture": 4178,
      "Ġrich": 4179,
      "Ġdessous": 4180,
      "Ġmauvaises": 4181,
      "ĠdÃ©place": 4182,
      "effet": 4183,
      "Ġfournir": 4184,
      "ĠdÃ©cennies": 4185,
      "ĠsÃ©lection": 4186,
      "quet": 4187,
      "Ġtoucher": 4188,
      "verse": 4189,
      "Ġcoop": 4190,
      "Ġfamili": 4191,
      "Ġorganisations": 4192,
      "Ã©min": 4193,
      "ani": 4194,
      "Ġchoc": 4195,
      "Ġinves": 4196,
      "outes": 4197,
      "Ġira": 4198,
      "Ġarr": 4199,
      "ĠÃ©couter": 4200,
      "Ġinfec": 4201,
      "olesc": 4202,
      "tiennent": 4203,
      "Ġmembre": 4204,
      "Ġformidable": 4205,
      "nÃ©e": 4206,
      "atoire": 4207,
      "agnes": 4208,
      "Ġproches": 4209,
      "enses": 4210,
      "amÃ©ric": 4211,
      "Ġmex": 4212,
      "chement": 4213,
      "Ġcontra": 4214,
      "Ġair": 4215,
      "Ġactions": 4216,
      "ĠcapacitÃ©s": 4217,
      "impact": 4218,
      "ĠÃ©quip": 4219,
      "Ġsites": 4220,
      "Ġfaud": 4221,
      "Ġben": 4222,
      "Ġhom": 4223,
      "Ġjambes": 4224,
      "ĠÃ©loi": 4225,
      "Ġsatell": 4226,
      "Ġnations": 4227,
      "itent": 4228,
      "Ġdirect": 4229,
      "utilisation": 4230,
      "Ġbient": 4231,
      "Ġsignific": 4232,
      "Ġprogramm": 4233,
      "Ġretourner": 4234,
      "Ġprochain": 4235,
      "Ġstatistiques": 4236,
      "Ġdocument": 4237,
      "--": 4238,
      "rom": 4239,
      "Ġdanger": 4240,
      "Ġsain": 4241,
      "ĠschÃ©": 4242,
      "lÃ©g": 4243,
      "Ġautrement": 4244,
      "Ġwi": 4245,
      "Ġscul": 4246,
      "Ġremont": 4247,
      "Ġvenez": 4248,
      "Ġhorri": 4249,
      "ĠbientÃ´t": 4250,
      "%.": 4251,
      "naire": 4252,
      "Ġaper": 4253,
      "Ġbris": 4254,
      "rase": 4255,
      "Ġapporter": 4256,
      "Ġconduire": 4257,
      "ĠÃ©criv": 4258,
      "Ġken": 4259,
      "Ġclients": 4260,
      "Ġbudg": 4261,
      "ĠÃ©tiez": 4262,
      "nel": 4263,
      "cie": 4264,
      "Ġavanc": 4265,
      "Ã©ter": 4266,
      "Ġstand": 4267,
      "Ġmettez": 4268,
      "Ġparfaitement": 4269,
      "Ġthe": 4270,
      "Ġorganismes": 4271,
      "ativement": 4272,
      "Ġaugmente": 4273,
      "Ġobjectif": 4274,
      "ĠÃ©voluÃ©": 4275,
      "Ġsuffisamment": 4276,
      "Ġdangereux": 4277,
      "Ġconcernant": 4278,
      "ase": 4279,
      "aim": 4280,
      "Ġvul": 4281,
      "Ġfallu": 4282,
      "Ġaveug": 4283,
      "entions": 4284,
      "Ġperman": 4285,
      "Ġsecret": 4286,
      "asses": 4287,
      "Ġenseignants": 4288,
      "Ġrejoin": 4289,
      "Ã©remment": 4290,
      "elez": 4291,
      "mÃ©t": 4292,
      "Ġve": 4293,
      "Ġtonnes": 4294,
      "atÃ©": 4295,
      "Ġvisu": 4296,
      "Ġfranc": 4297,
      "Ġniveaux": 4298,
      "ĠmÃ©taph": 4299,
      "ĠrÃ©col": 4300,
      "Ġconnaissent": 4301,
      "Ġproduisent": 4302,
      "Ġcadre": 4303,
      "Ġvictimes": 4304,
      "lation": 4305,
      "tait": 4306,
      "ony": 4307,
      "Ġinvis": 4308,
      "Ġallem": 4309,
      "Ġdevriez": 4310,
      "Ġmarque": 4311,
      "Ġautor": 4312,
      "Ġenvie": 4313,
      "Ġstade": 4314,
      "ĠprÃ©sente": 4315,
      "Ġclimat": 4316,
      "ĠsupplÃ©ment": 4317,
      "ĠtÃ©lÃ©phones": 4318,
      "Ġmariage": 4319,
      "Ġtrouvez": 4320,
      "Ġmorceaux": 4321,
      "organisation": 4322,
      "Ġrappeler": 4323,
      "ĠdÃ©sir": 4324,
      "Ġclassique": 4325,
      "Ġjol": 4326,
      "ares": 4327,
      "Ġavion": 4328,
      "ements": 4329,
      "Ġcourbe": 4330,
      "Ġtyp": 4331,
      "Ġapprend": 4332,
      "issements": 4333,
      "Ġparcour": 4334,
      "Ġtwit": 4335,
      "Ġbless": 4336,
      "Ġoiseaux": 4337,
      "Ã§a": 4338,
      "ĠvÃ©l": 4339,
      "Ġtox": 4340,
      "ĠdÃ©rou": 4341,
      "chec": 4342,
      "ĠdiffÃ©remment": 4343,
      "ĠeuropÃ©": 4344,
      "Ġespaces": 4345,
      "Ġ196": 4346,
      "ĠdÃ©cider": 4347,
      "ĠrÃ¨gle": 4348,
      "Ġartis": 4349,
      "ĠcompliquÃ©": 4350,
      "Ġlettres": 4351,
      "Ġamp": 4352,
      "Ġpourcent": 4353,
      "ruption": 4354,
      "Ġdon": 4355,
      "Ġbale": 4356,
      "ulaires": 4357,
      "Ã§ais": 4358,
      "Ġincroyables": 4359,
      "Ġdomin": 4360,
      "ĠcoÃ»te": 4361,
      "Ġprincipes": 4362,
      "ĠriviÃ¨re": 4363,
      "Ġchirurg": 4364,
      "Ġpoursui": 4365,
      "ball": 4366,
      "aign": 4367,
      "Ġnig": 4368,
      "osyst": 4369,
      "ĠrÃ©si": 4370,
      "Ġdirais": 4371,
      "Ġrappro": 4372,
      "ĠÃ©tudiant": 4373,
      "Ġressemblent": 4374,
      "Ġinstall": 4375,
      "Ġsimilaire": 4376,
      "ectu": 4377,
      "ĠcatÃ©g": 4378,
      "Ġmille": 4379,
      "ĠfÃ©min": 4380,
      "Ġrenv": 4381,
      "tembre": 4382,
      "Ġvoulions": 4383,
      "Ġsociales": 4384,
      "Ġ400": 4385,
      "Ġboulot": 4386,
      "ĠÃ©chantill": 4387,
      "Ġdomaines": 4388,
      "Ġflux": 4389,
      "ĠmaniÃ¨res": 4390,
      "Ġremarquable": 4391,
      "avec": 4392,
      "Ġmens": 4393,
      "arm": 4394,
      "atmosphÃ¨re": 4395,
      "ĠcrÃ©atures": 4396,
      "ĠdÃ©crire": 4397,
      "Ġmontagne": 4398,
      "Ġpollu": 4399,
      "Ġprincipalement": 4400,
      "Ġrentrer": 4401,
      "Ġalimentaire": 4402,
      "laient": 4403,
      "Ġdavantage": 4404,
      "Ġlance": 4405,
      "onge": 4406,
      "Ġmassi": 4407,
      "Ġpages": 4408,
      "Ġaiment": 4409,
      "Ġfinance": 4410,
      "Ġmusul": 4411,
      "Ġpassant": 4412,
      "Ġobtenu": 4413,
      "Ġparlait": 4414,
      "ĠreconnaÃ®tre": 4415,
      "Ġactuelle": 4416,
      "Ġobjectifs": 4417,
      "ck": 4418,
      "armÃ©e": 4419,
      "Ġaltern": 4420,
      "Ġperte": 4421,
      "ĠforÃªts": 4422,
      "Ġattendre": 4423,
      "Ġgrosse": 4424,
      "Ġinformatique": 4425,
      "Ġheureusement": 4426,
      "Ġabeilles": 4427,
      "fois": 4428,
      "Ġvrais": 4429,
      "Ġchale": 4430,
      "iew": 4431,
      "lÃ¨ve": 4432,
      "ĠrÃ©flex": 4433,
      "Ġmagaz": 4434,
      "Ġoccup": 4435,
      "Ġcommerce": 4436,
      "Ġdavid": 4437,
      "dro": 4438,
      "zz": 4439,
      "ĠpÃ¢": 4440,
      "chons": 4441,
      "Ġdirait": 4442,
      "iennes": 4443,
      "Ġdevrais": 4444,
      "Ġnotion": 4445,
      "Ġcool": 4446,
      "Ġinconn": 4447,
      "Ġconclus": 4448,
      "Ġobtenez": 4449,
      "Ġnationale": 4450,
      "Ġnormal": 4451,
      "Ġquitter": 4452,
      "ĠconsidÃ©rer": 4453,
      "ĠstratÃ©gie": 4454,
      "nÃ©ra": 4455,
      "Ġmurs": 4456,
      "Ġfasse": 4457,
      "Ġpla": 4458,
      "avions": 4459,
      "ppe": 4460,
      "ĠfrÃ¨re": 4461,
      "Ġprofonde": 4462,
      "Ġboute": 4463,
      "Ġtourne": 4464,
      "Ġvenue": 4465,
      "Ġentrepren": 4466,
      "Ġlutte": 4467,
      "oxygÃ¨ne": 4468,
      "her": 4469,
      "otique": 4470,
      "Ġbrit": 4471,
      "ĠrÃ©elle": 4472,
      "Ġliens": 4473,
      "Ġwash": 4474,
      "Ġsouvenez": 4475,
      "Ġconnaissances": 4476,
      "Ġresponsable": 4477,
      "ĠgÃ©nÃ©ralement": 4478,
      "Ġnavig": 4479,
      "Ġconvaincre": 4480,
      "Ġjardin": 4481,
      "inosau": 4482,
      "Ġmaths": 4483,
      "Ġbiblioth": 4484,
      "Ġtwitter": 4485,
      "ĠcatÃ©gor": 4486,
      "cer": 4487,
      "ford": 4488,
      "Ġfre": 4489,
      "Ġfig": 4490,
      "chez": 4491,
      "ĠplaÃ®t": 4492,
      "Ġcart": 4493,
      "Ġauto": 4494,
      "accÃ¨s": 4495,
      "Ġpresse": 4496,
      "tration": 4497,
      "Ġtester": 4498,
      "Ġretrouver": 4499,
      "Ġintellig": 4500,
      "Ġartistes": 4501,
      "Ġprofesseurs": 4502,
      "Ġconflit": 4503,
      "Ġsurvivre": 4504,
      "ĠpossÃ¨de": 4505,
      "Ġimpressionn": 4506,
      "Ġaient": 4507,
      "Ġpain": 4508,
      "oud": 4509,
      "Ġquant": 4510,
      "orent": 4511,
      "usÃ©": 4512,
      "anda": 4513,
      "diction": 4514,
      "Ġmoindre": 4515,
      "Ġbiologique": 4516,
      "ĠpubliÃ©": 4517,
      "Ġintelle": 4518,
      "Ġsemblent": 4519,
      "Ġcharge": 4520,
      "ĠÃ©missions": 4521,
      "Ġperspective": 4522,
      "Ġdebout": 4523,
      "ĠvulnÃ©ra": 4524,
      "ft": 4525,
      "ze": 4526,
      "ĠÃ®": 4527,
      "auc": 4528,
      "Ġremer": 4529,
      "Ġhand": 4530,
      "Ġcontient": 4531,
      "Ġparticiper": 4532,
      "appli": 4533,
      "Ġmettent": 4534,
      "Ġcouche": 4535,
      "Ġtombe": 4536,
      "Ġcomportements": 4537,
      "Ġsurprise": 4538,
      "ĠprÃ©cisÃ©ment": 4539,
      "Ġrichesse": 4540,
      "Ġbrev": 4541,
      "Ġmeurent": 4542,
      "ĠlycÃ©e": 4543,
      "Ġseptembre": 4544,
      "Ġwashington": 4545,
      "lÃ©s": 4546,
      "oureux": 4547,
      "ĠmÃ¨res": 4548,
      "arch": 4549,
      "Ġdanse": 4550,
      "alu": 4551,
      "Ġsida": 4552,
      "ada": 4553,
      "Ġvouloir": 4554,
      "Ġrespi": 4555,
      "Ġsortie": 4556,
      "dam": 4557,
      "ouest": 4558,
      "Ġtes": 4559,
      "augment": 4560,
      "Ġparad": 4561,
      "Ġconsiste": 4562,
      "ĠÃ©cr": 4563,
      "alisÃ©": 4564,
      "Ġstat": 4565,
      "Ġeffray": 4566,
      "Ġvisite": 4567,
      "mission": 4568,
      "Ġaffec": 4569,
      "Ġdisposi": 4570,
      "Ġneuro": 4571,
      "Ġbatter": 4572,
      "Ġcycle": 4573,
      "Ġressentir": 4574,
      "Ġinternationale": 4575,
      "cri": 4576,
      "ĠlÃ¨": 4577,
      "Ġsoin": 4578,
      "Ġtels": 4579,
      "aurait": 4580,
      "Ġchim": 4581,
      "iction": 4582,
      "Ġaccident": 4583,
      "opportun": 4584,
      "Ġessayez": 4585,
      "ĠarrivÃ©s": 4586,
      "Ġconseil": 4587,
      "ĠcaractÃ©ristiques": 4588,
      "oui": 4589,
      "Ġsombre": 4590,
      "orge": 4591,
      "Ã¢tre": 4592,
      "Ġblanche": 4593,
      "Ġcrimin": 4594,
      "ĠarrÃªtÃ©": 4595,
      "Ġappareils": 4596,
      "ĠdÃ©terminer": 4597,
      "Ġerreur": 4598,
      "Ġtelles": 4599,
      "agriculture": 4600,
      "ications": 4601,
      "Ġallaient": 4602,
      "Ġmagie": 4603,
      "Ġmaman": 4604,
      "astroph": 4605,
      "Ġdinosau": 4606,
      "inqui": 4607,
      "Ġfoss": 4608,
      "Ġchaud": 4609,
      "Ġphrase": 4610,
      "Ġzo": 4611,
      "Ġnourrir": 4612,
      "Ġaugmenter": 4613,
      "athie": 4614,
      "ĠemployÃ©s": 4615,
      "Ġaspects": 4616,
      "ĠfrÃ©qu": 4617,
      "lise": 4618,
      "win": 4619,
      "Ġnerv": 4620,
      "Ġtum": 4621,
      "Ġbri": 4622,
      "urant": 4623,
      "Ġchimp": 4624,
      "Ġrecevoir": 4625,
      "erson": 4626,
      "irent": 4627,
      "icap": 4628,
      "Ġdonnez": 4629,
      "Ġorient": 4630,
      "Ġrire": 4631,
      "Ġagir": 4632,
      "Ġpassage": 4633,
      "ĠreprÃ©sentent": 4634,
      "Ġpopulaire": 4635,
      "teindre": 4636,
      "Ġprincipal": 4637,
      "Ġbattre": 4638,
      "Ġlettre": 4639,
      "Ġerreurs": 4640,
      "Ġintellectu": 4641,
      "Ġchimpanz": 4642,
      "sc": 4643,
      "ĠleÃ§on": 4644,
      "Ġenn": 4645,
      "Ġchat": 4646,
      "Ġenthousias": 4647,
      "encer": 4648,
      "inst": 4649,
      "ĠintÃ©ri": 4650,
      "Ġsuffit": 4651,
      "Ġsommeil": 4652,
      "nÃ©s": 4653,
      "ume": 4654,
      "ĠcÃ¢": 4655,
      "Ġsoup": 4656,
      "Ġvin": 4657,
      "Ġlever": 4658,
      "ivalent": 4659,
      "Ġvaisse": 4660,
      "ĠdÃ©pression": 4661,
      "Ġbouche": 4662,
      "Ġtraverser": 4663,
      "Ġvenus": 4664,
      "Ġinformation": 4665,
      "Ġmonte": 4666,
      "Ġalgorith": 4667,
      "ĠprÃ©p": 4668,
      "Ġcaract": 4669,
      "Ġminus": 4670,
      "Ã¯s": 4671,
      "Ġ150": 4672,
      "Ġtransformation": 4673,
      "Ġexplorer": 4674,
      "Ġoffici": 4675,
      "Ġtoil": 4676,
      "Ġtissu": 4677,
      "Ġcatastroph": 4678,
      "Ġdynamique": 4679,
      "ĠcÃ©lÃ©": 4680,
      "Ġeau": 4681,
      "Ã©rant": 4682,
      "ormÃ©ment": 4683,
      "fiant": 4684,
      "Ġpartis": 4685,
      "Ġfrais": 4686,
      "Ġpuissante": 4687,
      "Ġdoig": 4688,
      "Ġmenace": 4689,
      "Ġcomprennent": 4690,
      "ĠamenÃ©": 4691,
      "ĠvolontÃ©": 4692,
      "Ġconflits": 4693,
      "Ġdiminu": 4694,
      "lure": 4695,
      "Ġcenti": 4696,
      "anie": 4697,
      "Ġaviez": 4698,
      "Ġdisais": 4699,
      "ĠrÃ©fug": 4700,
      "Ġbloc": 4701,
      "ramme": 4702,
      "Ġvenant": 4703,
      "Ġfaim": 4704,
      "ĠhÃ©ros": 4705,
      "Ġintelligents": 4706,
      "Ġhandicap": 4707,
      "Ġel": 4708,
      "Ġgent": 4709,
      "ositÃ©": 4710,
      "Ġtran": 4711,
      "existe": 4712,
      "ierie": 4713,
      "ĠsÃ»rement": 4714,
      "ĠdÃ©barras": 4715,
      "Ġferait": 4716,
      "ĠachetÃ©": 4717,
      "Ġchiffre": 4718,
      "stac": 4719,
      "Ġenregistre": 4720,
      "Ġautomatique": 4721,
      "Ġchaleur": 4722,
      "Ġdoigts": 4723,
      "oe": 4724,
      "Ġchances": 4725,
      "utri": 4726,
      "Ã©rance": 4727,
      "ĠdÃ©crit": 4728,
      "ĠutilisÃ©s": 4729,
      "Ġpaysage": 4730,
      "illages": 4731,
      "Ġsigni": 4732,
      "Ġrevient": 4733,
      "Ġnoms": 4734,
      "ĠdÃ©plac": 4735,
      "Ġajou": 4736,
      "leterre": 4737,
      "Ġdisponibles": 4738,
      "Ġconnexion": 4739,
      "Ġcogni": 4740,
      "grÃ©s": 4741,
      "line": 4742,
      "oquer": 4743,
      "trÃ©": 4744,
      "Ġnett": 4745,
      "tiens": 4746,
      "ĠrÃ©par": 4747,
      "ueil": 4748,
      "ĠintÃ©rÃªt": 4749,
      "Ġappeler": 4750,
      "ĠÃ©conomiques": 4751,
      "Ġrendent": 4752,
      "ĠÃ©normÃ©ment": 4753,
      "Ġlocaux": 4754,
      "Ġmerveilleuse": 4755,
      "Ġconstamment": 4756,
      "Ġchauff": 4757,
      "Ġinsectes": 4758,
      "Ġlos": 4759,
      "uns": 4760,
      "Ġterres": 4761,
      "ĠallÃ©e": 4762,
      "ĠmortalitÃ©": 4763,
      "ribuer": 4764,
      "Ġefficaces": 4765,
      "ek": 4766,
      "oux": 4767,
      "andes": 4768,
      "ĠpossÃ©": 4769,
      "Ġchangent": 4770,
      "Ġaffir": 4771,
      "Ġsuppose": 4772,
      "ĠspÃ©cifique": 4773,
      "Ġlabo": 4774,
      "ĠarrivÃ©e": 4775,
      "ĠfrontiÃ¨res": 4776,
      "Ġgalaxies": 4777,
      "by": 4778,
      "mÃ©s": 4779,
      "Â°": 4780,
      "Ġdrap": 4781,
      "Ġsable": 4782,
      "Ġlac": 4783,
      "Ġpouviez": 4784,
      "Ġvieill": 4785,
      "ĠutilisÃ©e": 4786,
      "Ġcercle": 4787,
      "Ġaccro": 4788,
      "Ġintro": 4789,
      "ĠdÃ©couvertes": 4790,
      "ĠgÃ©nÃ©rations": 4791,
      "ĠfenÃªtre": 4792,
      "Ġhypoth": 4793,
      "ĠrÃ©gime": 4794,
      "otiques": 4795,
      "ĠvÃªtement": 4796,
      "Ġrav": 4797,
      "ĠcrÃ©ent": 4798,
      "jeun": 4799,
      "Ġmener": 4800,
      "Ġlimite": 4801,
      "arriver": 4802,
      "Ġsangu": 4803,
      "enseignement": 4804,
      "erci": 4805,
      "itÃ©e": 4806,
      "Ġralent": 4807,
      "dio": 4808,
      "Ġdevaient": 4809,
      "tendez": 4810,
      "Ġcontent": 4811,
      "Ġaffaire": 4812,
      "Ġcharbon": 4813,
      "Ġdoigt": 4814,
      "Ġprincipale": 4815,
      "ĠquittÃ©": 4816,
      "individ": 4817,
      "Ġcardiaque": 4818,
      "car": 4819,
      "dr": 4820,
      "iÃ©s": 4821,
      "Ġsages": 4822,
      "Ġmyth": 4823,
      "Ġving": 4824,
      "ctoire": 4825,
      "Ġarbre": 4826,
      "phone": 4827,
      "Ġaction": 4828,
      "Ġexperts": 4829,
      "Ġproduc": 4830,
      "Ġcherche": 4831,
      "Ġportables": 4832,
      "ĠmatÃ©riau": 4833,
      "Ġnormalement": 4834,
      "ĠcontinuÃ©": 4835,
      "Ġcircu": 4836,
      "Ġsignaux": 4837,
      "ĠprÃ©sence": 4838,
      "Ġsculpt": 4839,
      "die": 4840,
      "ionn": 4841,
      "iÃ¨res": 4842,
      "Ġsert": 4843,
      "Ġbour": 4844,
      "Ġrejet": 4845,
      "Ġinten": 4846,
      "Ġsurveill": 4847,
      "ailles": 4848,
      "Ġliqu": 4849,
      "Ġke": 4850,
      "ĠconfÃ©rences": 4851,
      "Ġsuppos": 4852,
      "intÃ©g": 4853,
      "Ġajouter": 4854,
      "Ġprototy": 4855,
      "Ġmanip": 4856,
      "Ġdistribution": 4857,
      "yl": 4858,
      "Ġach": 4859,
      "Ġvolu": 4860,
      "Ġtient": 4861,
      "Ġbang": 4862,
      "Ġbande": 4863,
      "prits": 4864,
      "Ġdirecteur": 4865,
      "Ġtravaillant": 4866,
      "ologue": 4867,
      "Ã©rations": 4868,
      "ĠÃ©volution": 4869,
      "Ġtrouvons": 4870,
      "idÃ©mie": 4871,
      "anal": 4872,
      "Ġtal": 4873,
      "oivent": 4874,
      "ĠÃ©li": 4875,
      "Ġpourra": 4876,
      "Ã´tre": 4877,
      "ĠcarrÃ©": 4878,
      "Ġmusic": 4879,
      "ĠintÃ©ressantes": 4880,
      "Ġsources": 4881,
      "Ġoptim": 4882,
      "Ġphysiques": 4883,
      "Ġlocal": 4884,
      "Ġsurvie": 4885,
      "titut": 4886,
      "ĠtÃ©les": 4887,
      "ĠopportunitÃ©": 4888,
      "Ġstyle": 4889,
      "clav": 4890,
      "ira": 4891,
      "Ġquatri": 4892,
      "invent": 4893,
      "Ġpaul": 4894,
      "ellent": 4895,
      "Ġrenf": 4896,
      "rog": 4897,
      "Ġges": 4898,
      "Ġdig": 4899,
      "Ġtexte": 4900,
      "Ġpensaient": 4901,
      "obtenir": 4902,
      "Ġ35": 4903,
      "ĠjouÃ©": 4904,
      "ĠcÃ´tÃ©s": 4905,
      "ĠdurÃ©e": 4906,
      "Ġextrait": 4907,
      "Ġsexu": 4908,
      "ĠprotÃ©ines": 4909,
      "Ġdisponible": 4910,
      "invest": 4911,
      "ĠpÃªche": 4912,
      "Ġ0": 4913,
      "Ġer": 4914,
      "Ã©der": 4915,
      "ĠgÃ¢": 4916,
      "ensitÃ©": 4917,
      "andis": 4918,
      "Ġassemb": 4919,
      "Ġacces": 4920,
      "Ġregardent": 4921,
      "Ġfacteurs": 4922,
      "Ġfera": 4923,
      "Ġsemblait": 4924,
      "Ġtravailleurs": 4925,
      "Ġapprennent": 4926,
      "Ġvaccin": 4927,
      "Ġprivil": 4928,
      "Ġsoldats": 4929,
      "ĠquatriÃ¨me": 4930,
      "hÃ©r": 4931,
      "ib": 4932,
      "tier": 4933,
      "Ġavancer": 4934,
      "avion": 4935,
      "esses": 4936,
      "Ã©rir": 4937,
      "Ġmontagnes": 4938,
      "ĠmÃ©d": 4939,
      "Ġdemain": 4940,
      "Ġprofit": 4941,
      "ĠpremiÃ¨rement": 4942,
      "minist": 4943,
      "Ã©die": 4944,
      "Ġfaibles": 4945,
      "Ġparlant": 4946,
      "Ġangel": 4947,
      "Ġdestru": 4948,
      "ĠmÃ©lange": 4949,
      "ĠsÃ©quence": 4950,
      "Ġfrancis": 4951,
      "moin": 4952,
      "endez": 4953,
      "Ġfe": 4954,
      "roir": 4955,
      "Ã©taire": 4956,
      "ĠprÃ©d": 4957,
      "ĠpersonnalitÃ©": 4958,
      "Ġterminer": 4959,
      "Ġamour": 4960,
      "Ġpointe": 4961,
      "Ġprises": 4962,
      "Ġfondation": 4963,
      "Ġpossibles": 4964,
      "Ġcontinent": 4965,
      "interv": 4966,
      "Ġcroient": 4967,
      "ĠlÃ©gÃ¨rement": 4968,
      "Ġdirigeants": 4969,
      "ĠcongrÃ¨s": 4970,
      "occuper": 4971,
      "Ġmc": 4972,
      "Ġtor": 4973,
      "aisse": 4974,
      "Ã´mes": 4975,
      "Ġperception": 4976,
      "ĠtuÃ©": 4977,
      "Ġfourmis": 4978,
      "Ġmessages": 4979,
      "oriz": 4980,
      "Ġsoutenir": 4981,
      "ĠingÃ©nieurs": 4982,
      "Ġlentement": 4983,
      "Ġcra": 4984,
      "Ġtom": 4985,
      "Ġhier": 4986,
      "outu": 4987,
      "Ġnotes": 4988,
      "auto": 4989,
      "ortex": 4990,
      "Ġmorale": 4991,
      "ĠcoÃ»ts": 4992,
      "ĠnÃ©cessaires": 4993,
      "Ġsurpris": 4994,
      "Ġfondamentalement": 4995,
      "ĠnÃ©goci": 4996,
      "Ġcollaboration": 4997,
      "Ġcorrectement": 4998,
      "pÃ¨re": 4999,
      "Ġsk": 5000,
      "ilier": 5001,
      "Ġplante": 5002,
      "abs": 5003,
      "Ġcentres": 5004,
      "Ġlangues": 5005,
      "ĠdeuxiÃ¨mement": 5006,
      "ĠdrÃ´le": 5007,
      "ĠconsidÃ¨re": 5008,
      "achet": 5009,
      "Ġhonte": 5010,
      "oncÃ©": 5011,
      "Ġtouche": 5012,
      "Ġpersonnage": 5013,
      "Ġbiolog": 5014,
      "Ġessayant": 5015,
      "ĠrÃ©fÃ©rence": 5016,
      "Ã©rÃ©e": 5017,
      "ĠlumiÃ¨res": 5018,
      "effic": 5019,
      "Ġnormale": 5020,
      "Ġterrible": 5021,
      "Ġfabrication": 5022,
      "ĠĠ": 5023,
      "Ġtax": 5024,
      "arriÃ¨re": 5025,
      "ĠÃ©m": 5026,
      "oirs": 5027,
      "dique": 5028,
      "iver": 5029,
      "ĠactivitÃ©": 5030,
      "Ġdouce": 5031,
      "intÃ©resse": 5032,
      "Ġresponsables": 5033,
      "Ġcheveux": 5034,
      "ham": 5035,
      "ld": 5036,
      "utÃ©": 5037,
      "Ġ/": 5038,
      "Ġrig": 5039,
      "ĠrÃ©duit": 5040,
      "Ġserez": 5041,
      "asa": 5042,
      "asp": 5043,
      "Ã¨ses": 5044,
      "ĠprobabilitÃ©": 5045,
      "ĠfrÃ¨res": 5046,
      "Ġcondition": 5047,
      "arrÃªte": 5048,
      "Ġfavor": 5049,
      "cra": 5050,
      "ka": 5051,
      "Ġqueue": 5052,
      "usti": 5053,
      "Ġgagn": 5054,
      "Ġparlez": 5055,
      "Ġtrous": 5056,
      "Ġore": 5057,
      "Ġoeu": 5058,
      "Ã§ait": 5059,
      "Ġmettons": 5060,
      "ĠintÃ©ressÃ©": 5061,
      "Ġjouent": 5062,
      "Ġjoueurs": 5063,
      "Ġpassons": 5064,
      "piration": 5065,
      "ĠrÃ©ussir": 5066,
      "Ġcyber": 5067,
      "Ġsympt": 5068,
      "Ġbref": 5069,
      "ustralie": 5070,
      "ich": 5071,
      "Ġlou": 5072,
      "rets": 5073,
      "mentation": 5074,
      "accep": 5075,
      "apes": 5076,
      "Ġvieille": 5077,
      "Ġcorruption": 5078,
      "Ġconfort": 5079,
      "ĠbasÃ©": 5080,
      "Åĵil": 5081,
      "Åĵurs": 5082,
      "Ġpublics": 5083,
      "ĠindÃ©pend": 5084,
      "Ġayons": 5085,
      "ĠgÃ©nÃ©rale": 5086,
      "Ġdocteur": 5087,
      "ĠmÃ©canique": 5088,
      "Ġtoilettes": 5089,
      "Ġvingt": 5090,
      "ud": 5091,
      "Ġsons": 5092,
      "ĠdegrÃ©s": 5093,
      "Ġnulle": 5094,
      "Ġfier": 5095,
      "aitre": 5096,
      "Ġplat": 5097,
      "Ġnez": 5098,
      "Ġnoy": 5099,
      "Ġefforts": 5100,
      "Ġintui": 5101,
      "Ġdouble": 5102,
      "ĠdÃ©sert": 5103,
      "ĠnommÃ©": 5104,
      "Ġcruci": 5105,
      "Ġclinique": 5106,
      "Ġauxquels": 5107,
      "ta": 5108,
      "Ġol": 5109,
      "ancien": 5110,
      "etÃ©": 5111,
      "ester": 5112,
      "itaux": 5113,
      "Ġhig": 5114,
      "Ġessais": 5115,
      "ĠcotÃ©": 5116,
      "Ġpib": 5117,
      "Ġpluie": 5118,
      "Ġinfrastru": 5119,
      "Ġtotal": 5120,
      "Ġmicrobes": 5121,
      "pourquoi": 5122,
      "don": 5123,
      "vres": 5124,
      "Ġdents": 5125,
      "isti": 5126,
      "Ġbul": 5127,
      "trer": 5128,
      "raper": 5129,
      "Ġdevions": 5130,
      "Ġarch": 5131,
      "Ġconser": 5132,
      "Ġpersonnelle": 5133,
      "ĠaidÃ©": 5134,
      "Ġmalade": 5135,
      "cules": 5136,
      "ĠidentitÃ©": 5137,
      "Ġcomprends": 5138,
      "ropri": 5139,
      "cides": 5140,
      "Ġscan": 5141,
      "Ġesprits": 5142,
      "Ġraconte": 5143,
      "intÃ©rÃªt": 5144,
      "ticles": 5145,
      "ĠrÃ©union": 5146,
      "Ġblancs": 5147,
      "Ġjaune": 5148,
      "Ġamusant": 5149,
      "main": 5150,
      "ueur": 5151,
      "uli": 5152,
      "Ġtur": 5153,
      "ĠÃ©ducation": 5154,
      "Ġreb": 5155,
      "sive": 5156,
      "Ġessaie": 5157,
      "Ġcentrale": 5158,
      "ĠprivÃ©e": 5159,
      "Ġsilence": 5160,
      "Ġdarwin": 5161,
      "ĠcompÃ©tition": 5162,
      "Ġiss": 5163,
      "quons": 5164,
      "Ġtab": 5165,
      "Ġtandis": 5166,
      "Ġfoi": 5167,
      "Ġjoie": 5168,
      "Ġenle": 5169,
      "aritÃ©": 5170,
      "Ġtrag": 5171,
      "Ġreli": 5172,
      "Ġpartag": 5173,
      "ĠrÃ©solution": 5174,
      "Ġnouvel": 5175,
      "Ġadolesc": 5176,
      "Ġcoul": 5177,
      "assurer": 5178,
      "Ġlargement": 5179,
      "Ġisra": 5180,
      "Ġcollabor": 5181,
      "ĠmolÃ©cule": 5182,
      "ingÃ©nierie": 5183,
      "Ġcivilisation": 5184,
      "Ġchaussures": 5185,
      "iness": 5186,
      "Ġfo": 5187,
      "Ã©riques": 5188,
      "Ġmaintenir": 5189,
      "ĠpensÃ©es": 5190,
      "Ġdemandent": 5191,
      "Ġboule": 5192,
      "Ġsensation": 5193,
      "Ġgouvern": 5194,
      "ĠcinÃ©": 5195,
      "ĠparticuliÃ¨re": 5196,
      "ĠdÃ©clen": 5197,
      "Ġvaste": 5198,
      "mine": 5199,
      "Ġouvrir": 5200,
      "Ġros": 5201,
      "ĠdÃ©tru": 5202,
      "Ġsurf": 5203,
      "Ã©tr": 5204,
      "Ġ1000": 5205,
      "Ġsoph": 5206,
      "Ġmesures": 5207,
      "Ġmira": 5208,
      "Ġbouge": 5209,
      "Ġmusici": 5210,
      "Ġtiens": 5211,
      "ographique": 5212,
      "ĠÃ©nergÃ©": 5213,
      "ĠconsÃ©quent": 5214,
      "ĠrÃ©ussite": 5215,
      "Ġcombinaison": 5216,
      "Ã©rapie": 5217,
      "Ġkenya": 5218,
      "ht": 5219,
      "Ġcous": 5220,
      "ĠstÃ©": 5221,
      "Ġsys": 5222,
      "rimÃ©": 5223,
      "agissait": 5224,
      "ister": 5225,
      "ĠprÃ©occup": 5226,
      "entionn": 5227,
      "rÃªts": 5228,
      "Ġconnecter": 5229,
      "ĠsÃ©rieusement": 5230,
      "ĠpoÃ©sie": 5231,
      "ĠÃ©lectriques": 5232,
      "Ġcheval": 5233,
      "ĠtÃ¢ches": 5234,
      "ĠcÃ©rÃ©br": 5235,
      "ĠfrontiÃ¨re": 5236,
      "Ġignor": 5237,
      "Ġmagasin": 5238,
      "Ġrichard": 5239,
      "Ġmexique": 5240,
      "Ġbudget": 5241,
      "bri": 5242,
      "iÃ©": 5243,
      "ĠlÃ©": 5244,
      "Ġcoc": 5245,
      "Ġmac": 5246,
      "Ġnan": 5247,
      "Ġpaci": 5248,
      "Ġpatri": 5249,
      "ticiens": 5250,
      "Ġnote": 5251,
      "Ġconver": 5252,
      "Ġobtient": 5253,
      "hÃ©tique": 5254,
      "Ġrappelez": 5255,
      "Ġverte": 5256,
      "ĠdÃ©solÃ©": 5257,
      "Ġcroyons": 5258,
      "Ġsouffr": 5259,
      "Ġmentale": 5260,
      "Ġexistent": 5261,
      "Ġglobal": 5262,
      "amÃ©liorer": 5263,
      "Ġquasiment": 5264,
      "ĠvÃªtements": 5265,
      "Ġlanc": 5266,
      "oient": 5267,
      "ĠgÃ¨ne": 5268,
      "ortent": 5269,
      "mif": 5270,
      "Ġconduis": 5271,
      "Ġsouches": 5272,
      "Ġfront": 5273,
      "Ġrepas": 5274,
      "ĠthÃ©Ã¢tre": 5275,
      "Ġpouss": 5276,
      "Ġbataille": 5277,
      "Ġressemblait": 5278,
      "Ġgrippe": 5279,
      "ĠopportunitÃ©s": 5280,
      "har": 5281,
      "Ġpy": 5282,
      "char": 5283,
      "Ġtriste": 5284,
      "Ġavance": 5285,
      "rad": 5286,
      "Ġviande": 5287,
      "alisÃ©e": 5288,
      "Ġwh": 5289,
      "olly": 5290,
      "ĠagrÃ©": 5291,
      "Ġreconnaiss": 5292,
      "Ġrassembler": 5293,
      "Ġsimilaires": 5294,
      "ĠÃ©duc": 5295,
      "Ġangeles": 5296,
      "Ġnat": 5297,
      "Ġgagne": 5298,
      "Ġchic": 5299,
      "riÃ¨res": 5300,
      "Ġanciens": 5301,
      "anglais": 5302,
      "Ġconsac": 5303,
      "Ġtravaux": 5304,
      "Ã©criture": 5305,
      "ĠliÃ©": 5306,
      "ĠutilisÃ©es": 5307,
      "Ġcolon": 5308,
      "Ġsigne": 5309,
      "Ġ45": 5310,
      "expression": 5311,
      "Ġdessiner": 5312,
      "Ġrouges": 5313,
      "Ġexploit": 5314,
      "effond": 5315,
      "jectif": 5316,
      "Ġisol": 5317,
      "Ġcivile": 5318,
      "Ġafricains": 5319,
      "Ġdiscussion": 5320,
      "jeuner": 5321,
      "vard": 5322,
      "Ġcab": 5323,
      "Ġspe": 5324,
      "erie": 5325,
      "ola": 5326,
      "agnies": 5327,
      "Ġcompagnies": 5328,
      "mide": 5329,
      "Ġmaxim": 5330,
      "umin": 5331,
      "ĠdonnÃ©e": 5332,
      "ĠsymÃ©t": 5333,
      "Ġdollar": 5334,
      "Ġservi": 5335,
      "thÃ¨se": 5336,
      "ĠopÃ©ration": 5337,
      "Ġjournaux": 5338,
      "Ġprends": 5339,
      "ĠdÃ©fini": 5340,
      "Ġfondamentale": 5341,
      "ĠportÃ©e": 5342,
      "ĠdÃ©tecter": 5343,
      "ĠmÃ©thodes": 5344,
      "ĠdÃ©cennie": 5345,
      "ĠpropriÃ©tÃ©s": 5346,
      "ĠvÃ©lo": 5347,
      "Ġmagazine": 5348,
      "Ġennuy": 5349,
      "20": 5350,
      "enn": 5351,
      "Ġtoit": 5352,
      "Ã¨le": 5353,
      "olue": 5354,
      "agues": 5355,
      "abil": 5356,
      "asie": 5357,
      "Ġcompter": 5358,
      "instein": 5359,
      "Ġattendez": 5360,
      "ĠrÃ©pu": 5361,
      "Ġbonjour": 5362,
      "Ġbiens": 5363,
      "Ġmiroir": 5364,
      "Ġfonctionnement": 5365,
      "Ġguerres": 5366,
      "Ġ99": 5367,
      "ĠmenÃ©": 5368,
      "Ġvoisins": 5369,
      "Ġoffrir": 5370,
      "hip": 5371,
      "Ġimmense": 5372,
      "ĠstupÃ©": 5373,
      "ĠactivitÃ©s": 5374,
      "Ġgestion": 5375,
      "30": 5376,
      "forme": 5377,
      "hommes": 5378,
      "Ġdau": 5379,
      "Ġpic": 5380,
      "Ġcouv": 5381,
      "Ġrang": 5382,
      "Ġbab": 5383,
      "Ġbig": 5384,
      "essaie": 5385,
      "ĠprÃ©t": 5386,
      "Ã©crire": 5387,
      "Ġastr": 5388,
      "Ġviend": 5389,
      "Ġmessi": 5390,
      "Ġbran": 5391,
      "Ġaurons": 5392,
      "Ġtimes": 5393,
      "Ġ75": 5394,
      "Ġrenouv": 5395,
      "Ġcomposants": 5396,
      "Ġramener": 5397,
      "ĠlittÃ©r": 5398,
      "Ġaimons": 5399,
      "Ġcentral": 5400,
      "Ġsagesse": 5401,
      "gies": 5402,
      "kistan": 5403,
      "lÃ©es": 5404,
      "mons": 5405,
      "Ġord": 5406,
      "Ġquantique": 5407,
      "Ġration": 5408,
      "veiller": 5409,
      "ago": 5410,
      "ĠaccÃ©lÃ©": 5411,
      "expliquer": 5412,
      "ĠscÃ©n": 5413,
      "ĠpassÃ©s": 5414,
      "Ġhauteur": 5415,
      "ĠpoÃ¨me": 5416,
      "ĠaugmentÃ©": 5417,
      "Ġemplois": 5418,
      "Ġsinon": 5419,
      "Ġpierre": 5420,
      "ĠrÃ©chauffement": 5421,
      "ba": 5422,
      "mont": 5423,
      "erse": 5424,
      "ĠillÃ©g": 5425,
      "Ġinn": 5426,
      "Ġeaux": 5427,
      "astiques": 5428,
      "irmi": 5429,
      "Ġcomplet": 5430,
      "Ġimpro": 5431,
      "Ġvoyager": 5432,
      "Ġsembler": 5433,
      "Ġretrouve": 5434,
      "Ġmammif": 5435,
      "Ġtransforme": 5436,
      "ĠapprÃ©ci": 5437,
      "Ġsinges": 5438,
      "Ġliquide": 5439,
      "Ġdauph": 5440,
      "fication": 5441,
      "go": 5442,
      "sour": 5443,
      "Ġlun": 5444,
      "Ġpir": 5445,
      "ĠmÃ¨ne": 5446,
      "ina": 5447,
      "onniers": 5448,
      "Ġavenir": 5449,
      "Ġsui": 5450,
      "umÃ©": 5451,
      "ĠÃ©cran": 5452,
      "Ġministre": 5453,
      "ĠdÃ©fense": 5454,
      "ĠpublicitÃ©": 5455,
      "Ġther": 5456,
      "habit": 5457,
      "Ġdisparu": 5458,
      "Ġindustrielle": 5459,
      "ville": 5460,
      "ĠdÃ®": 5461,
      "Ġnombres": 5462,
      "roÃ¯": 5463,
      "Ġparent": 5464,
      "Ġdure": 5465,
      "assÃ©": 5466,
      "Ã©tend": 5467,
      "Ġpuissions": 5468,
      "fiÃ©e": 5469,
      "ĠamÃ¨ne": 5470,
      "Ġgrandir": 5471,
      "Ġutilisez": 5472,
      "Ġchamps": 5473,
      "Ġcaus": 5474,
      "ĠrÃ©parer": 5475,
      "Ġallant": 5476,
      "Ġminim": 5477,
      "Ġcourir": 5478,
      "Ġparfaite": 5479,
      "Ġdescendre": 5480,
      "Ġgrimp": 5481,
      "ĠvÃ©hicules": 5482,
      "Ġtremb": 5483,
      "'s": 5484,
      "oule": 5485,
      "ernes": 5486,
      "Ġnasa": 5487,
      "ouse": 5488,
      "timis": 5489,
      "Ġruss": 5490,
      "Ġargu": 5491,
      "fiÃ©s": 5492,
      "Ġobstac": 5493,
      "ĠconnaÃ®t": 5494,
      "Ġridi": 5495,
      "Ġdrogue": 5496,
      "Ġexcellent": 5497,
      "ĠfranÃ§ais": 5498,
      "Ġextraordinaires": 5499,
      "Ġarabe": 5500,
      "Ġfrancisco": 5501,
      "run": 5502,
      "enture": 5503,
      "entraÃ®": 5504,
      "Ġtir": 5505,
      "orb": 5506,
      "essence": 5507,
      "alisÃ©s": 5508,
      "Ġstu": 5509,
      "Ġstation": 5510,
      "Ġhuman": 5511,
      "Ġlongues": 5512,
      "Ġattenti": 5513,
      "Ġessaye": 5514,
      "Ġspir": 5515,
      "ĠmÃ©dical": 5516,
      "Ġfacteur": 5517,
      "Ġfermi": 5518,
      "Ġheureuse": 5519,
      "Ġartiste": 5520,
      "Ġtraitements": 5521,
      "Ġapparemment": 5522,
      "Ġremplacer": 5523,
      "Ġtenter": 5524,
      "ĠÅĵuvre": 5525,
      "Ġsouvenirs": 5526,
      "Ġgratuite": 5527,
      "Ġrequins": 5528,
      "ĠschÃ©ma": 5529,
      "ĠmÃ©taphore": 5530,
      "ĠbibliothÃ¨que": 5531,
      "lande": 5532,
      "Ġom": 5533,
      "Ġparole": 5534,
      "Ġroi": 5535,
      "urr": 5536,
      "Ġplant": 5537,
      "Ġplans": 5538,
      "Ġremettre": 5539,
      "ĠrÃ©du": 5540,
      "oncer": 5541,
      "ĠÃ©tapes": 5542,
      "Ã©cl": 5543,
      "Ġforment": 5544,
      "ingue": 5545,
      "Ġfonctions": 5546,
      "ĠmÃ©tal": 5547,
      "Ġcommencez": 5548,
      "ĠrÃ©flÃ©chissez": 5549,
      "Ġtechnologique": 5550,
      "Ġnaturellement": 5551,
      "Ġpousse": 5552,
      "Ġbusiness": 5553,
      "Ġenseigner": 5554,
      "rants": 5555,
      "romp": 5556,
      "sh": 5557,
      "Ġcroit": 5558,
      "Ġnutri": 5559,
      "Ġpakistan": 5560,
      "ĠbÃ©t": 5561,
      "Ġtrad": 5562,
      "ĠdÃ©r": 5563,
      "agine": 5564,
      "ience": 5565,
      "Ġprouver": 5566,
      "ĠprÃ©serv": 5567,
      "Ġvia": 5568,
      "Ġbiais": 5569,
      "Ġcollection": 5570,
      "Ã©tudes": 5571,
      "Ġprati": 5572,
      "Ġbleue": 5573,
      "Ġpositif": 5574,
      "Ġgalaxie": 5575,
      "existence": 5576,
      "Ġfascinant": 5577,
      "Ġsophisti": 5578,
      "Ġmessieurs": 5579,
      "gÃ©e": 5580,
      "oquÃ©": 5581,
      "entends": 5582,
      "Ġroutes": 5583,
      "Ġher": 5584,
      "istance": 5585,
      "ĠprÃ©dire": 5586,
      "cop": 5587,
      "ĠÃ©cosyst": 5588,
      "exe": 5589,
      "Ġtransition": 5590,
      "Ġrecul": 5591,
      "Ġauront": 5592,
      "Ã©rÃ©s": 5593,
      "Ġagric": 5594,
      "ĠpassÃ©e": 5595,
      "Ġrelativement": 5596,
      "Ġtroubles": 5597,
      "Ġfeuille": 5598,
      "exploit": 5599,
      "Ġtissus": 5600,
      "Ġpanneaux": 5601,
      "ĠancÃªtres": 5602,
      "Ġhorrible": 5603,
      "Ġbouteille": 5604,
      "opportunitÃ©": 5605,
      "den": 5606,
      "gs": 5607,
      "ix": 5608,
      "eubles": 5609,
      "Ġpourrons": 5610,
      "ica": 5611,
      "Ġcade": 5612,
      "Ġsavaient": 5613,
      "obile": 5614,
      "Ġcontrain": 5615,
      "Â».": 5616,
      "Ġsubst": 5617,
      "Ġexplique": 5618,
      "Ġsituations": 5619,
      "ĠobservÃ©": 5620,
      "Ġcanada": 5621,
      "Ġrendez": 5622,
      "Ġimplique": 5623,
      "Ġglobale": 5624,
      "Ġchampign": 5625,
      "Ġadulte": 5626,
      "Ġcliniques": 5627,
      "Ġtext": 5628,
      "Ġfoot": 5629,
      "lle": 5630,
      "rand": 5631,
      "Ġ$": 5632,
      "quette": 5633,
      "anÃ©ment": 5634,
      "Ġrentre": 5635,
      "ĠrÃ©ci": 5636,
      "Ġarticles": 5637,
      "Ġautonom": 5638,
      "Ã´tel": 5639,
      "Ġsport": 5640,
      "Ġbrut": 5641,
      "Ġcontrairement": 5642,
      "Åĵuvre": 5643,
      "Ġvenaient": 5644,
      "Ġcrime": 5645,
      "Ġballe": 5646,
      "Ã´pitaux": 5647,
      "Ġgeorge": 5648,
      "Ġidentifier": 5649,
      "Ġdangere": 5650,
      "we": 5651,
      "Ġital": 5652,
      "Ġouverte": 5653,
      "Ġdan": 5654,
      "ĠdegrÃ©": 5655,
      "isÃ©s": 5656,
      "Ġrur": 5657,
      "Ġexcep": 5658,
      "instant": 5659,
      "Ġpersonnages": 5660,
      "Ġenvis": 5661,
      "Ġretraite": 5662,
      "Ġtotale": 5663,
      "ĠvÃ©hicule": 5664,
      "ĠrÃ©flexion": 5665,
      "Ġconclusion": 5666,
      "ĠchimpanzÃ©s": 5667,
      "iz": 5668,
      "mati": 5669,
      "Ġdate": 5670,
      "ĠlÃ¢": 5671,
      "anth": 5672,
      "Ġgig": 5673,
      "onnements": 5674,
      "Ġvisages": 5675,
      "Ġrestent": 5676,
      "ĠdÃ©mons": 5677,
      "Ġmagique": 5678,
      "Ġpoche": 5679,
      "ĠtransformÃ©": 5680,
      "Ġemploi": 5681,
      "Ġsentiments": 5682,
      "ĠconsÃ©quence": 5683,
      "Ġmodifier": 5684,
      "Ġstandard": 5685,
      "exemple": 5686,
      "hyp": 5687,
      "moins": 5688,
      "quait": 5689,
      "ĠfÃªte": 5690,
      "Ġgout": 5691,
      "Ġquiconque": 5692,
      "ctur": 5693,
      "ails": 5694,
      "idÃ©es": 5695,
      "Ġdiscip": 5696,
      "Ġ22": 5697,
      "Ġphase": 5698,
      "Ġaid": 5699,
      "Ġamie": 5700,
      "riss": 5701,
      "ĠrÃ©solu": 5702,
      "ituel": 5703,
      "Ġafghanistan": 5704,
      "Ġdessins": 5705,
      "Ġlocale": 5706,
      "ĠgoÃ»t": 5707,
      "ĠmÃ©canisme": 5708,
      "Ġconversations": 5709,
      "Ġanderson": 5710,
      "ĠhonnÃªte": 5711,
      "ĠterminÃ©": 5712,
      "Ġperformance": 5713,
      "Ġballon": 5714,
      "Ġfaudrait": 5715,
      "Ġnerveux": 5716,
      "ĠdÃ©par": 5717,
      "Ġavoc": 5718,
      "Ġarts": 5719,
      "entiel": 5720,
      "Ġ23": 5721,
      "ĠcrÃ©Ã©e": 5722,
      "ĠprivÃ©": 5723,
      "Ġvoila": 5724,
      "Åĵu": 5725,
      "Ġinternational": 5726,
      "ĠgravitÃ©": 5727,
      "ĠmÃ©dicaux": 5728,
      "Ġcouverture": 5729,
      "Ġvolume": 5730,
      "ĠsystÃ©": 5731,
      "entrÃ©e": 5732,
      "Ġgang": 5733,
      "ĠauprÃ¨s": 5734,
      "Ġinutil": 5735,
      "rac": 5736,
      "Ġyoutu": 5737,
      "Ġbeaux": 5738,
      "appare": 5739,
      "Ġserais": 5740,
      "Ġutilisateurs": 5741,
      "ĠgÃ©nie": 5742,
      "isseurs": 5743,
      "Ġvivants": 5744,
      "ĠÃ©vÃ¨ne": 5745,
      "Ġadn": 5746,
      "Ġcourage": 5747,
      "Ġsembl": 5748,
      "ĠcomplÃ¨te": 5749,
      "Ã©quivalent": 5750,
      "Ġfondamental": 5751,
      "Ġjeter": 5752,
      "Ġterrorisme": 5753,
      "arctique": 5754,
      "Ġrempli": 5755,
      "Ġpourcentage": 5756,
      "gin": 5757,
      "pa": 5758,
      "Ã©chec": 5759,
      "Ġlende": 5760,
      "Ġsaut": 5761,
      "Ġmyst": 5762,
      "Ġbg": 5763,
      "Ġbid": 5764,
      "chi": 5765,
      "Ġtroup": 5766,
      "ĠdÃ©jeuner": 5767,
      "sier": 5768,
      "ĠhÃ©r": 5769,
      "utation": 5770,
      "Ã©rie": 5771,
      "fice": 5772,
      "Ġacte": 5773,
      "Ġmontrant": 5774,
      "Ġsavions": 5775,
      "Ġbiom": 5776,
      "uck": 5777,
      "Ġchiens": 5778,
      "Ġconcepts": 5779,
      "ĠÃ©normes": 5780,
      "Â»,": 5781,
      "Ġvoisin": 5782,
      "Ġapplications": 5783,
      "Ġtradition": 5784,
      "ĠacceptÃ©": 5785,
      "Ġhabitants": 5786,
      "Ġchimique": 5787,
      "Ġquartiers": 5788,
      "ĠforcÃ©ment": 5789,
      "Ġorganes": 5790,
      "Ġspectacle": 5791,
      "ĠmaÃ®tr": 5792,
      "Ġpareil": 5793,
      "Ġdinosaures": 5794,
      "ĠrÃ©fugiÃ©s": 5795,
      "Ġdestruction": 5796,
      "Ġyoutube": 5797,
      "acier": 5798,
      "entendre": 5799,
      "ĠhÃ´pitaux": 5800,
      "rations": 5801,
      "ney": 5802,
      "Ġnot": 5803,
      "Ġmarket": 5804,
      "Ġserre": 5805,
      "ĠcrÃ©ons": 5806,
      "ĠperÃ§": 5807,
      "Ġenfance": 5808,
      "ĠinterprÃ©": 5809,
      "iversaire": 5810,
      "ĠbasÃ©e": 5811,
      "ĠdÃ©sesp": 5812,
      "Ġtire": 5813,
      "Ã©vit": 5814,
      "ĠreprÃ©senter": 5815,
      "Ġneuros": 5816,
      "roniques": 5817,
      "ĠmathÃ©matique": 5818,
      "Ġjames": 5819,
      "Ġinstruments": 5820,
      "Ġpartenaires": 5821,
      "ĠrÃ©sistance": 5822,
      "Ġbaisse": 5823,
      "ĠrÃ©compense": 5824,
      "Ġrenouvel": 5825,
      "ĠdÃ©partement": 5826,
      "Ġlendemain": 5827,
      "wood": 5828,
      "Ã©tique": 5829,
      "Ġpel": 5830,
      "Ġcand": 5831,
      "Ġvague": 5832,
      "tiver": 5833,
      "ĠdÃ©truire": 5834,
      "Ġcondam": 5835,
      "Ã´me": 5836,
      "Ġvisuel": 5837,
      "ĠsÃ»re": 5838,
      "Ġjoueur": 5839,
      "Ġbases": 5840,
      "Ġmoteurs": 5841,
      "ĠinvitÃ©": 5842,
      "Ġsubs": 5843,
      "Ġchefs": 5844,
      "ĠprÃ©cision": 5845,
      "Ġconvaincu": 5846,
      "Ġencourage": 5847,
      "Ġleadership": 5848,
      "approche": 5849,
      "Ġfossiles": 5850,
      "Ġchicago": 5851,
      "ĠscÃ©nari": 5852,
      "fices": 5853,
      "Ġmand": 5854,
      "Ġmys": 5855,
      "dedans": 5856,
      "ĠdÃ©ci": 5857,
      "agissent": 5858,
      "Ġneige": 5859,
      "abol": 5860,
      "truis": 5861,
      "Ġvoire": 5862,
      "Ġtransmettre": 5863,
      "Ġmatern": 5864,
      "ĠespÃ©rons": 5865,
      "nÃ©tique": 5866,
      "dames": 5867,
      "Ġcomprenons": 5868,
      "Ġutiles": 5869,
      "Ġ2010": 5870,
      "Ġrestaurant": 5871,
      "comment": 5872,
      "Ġpeinture": 5873,
      "ĠÃ¢gÃ©es": 5874,
      "Ġrenfor": 5875,
      "ĠsymptÃ´mes": 5876,
      "lie": 5877,
      "Ġlait": 5878,
      "Ġstre": 5879,
      "Ġjui": 5880,
      "orld": 5881,
      "urgie": 5882,
      "Ġintit": 5883,
      "ĠalÃ©": 5884,
      "occasion": 5885,
      "Ġfauteu": 5886,
      "Ġassur": 5887,
      "Ġ600": 5888,
      "Ġ2008": 5889,
      "ĠsiÃ¨ge": 5890,
      "Ġapplication": 5891,
      "Ġnuage": 5892,
      "ĠinspirÃ©": 5893,
      "animal": 5894,
      "Ġsteve": 5895,
      "ĠaperÃ§u": 5896,
      "Ġchimie": 5897,
      "Ġdil": 5898,
      "Ġdor": 5899,
      "Ġping": 5900,
      "Ġsond": 5901,
      "Ġmy": 5902,
      "Ġfu": 5903,
      "Ġlamp": 5904,
      "estation": 5905,
      "arrÃªt": 5906,
      "Ġmondes": 5907,
      "Ġgren": 5908,
      "identitÃ©": 5909,
      "ĠliÃ©s": 5910,
      "Ġautoris": 5911,
      "Ġatter": 5912,
      "Ġcauses": 5913,
      "Ġmodernes": 5914,
      "agerie": 5915,
      "ĠreprÃ©sentation": 5916,
      "Ġprofondeur": 5917,
      "Ġdesigners": 5918,
      "Ġcitation": 5919,
      "ĠdisparaÃ®tre": 5920,
      "ĠmolÃ©c": 5921,
      "appelait": 5922,
      "Ġgrave": 5923,
      "Ġsympa": 5924,
      "Ġauxquelles": 5925,
      "Ġparalys": 5926,
      "Ġmonsieur": 5927,
      "Ġdispositif": 5928,
      "Ġbatterie": 5929,
      "Ġsurveillance": 5930,
      "Ġcandid": 5931,
      "hique": 5932,
      "tte": 5933,
      "enue": 5934,
      "ĠsÅĵur": 5935,
      "Ġnet": 5936,
      "Ġtalent": 5937,
      "Ġunes": 5938,
      "Ġfleurs": 5939,
      "euble": 5940,
      "Ġbelles": 5941,
      "uste": 5942,
      "Ġrecev": 5943,
      "Ġof": 5944,
      "ĠinfÃ©ri": 5945,
      "Ġressenti": 5946,
      "ĠtombÃ©": 5947,
      "Ġexcitant": 5948,
      "Ġreconnaissance": 5949,
      "Ġactuel": 5950,
      "Ġsucre": 5951,
      "Ġcircons": 5952,
      "Ġcomprenez": 5953,
      "essaye": 5954,
      "Ġconsommateurs": 5955,
      "imagination": 5956,
      "ĠÃ©tonnant": 5957,
      "ĠoubliÃ©": 5958,
      "ĠempÃªcher": 5959,
      "Ġneurosci": 5960,
      "ael": 5961,
      "ed": 5962,
      "hist": 5963,
      "mans": 5964,
      "rine": 5965,
      "Ġsand": 5966,
      "inion": 5967,
      "itage": 5968,
      "Ġgrot": 5969,
      "Ġplacer": 5970,
      "atteindre": 5971,
      "enser": 5972,
      "Ġsuit": 5973,
      "ĠapportÃ©": 5974,
      "Ġdonnant": 5975,
      "Ġexpos": 5976,
      "Ġfrance": 5977,
      "cepti": 5978,
      "Ġphotographie": 5979,
      "Ġdoub": 5980,
      "Ġestim": 5981,
      "Ġsourire": 5982,
      "Ġpuissants": 5983,
      "ĠsiÃ¨cles": 5984,
      "Ġaugmentation": 5985,
      "berg": 5986,
      "Ġdoct": 5987,
      "Ġrayons": 5988,
      "Ġharvard": 5989,
      "Ġvaccins": 5990,
      "Ġpanneau": 5991,
      "Ġdame": 5992,
      "Ġquotidien": 5993,
      "Ġirak": 5994,
      "ection": 5995,
      "iler": 5996,
      "Ġdeviend": 5997,
      "Ġconsom": 5998,
      "Ġmesdames": 5999,
      "objectif": 6000,
      "ĠlimitÃ©": 6001,
      "Ġrende": 6002,
      "Ġinterview": 6003,
      "ĠÃ©levÃ©s": 6004,
      "ĠcÃ©lÃ©b": 6005,
      "Ġscanner": 6006,
      "Ġdorm": 6007,
      "Ã©ros": 6008,
      "Ġcortex": 6009,
      "Ġvac": 6010,
      "estin": 6011,
      "ĠleÃ§ons": 6012,
      "Ġparis": 6013,
      "chir": 6014,
      "ives": 6015,
      "Ġentrain": 6016,
      "adÃ©": 6017,
      "Ġpersonnellement": 6018,
      "ĠexposÃ©": 6019,
      "Ġpropor": 6020,
      "ĠintÃ©rÃªts": 6021,
      "Ġwal": 6022,
      "Ġappellent": 6023,
      "Ġaurions": 6024,
      "ĠprÃ©sentÃ©": 6025,
      "Ġgrosses": 6026,
      "Ġretard": 6027,
      "Ġjournaliste": 6028,
      "Ġmoral": 6029,
      "ĠÃ©quipes": 6030,
      "Ġbarb": 6031,
      "Ġprovient": 6032,
      "Ġsurprenant": 6033,
      "Ġprosp": 6034,
      "Ġdiagnostic": 6035,
      "Ġwiki": 6036,
      "ĠÃ©nergÃ©tique": 6037,
      "gnÃ©": 6038,
      "Ġcord": 6039,
      "ĠmÃ¨tre": 6040,
      "isÃ©e": 6041,
      "Ġpath": 6042,
      "Ġfurent": 6043,
      "Ġbel": 6044,
      "identi": 6045,
      "Ġath": 6046,
      "Ġworld": 6047,
      "ĠcherchÃ©": 6048,
      "ĠtirÃ©": 6049,
      "Ġsortent": 6050,
      "Ġdispos": 6051,
      "Ġdiscuter": 6052,
      "Ġphysiquement": 6053,
      "influ": 6054,
      "Ġstupide": 6055,
      "Ġboston": 6056,
      "Ġpacifique": 6057,
      "Ġsouffrance": 6058,
      "pro": 6059,
      "Ġpure": 6060,
      "Ġsquel": 6061,
      "Ġvain": 6062,
      "Ġjan": 6063,
      "teaux": 6064,
      "ust": 6065,
      "Ġchute": 6066,
      "Ġaurez": 6067,
      "chÃ©es": 6068,
      "Ġtraite": 6069,
      "assemb": 6070,
      "Ġappropri": 6071,
      "Ġserons": 6072,
      "occident": 6073,
      "Ġcacher": 6074,
      "Ġmets": 6075,
      "Ã©gÃ©t": 6076,
      "Ġrepous": 6077,
      "Ġconclure": 6078,
      "Ġpubliques": 6079,
      "allÃ©e": 6080,
      "Ġaffi": 6081,
      "ĠthÃ¨me": 6082,
      "Ġpopulations": 6083,
      "Ã©loi": 6084,
      "Ġbouton": 6085,
      "Ġmajeure": 6086,
      "ĠconsidÃ©ra": 6087,
      "Ġsouhaite": 6088,
      "Ġlogiciels": 6089,
      "Ġinstrument": 6090,
      "ĠreÃ§oit": 6091,
      "Ġhistorique": 6092,
      "Ġpollution": 6093,
      "acheter": 6094,
      "efficacitÃ©": 6095,
      "lage": 6096,
      "Ġmul": 6097,
      "ĠvÃ©gÃ©t": 6098,
      "usses": 6099,
      "ĠgÃª": 6100,
      "lique": 6101,
      "Ġpron": 6102,
      "anges": 6103,
      "server": 6104,
      "Ġposte": 6105,
      "Ġeffectu": 6106,
      "Ġ194": 6107,
      "Ġmagni": 6108,
      "Ġflor": 6109,
      "ĠdÃ©finir": 6110,
      "Ġayez": 6111,
      "ĠfabriquÃ©": 6112,
      "Ġboite": 6113,
      "ĠÅĵil": 6114,
      "Ġintelligente": 6115,
      "Ġsoyons": 6116,
      "Ġterroristes": 6117,
      "ĠvÃ©rifier": 6118,
      "gi": 6119,
      "lo": 6120,
      "ymp": 6121,
      "Ġq": 6122,
      "once": 6123,
      "ouer": 6124,
      "Ġmai": 6125,
      "Ġfoie": 6126,
      "Ġenne": 6127,
      "Ġbulle": 6128,
      "allÃ©": 6129,
      "outons": 6130,
      "ĠÃ©tend": 6131,
      "Ġmotifs": 6132,
      "Ġcommune": 6133,
      "Ã´les": 6134,
      "Ġseules": 6135,
      "ĠaimÃ©": 6136,
      "Ġki": 6137,
      "ĠcorÃ©e": 6138,
      "Ġcourte": 6139,
      "Ġespoir": 6140,
      "Ġvenons": 6141,
      "Ġdrogues": 6142,
      "Ġoccu": 6143,
      "Ġfeuilles": 6144,
      "Ġ250": 6145,
      "Ġrevenons": 6146,
      "Ġsatellite": 6147,
      "Ġartistique": 6148,
      "Ġentrepreneurs": 6149,
      "ctre": 6150,
      "gÃ©s": 6151,
      "Ġlic": 6152,
      "Ġpomp": 6153,
      "Ġcrai": 6154,
      "Ġcanc": 6155,
      "Ġmu": 6156,
      "isser": 6157,
      "estres": 6158,
      "omÃ©t": 6159,
      "aluer": 6160,
      "ouvÃ©": 6161,
      "Ġdiam": 6162,
      "Ġcell": 6163,
      "Ġmilitaires": 6164,
      "Ġjambe": 6165,
      "issaient": 6166,
      "Ġauriez": 6167,
      "ĠrÃ©guli": 6168,
      "Ġ2009": 6169,
      "ĠocÃ©an": 6170,
      "Ġcharles": 6171,
      "Ġusine": 6172,
      "Ġchanter": 6173,
      "hydro": 6174,
      "Ġmotivation": 6175,
      "Ġtumeur": 6176,
      "ĠprÃ©parer": 6177,
      "ĠdÃ©barrasser": 6178,
      "Ġdrapeau": 6179,
      "investissement": 6180,
      "Ġmagnifiques": 6181,
      "itre": 6182,
      "Ġbanc": 6183,
      "ĠdÃ©coup": 6184,
      "ĠinÃ©vit": 6185,
      "acts": 6186,
      "amin": 6187,
      "miques": 6188,
      "Ġcommande": 6189,
      "auteur": 6190,
      "Ġessai": 6191,
      "Ġcorp": 6192,
      "Ġcapteurs": 6193,
      "Ġorb": 6194,
      "Ġcentaine": 6195,
      "Ġpermettant": 6196,
      "Ġvertic": 6197,
      "ĠÃ©lections": 6198,
      "Ġsentent": 6199,
      "ĠvariÃ©tÃ©": 6200,
      "Ġreproduire": 6201,
      "ĠrÃ©cupÃ©rer": 6202,
      "ĠÃ©vÃ©nement": 6203,
      "Ġinvisible": 6204,
      "ĠsupplÃ©mentaires": 6205,
      "Ġspectre": 6206,
      "naires": 6207,
      "Ġours": 6208,
      "Ġpile": 6209,
      "ismes": 6210,
      "Ġenqu": 6211,
      "aises": 6212,
      "Ġpourrez": 6213,
      "ries": 6214,
      "Ġtromp": 6215,
      "onnÃ©e": 6216,
      "Ġavais": 6217,
      "ĠavÃ©rÃ©": 6218,
      "ĠrÃ©actions": 6219,
      "Ġdialog": 6220,
      "Ġassi": 6221,
      "ĠÃ©conomies": 6222,
      "envoyer": 6223,
      "Ġnaturelles": 6224,
      "Ġpratiques": 6225,
      "ypte": 6226,
      "Ġaccepter": 6227,
      "Ġnuages": 6228,
      "Ġpertin": 6229,
      "ĠdifficultÃ©": 6230,
      "Ġsignifi": 6231,
      "Ġmarketing": 6232,
      "Ġpingou": 6233,
      "otion": 6234,
      "Ġcible": 6235,
      "Ġmorte": 6236,
      "org": 6237,
      "Ġeinstein": 6238,
      "ĠhaÃ¯": 6239,
      "ĠhÃ´pital": 6240,
      "Ġalb": 6241,
      "dition": 6242,
      "nez": 6243,
      "angle": 6244,
      "Ġimprim": 6245,
      "ĠtouchÃ©": 6246,
      "Ġprobable": 6247,
      "Ġavantages": 6248,
      "cidents": 6249,
      "acteur": 6250,
      "Ġdistin": 6251,
      "ĠlibÃ©rer": 6252,
      "Ġbanli": 6253,
      "ĠgÃ©nÃ©tiques": 6254,
      "Ġfrank": 6255,
      "empathie": 6256,
      "Ġpensions": 6257,
      "ĠrÃ©serve": 6258,
      "Ġinvestir": 6259,
      "dd": 6260,
      "Ġtol": 6261,
      "Ġflu": 6262,
      "Ġflex": 6263,
      "ĠfÃ©d": 6264,
      "Ġgay": 6265,
      "osion": 6266,
      "onnÃ©s": 6267,
      "agÃ©s": 6268,
      "Ġsurp": 6269,
      "Ġdiction": 6270,
      "ulsion": 6271,
      "ĠprÃª": 6272,
      "ĠnoÃ«l": 6273,
      "autisme": 6274,
      "Ġimpression": 6275,
      "Ġimportance": 6276,
      "Ġconnue": 6277,
      "Ġpoliticiens": 6278,
      "Ġbasse": 6279,
      "Ġcouches": 6280,
      "Ġclient": 6281,
      "Ġcollective": 6282,
      "Ġdiriger": 6283,
      "Ġpratiquement": 6284,
      "ĠÃ©toile": 6285,
      "ĠcamÃ©ras": 6286,
      "Ġinfluenc": 6287,
      "ĠmÃ©dicale": 6288,
      "Ġchirurgie": 6289,
      "Ġsensi": 6290,
      "ĠdifficultÃ©s": 6291,
      "Ġmichael": 6292,
      "Ġpoursuivre": 6293,
      "ĠmammifÃ¨res": 6294,
      "Ġrussie": 6295,
      "eh": 6296,
      "Ġu": 6297,
      "enreg": 6298,
      "Ã©rop": 6299,
      "unitÃ©": 6300,
      "Ġparo": 6301,
      "Ġlevez": 6302,
      "siÃ¨re": 6303,
      "Ġec": 6304,
      "Ã©to": 6305,
      "oint": 6306,
      "ott": 6307,
      "Ġvieilles": 6308,
      "ocr": 6309,
      "lub": 6310,
      "alitÃ©s": 6311,
      "Ġtrouvait": 6312,
      "ĠdÃ©faut": 6313,
      "titution": 6314,
      "ĠtournÃ©": 6315,
      "ĠorganisÃ©": 6316,
      "Ġfranchement": 6317,
      "Ġtraje": 6318,
      "Ġmamm": 6319,
      "ĠmathÃ©mati": 6320,
      "ĠdÃ©penser": 6321,
      "ĠprocÃ©dÃ©": 6322,
      "ĠfrÃ©quence": 6323,
      "ĠcaractÃ¨re": 6324,
      "aw": 6325,
      "cÃ©": 6326,
      "fie": 6327,
      "len": 6328,
      "Ġpur": 6329,
      "Ġcm": 6330,
      "entend": 6331,
      "Ġvues": 6332,
      "istÃ©": 6333,
      "Ġfati": 6334,
      "Ġlecture": 6335,
      "Ã¨nent": 6336,
      "ĠÃ©met": 6337,
      "onnÃ©es": 6338,
      "ĠrÃ©unis": 6339,
      "Ġiran": 6340,
      "Ġvote": 6341,
      "Ġapporte": 6342,
      "Ã©coute": 6343,
      "espÃ¨ce": 6344,
      "Ġmilitaire": 6345,
      "ĠliÃ©es": 6346,
      "ĠcrÃ©atif": 6347,
      "Ġaident": 6348,
      "Ġbiologiques": 6349,
      "Ġincap": 6350,
      "Ġcombusti": 6351,
      "Ġtropic": 6352,
      "ĠrÃ©flÃ©chi": 6353,
      "ĠÃ©lÃ©ph": 6354,
      "ĠprotÃ©ine": 6355,
      "ĠquantitÃ©s": 6356,
      "Ġfoule": 6357,
      "ĠvÃ©ritablement": 6358,
      "Ġsuscepti": 6359,
      "Ġprofessionnels": 6360,
      "Ġcirculation": 6361,
      "Ġstimul": 6362,
      "Ġ/&": 6363,
      "fin": 6364,
      "fait": 6365,
      "Ġlourd": 6366,
      "ouill": 6367,
      "eth": 6368,
      "Ġnor": 6369,
      "Ġtente": 6370,
      "Ġfleur": 6371,
      "ressent": 6372,
      "ĠrÃ©duction": 6373,
      "Ġdiag": 6374,
      "acÃ©": 6375,
      "Ġgraines": 6376,
      "Ġdevin": 6377,
      "Ġperp": 6378,
      "âĻ«": 6379,
      "Ġlongueur": 6380,
      "ribut": 6381,
      "ĠÃ©pau": 6382,
      "Ġpuissiez": 6383,
      "ĠÃ©lectronique": 6384,
      "Ġcollis": 6385,
      "Ġislam": 6386,
      "Ġpsychologie": 6387,
      "Ġcarburant": 6388,
      "Ġpositive": 6389,
      "Ġpartenaire": 6390,
      "ĠparallÃ¨": 6391,
      "adapter": 6392,
      "Ġmusulmans": 6393,
      "ercice": 6394,
      "ĠrÃ©publi": 6395,
      "cend": 6396,
      "gence": 6397,
      "hom": 6398,
      "laud": 6399,
      "Ġur": 6400,
      "oubli": 6401,
      "Ġmass": 6402,
      "ung": 6403,
      "Ġsurmont": 6404,
      "Ġdiver": 6405,
      "iditÃ©": 6406,
      "Ġjusque": 6407,
      "Ġamoureux": 6408,
      "Ġstan": 6409,
      "Ġimagination": 6410,
      "Ġinfirmi": 6411,
      "ĠdÃ©test": 6412,
      "ĠÃ©lectro": 6413,
      "ĠnÃ©cessairement": 6414,
      "Ġoffre": 6415,
      "versitÃ©": 6416,
      "Ġchansons": 6417,
      "Ġdiminuer": 6418,
      "Ġinfluence": 6419,
      "Ġretirer": 6420,
      "Ġconnexions": 6421,
      "ĠprÃ©cÃ©dent": 6422,
      "Ġbaleines": 6423,
      "Ġprototype": 6424,
      "table": 6425,
      "ĠpÃ©": 6426,
      "Ġvagues": 6427,
      "tig": 6428,
      "Ġjuri": 6429,
      "omique": 6430,
      "Ġrose": 6431,
      "roid": 6432,
      "Ġchaise": 6433,
      "Ġintr": 6434,
      "sif": 6435,
      "outant": 6436,
      "abe": 6437,
      "Ã©normes": 6438,
      "Ġdiscu": 6439,
      "Ã©couter": 6440,
      "entielle": 6441,
      "Ġ27": 6442,
      "ĠrestÃ©": 6443,
      "Ġavantage": 6444,
      "Ġsignes": 6445,
      "Ġsolide": 6446,
      "Ġmises": 6447,
      "Ġcoupe": 6448,
      "Ġappartement": 6449,
      "Ġremarquer": 6450,
      "ĠnumÃ©riques": 6451,
      "Ġgaranti": 6452,
      "ĠguÃ©r": 6453,
      "ĠreÃ§oivent": 6454,
      "Ġmobile": 6455,
      "Ġemmener": 6456,
      "ĠdiplÃ´me": 6457,
      "Ġpattes": 6458,
      "Ġalgorithmes": 6459,
      "ibilitÃ©": 6460,
      "rus": 6461,
      "Ġfous": 6462,
      "Ã¨dent": 6463,
      "ansion": 6464,
      "Ġtrom": 6465,
      "Ġproje": 6466,
      "ĠprÃ©vis": 6467,
      "Ġdonnait": 6468,
      "Ġterrit": 6469,
      "Ġexposition": 6470,
      "Ġvisuelle": 6471,
      "Ġmatch": 6472,
      "ĠmÃ©dia": 6473,
      "associ": 6474,
      "Ġsalaire": 6475,
      "Ġtrouverez": 6476,
      "Ġ2007": 6477,
      "gnÃ©e": 6478,
      "ĠtraitÃ©": 6479,
      "Ġcalculs": 6480,
      "ĠamÃ©lior": 6481,
      "Ġdimension": 6482,
      "Ġcommercial": 6483,
      "Ġcombattre": 6484,
      "Ġradicalement": 6485,
      "aucun": 6486,
      "Ġvaisseaux": 6487,
      "ĠtÃ©lescope": 6488,
      "ĠcinÃ©ma": 6489,
      "honn": 6490,
      "haut": 6491,
      "vin": 6492,
      "Ã©mo": 6493,
      "Ġpin": 6494,
      "Ġpair": 6495,
      "Ġvillages": 6496,
      "ĠnÃ©e": 6497,
      "ĠÃ©par": 6498,
      "Ġgps": 6499,
      "ĠparaÃ®t": 6500,
      "andÃ©": 6501,
      "Ġmoelle": 6502,
      "Ġconten": 6503,
      "Ġtravaillait": 6504,
      "Ġmesur": 6505,
      "Ġcass": 6506,
      "Ġminist": 6507,
      "accomp": 6508,
      "annique": 6509,
      "Ġsoie": 6510,
      "Ġescal": 6511,
      "Ġordinaires": 6512,
      "afghanistan": 6513,
      "tionnelle": 6514,
      "Ġsentais": 6515,
      "intÃ©ress": 6516,
      "Ġpapa": 6517,
      "ĠbÃ©nÃ©fici": 6518,
      "ĠcuriositÃ©": 6519,
      "Ġartificielle": 6520,
      "Ġrespirer": 6521,
      "Ġcirconst": 6522,
      "ker": 6523,
      "matis": 6524,
      "Ġdat": 6525,
      "Ġsam": 6526,
      "ĠÃ¨": 6527,
      "itations": 6528,
      "Ġgasp": 6529,
      "cieuse": 6530,
      "ressions": 6531,
      "olat": 6532,
      "amine": 6533,
      "Ġvraies": 6534,
      "Ġtravaillais": 6535,
      "ĠliÃ©e": 6536,
      "apprÃ©": 6537,
      "Ġregret": 6538,
      "ulteurs": 6539,
      "Ġprogressi": 6540,
      "Ġemprun": 6541,
      "ĠdÃ©sas": 6542,
      "ĠexpliquÃ©": 6543,
      "ĠracontÃ©": 6544,
      "ĠgÃ©ant": 6545,
      "Ġtoile": 6546,
      "Ġtraditionnelle": 6547,
      "Ġencourager": 6548,
      "Ġsms": 6549,
      "ĠsuggÃ¨re": 6550,
      "ĠmÃ¢les": 6551,
      "emploi": 6552,
      "Ġtransparence": 6553,
      "Ġstatut": 6554,
      "Ġcentim": 6555,
      "ĠlittÃ©rature": 6556,
      "Ġcadeau": 6557,
      "Ġ&": 6558,
      "Ġordre": 6559,
      "Ġacteurs": 6560,
      "reinte": 6561,
      "Ġfum": 6562,
      "Ġrw": 6563,
      "Ġrares": 6564,
      "Ġpourront": 6565,
      "Ġtrau": 6566,
      "ĠtraÃ®": 6567,
      "Ġhack": 6568,
      "midi": 6569,
      "Ã©rateur": 6570,
      "otes": 6571,
      "Ġvoies": 6572,
      "ĠmÃ©tÃ©": 6573,
      "imagine": 6574,
      "Ġclaire": 6575,
      "Ġconcurr": 6576,
      "Ġassise": 6577,
      "Ã©rÃ©ment": 6578,
      "Ġprofondes": 6579,
      "empÃª": 6580,
      "ĠprÃ©vu": 6581,
      "ĠdÃ©chi": 6582,
      "Ġjaponais": 6583,
      "Ġpilote": 6584,
      "ĠÃ©vÃ©nements": 6585,
      "Ġscolaire": 6586,
      "ĠarrÃªte": 6587,
      "ollywood": 6588,
      "anthrop": 6589,
      "Ġstreet": 6590,
      "ive": 6591,
      "ks": 6592,
      "oter": 6593,
      "vier": 6594,
      "Ġvendu": 6595,
      "tiers": 6596,
      "aisons": 6597,
      "Ġchrom": 6598,
      "Ġtraf": 6599,
      "Ġcommis": 6600,
      "inspiration": 6601,
      "ĠgÃ©nÃ©rer": 6602,
      "Ġtransmet": 6603,
      "Ġessayent": 6604,
      "ĠprÃ©sents": 6605,
      "Ġassurer": 6606,
      "Ġportent": 6607,
      "Ġsalles": 6608,
      "Ġrapides": 6609,
      "Ġdomes": 6610,
      "ĠspÃ©cifiques": 6611,
      "Ġobserve": 6612,
      "Ġlocales": 6613,
      "Ġprovenant": 6614,
      "Ġcrain": 6615,
      "Ġoppos": 6616,
      "ĠconsidÃ©rÃ©": 6617,
      "Ġoreilles": 6618,
      "Ġstudio": 6619,
      "jug": 6620,
      "mm": 6621,
      "tine": 6622,
      "Ġpul": 6623,
      "Ġbot": 6624,
      "Ġger": 6625,
      "Ġchasse": 6626,
      "oler": 6627,
      "Ġhos": 6628,
      "Ġong": 6629,
      "Ġarm": 6630,
      "Ġpensant": 6631,
      "Ġanniversaire": 6632,
      "Ġpuce": 6633,
      "Ġcorail": 6634,
      "Ġmuscles": 6635,
      "ĠdÃ©mÃ©n": 6636,
      "Ġblan": 6637,
      "Ġprenant": 6638,
      "Ġcoups": 6639,
      "ĠÃ©conomistes": 6640,
      "Ġthom": 6641,
      "Ġorganisme": 6642,
      "Ġcontinuent": 6643,
      "animaux": 6644,
      "Ġcapitalisme": 6645,
      "Ġsymbole": 6646,
      "Ġmicroscope": 6647,
      "ĠsupÃ©rieur": 6648,
      "Ġmultiples": 6649,
      "analyse": 6650,
      "roup": 6651,
      "ennes": 6652,
      "Ġpes": 6653,
      "Ġclub": 6654,
      "Ġplage": 6655,
      "ĠdÃ©n": 6656,
      "Ġoct": 6657,
      "ĠentrÃ©": 6658,
      "Ġdonnons": 6659,
      "Ġexpon": 6660,
      "Ġsoulig": 6661,
      "Ġcomprom": 6662,
      "Ġrecord": 6663,
      "Ġcourag": 6664,
      "Ġglaci": 6665,
      "Ġtransports": 6666,
      "infrastru": 6667,
      "Ġcontemp": 6668,
      "ĠcollÃ¨gue": 6669,
      "appeler": 6670,
      "engager": 6671,
      "ĠconnectÃ©": 6672,
      "Ġjournalistes": 6673,
      "ĠretrouvÃ©": 6674,
      "armac": 6675,
      "ĠagrÃ©able": 6676,
      "dge": 6677,
      "gl": 6678,
      "hor": 6679,
      "rage": 6680,
      "taient": 6681,
      "Ġonc": 6682,
      "Ġfos": 6683,
      "Ġence": 6684,
      "Ġbond": 6685,
      "aler": 6686,
      "Ġremet": 6687,
      "Ġox": 6688,
      "dictions": 6689,
      "Ġcolor": 6690,
      "Ġconnait": 6691,
      "Ġattrap": 6692,
      "Ġconcert": 6693,
      "Ġraisonn": 6694,
      "Ġprimi": 6695,
      "exprimer": 6696,
      "ĠrÃ©alise": 6697,
      "Ġportes": 6698,
      "Ġagents": 6699,
      "ĠÃ©pous": 6700,
      "ĠformÃ©": 6701,
      "ĠretournÃ©": 6702,
      "Ġaliments": 6703,
      "ultime": 6704,
      "ĠcrÃ¢": 6705,
      "Ġramen": 6706,
      "Ġtrajet": 6707,
      "urgence": 6708,
      "Ġparticipation": 6709,
      "Ġancienne": 6710,
      "Ġcurieux": 6711,
      "Ġrarement": 6712,
      "Ġrejoindre": 6713,
      "ĠÃ®les": 6714,
      "Ġautomatiquement": 6715,
      "trÃ©m": 6716,
      "ueillir": 6717,
      "Ġchromos": 6718,
      "oft": 6719,
      "Ġpun": 6720,
      "Ġsw": 6721,
      "ĠsÅĵurs": 6722,
      "Ġalex": 6723,
      "anes": 6724,
      "Ġquali": 6725,
      "estes": 6726,
      "Ġrat": 6727,
      "Ġplain": 6728,
      "ĠÃ©tais": 6729,
      "Ġquelconque": 6730,
      "Ã©raux": 6731,
      "ĠcrÃ©ature": 6732,
      "Ġpuisqu": 6733,
      "ĠdÃ©comp": 6734,
      "Ġpartagent": 6735,
      "Ġvisible": 6736,
      "Ġprofiter": 6737,
      "Ġsuivent": 6738,
      "Ġdoul": 6739,
      "ĠÃ©pin": 6740,
      "ĠopÃ©rations": 6741,
      "Ġsentez": 6742,
      "Ġsubv": 6743,
      "Ġjeunesse": 6744,
      "Ġbureaux": 6745,
      "Ġessentiel": 6746,
      "itives": 6747,
      "Ġdocteurs": 6748,
      "ĠbÃ©nÃ©fices": 6749,
      "Ġaccomplir": 6750,
      "Ġpartenari": 6751,
      "ĠmÃ©rite": 6752,
      "Ġarchitectes": 6753,
      "Ġpyra": 6754,
      "ĠdÃ®ner": 6755,
      "ĠdÃ©monstration": 6756,
      "Ġfauteuil": 6757,
      "Ġjanvier": 6758,
      "Ġtrafic": 6759,
      "brale": 6760,
      "gnent": 6761,
      "ju": 6762,
      "uellement": 6763,
      "xi": 6764,
      "ouille": 6765,
      "ĠaÃ©ri": 6766,
      "Ġfoyer": 6767,
      "ity": 6768,
      "ĠlevÃ©": 6769,
      "Ġrace": 6770,
      "usage": 6771,
      "alors": 6772,
      "sifs": 6773,
      "Ġhoriz": 6774,
      "Ġdiab": 6775,
      "ander": 6776,
      "Ġod": 6777,
      "Ġvoc": 6778,
      "ĠprÃªte": 6779,
      "ertissement": 6780,
      "instru": 6781,
      "enseign": 6782,
      "Ġactive": 6783,
      "ĠmÃ©tier": 6784,
      "Ã®le": 6785,
      "issante": 6786,
      "Ġpoly": 6787,
      "ĠdÃ©veloppe": 6788,
      "ĠsÃ»rs": 6789,
      "Ġsaison": 6790,
      "Ġsaisir": 6791,
      "ĠsÃ©p": 6792,
      "Ġremonte": 6793,
      "Ġloint": 6794,
      "Ġfich": 6795,
      "Ġrapports": 6796,
      "ĠcomparÃ©": 6797,
      "ĠplacÃ©": 6798,
      "Ġsoudainement": 6799,
      "Ġspatiale": 6800,
      "dy": 6801,
      "mais": 6802,
      "monie": 6803,
      "rin": 6804,
      "sol": 6805,
      "Ġlux": 6806,
      "entique": 6807,
      "Ġvente": 6808,
      "Ġtar": 6809,
      "Ġtours": 6810,
      "ara": 6811,
      "chn": 6812,
      "atoires": 6813,
      "avi": 6814,
      "avance": 6815,
      "ĠÃ©tern": 6816,
      "Ġmotif": 6817,
      "Ġcontro": 6818,
      "Ġsachant": 6819,
      "lÃ¨te": 6820,
      "Ġinterac": 6821,
      "Ġinteragir": 6822,
      "Ġsouci": 6823,
      "Ġfruits": 6824,
      "ĠÃ©chapp": 6825,
      "Ã©quilibre": 6826,
      "Ġfabule": 6827,
      "axe": 6828,
      "ĠrÃ©unir": 6829,
      "Ġattaques": 6830,
      "Ã©quip": 6831,
      "Ġdiplom": 6832,
      "Ġgamin": 6833,
      "Ġfolle": 6834,
      "Ġminuscule": 6835,
      "Ġtranqu": 6836,
      "Ġaccessible": 6837,
      "hydrogÃ¨ne": 6838,
      "Ġcirconstances": 6839,
      "crit": 6840,
      "zaine": 6841,
      "Ã©mer": 6842,
      "Ġsois": 6843,
      "islam": 6844,
      "Ġfur": 6845,
      "Ġbag": 6846,
      "Ġinhab": 6847,
      "Ġpersu": 6848,
      "Ġcontribuer": 6849,
      "Ġatomes": 6850,
      "Ġfinit": 6851,
      "images": 6852,
      "ĠmodÃ©l": 6853,
      "Ġsecrets": 6854,
      "Ġsauter": 6855,
      "uvres": 6856,
      "ĠrelÃ¢": 6857,
      "Ġconscient": 6858,
      "Ġoffert": 6859,
      "Ġsouffle": 6860,
      "Ġkilos": 6861,
      "ĠdÃ©char": 6862,
      "ĠingÃ©nieur": 6863,
      "oxyde": 6864,
      "ĠcensÃ©": 6865,
      "Ġaveugle": 6866,
      "Ġchirurgien": 6867,
      "ĠrÃ©sid": 6868,
      "Ġparadis": 6869,
      "ĠpossÃ©d": 6870,
      "Ġridicule": 6871,
      "Ġgratuitement": 6872,
      "ĠintitulÃ©": 6873,
      "nelle": 6874,
      "ĠdensitÃ©": 6875,
      "Ġmuni": 6876,
      "Ġparas": 6877,
      "Ġplaf": 6878,
      "onnent": 6879,
      "ĠrÃ©serv": 6880,
      "Ġanony": 6881,
      "Ġcomparer": 6882,
      "Ã©sitÃ©": 6883,
      "Ã©ral": 6884,
      "Ġappuy": 6885,
      "institut": 6886,
      "ĠdÃ©cÃ¨s": 6887,
      "Ġacqu": 6888,
      "Ġchaos": 6889,
      "Ġenvoie": 6890,
      "Ġstar": 6891,
      "Ġcolonie": 6892,
      "Ġportrait": 6893,
      "mÃ©di": 6894,
      "Ġindique": 6895,
      "Ġindiens": 6896,
      "tionnel": 6897,
      "Ġsubt": 6898,
      "Ġsexuelle": 6899,
      "Ġcroyances": 6900,
      "Ġexplor": 6901,
      "Ġcity": 6902,
      "ĠÃ©nergies": 6903,
      "Ġcalculer": 6904,
      "ĠÃ©voluer": 6905,
      "Ġantibi": 6906,
      "Ġapprenons": 6907,
      "ĠstratÃ©gies": 6908,
      "Ġprofessionnel": 6909,
      "Ġbombe": 6910,
      "Ġremarquez": 6911,
      "ĠenregistrÃ©": 6912,
      "amÃ©ricains": 6913,
      "exploitation": 6914,
      "Ġvacances": 6915,
      "Ġcordes": 6916,
      "enregistre": 6917,
      "ĠsphÃ¨re": 6918,
      "Ġnar": 6919,
      "ĠnÃ©an": 6920,
      "Ġboire": 6921,
      "roc": 6922,
      "arbre": 6923,
      "ĠÃ©vent": 6924,
      "Ġgel": 6925,
      "ĠchrÃ©": 6926,
      "rime": 6927,
      "ĠextÃ©rieur": 6928,
      "cool": 6929,
      "Ġserai": 6930,
      "ader": 6931,
      "observ": 6932,
      "extr": 6933,
      "opÃ©ration": 6934,
      "Ġclasses": 6935,
      "Ġattach": 6936,
      "Ġpiano": 6937,
      "Ġmini": 6938,
      "Ġpolio": 6939,
      "ĠÃ©levÃ©e": 6940,
      "titudes": 6941,
      "Ġaffect": 6942,
      "Ġprintemps": 6943,
      "Ġprincipaux": 6944,
      "Ġjugement": 6945,
      "ieuses": 6946,
      "Ġtempor": 6947,
      "atrices": 6948,
      "Ġfournit": 6949,
      "Ġpotentiellement": 6950,
      "Ġ1990": 6951,
      "Ġsilen": 6952,
      "Ġparticipants": 6953,
      "Ġmangent": 6954,
      "Ġremonter": 6955,
      "Ġadolescents": 6956,
      "souris": 6957,
      "Ġbidon": 6958,
      "dess": 6959,
      "oÃ»t": 6960,
      "uve": 6961,
      "ension": 6962,
      "Ġpm": 6963,
      "Ġcents": 6964,
      "ĠquÃªte": 6965,
      "Ġts": 6966,
      "Ġtue": 6967,
      "isc": 6968,
      "ĠunitÃ©": 6969,
      "organ": 6970,
      "ela": 6971,
      "Ġghan": 6972,
      "Ġed": 6973,
      "ablir": 6974,
      "activ": 6975,
      "Ġarme": 6976,
      "ĠcrÃ©ant": 6977,
      "Ġasie": 6978,
      "Ġvib": 6979,
      "Ġpoumons": 6980,
      "ĠmontÃ©": 6981,
      "Ġfausse": 6982,
      "allons": 6983,
      "ouverture": 6984,
      "intro": 6985,
      "Ġrobert": 6986,
      "Ġ2005": 6987,
      "Ġconnect": 6988,
      "ĠÃ©lectroniques": 6989,
      "Ġforts": 6990,
      "ĠimpliquÃ©": 6991,
      "Ġsacri": 6992,
      "ĠfrappÃ©": 6993,
      "Ġrequin": 6994,
      "Ġdocuments": 6995,
      "heim": 6996,
      "ĠfinanciÃ¨re": 6997,
      "Ġroman": 6998,
      "Ġanalyser": 6999,
      "licitÃ©": 7000,
      "Ġbritannique": 7001,
      "augmentation": 7002,
      "scuritÃ©": 7003,
      "Ġoptimiste": 7004,
      "ĠÃ¨re": 7005,
      "ĠnÃ©anmoins": 7006,
      "bel": 7007,
      "comm": 7008,
      "disme": 7009,
      "fl": 7010,
      "ĠpÃ´le": 7011,
      "Ġfoc": 7012,
      "ĠingrÃ©": 7013,
      "ĠrÃ©cep": 7014,
      "iran": 7015,
      "Ã©tape": 7016,
      "Ġmarqu": 7017,
      "Ġseuil": 7018,
      "Ġacquis": 7019,
      "Ġexpression": 7020,
      "Ġpub": 7021,
      "Ġcoraux": 7022,
      "Ġinterne": 7023,
      "Ġinteractions": 7024,
      "Ã©glise": 7025,
      "Ġeffort": 7026,
      "ĠdÃ©veloppent": 7027,
      "Ġaccue": 7028,
      "Ġblague": 7029,
      "Ġcouper": 7030,
      "Ġsoigner": 7031,
      "artiste": 7032,
      "Ġrendue": 7033,
      "Ġnaturels": 7034,
      "Ġrefus": 7035,
      "Ġtendances": 7036,
      "Ġintelligence": 7037,
      "ĠpayÃ©": 7038,
      "ĠÅĵu": 7039,
      "Ġleader": 7040,
      "ĠprÃ©sid": 7041,
      "Ġculturelle": 7042,
      "Ġdiagnosti": 7043,
      "Ã©tudier": 7044,
      "ĠÃ©chantillons": 7045,
      "Ġtalents": 7046,
      "ĠingrÃ©di": 7047,
      "blement": 7048,
      "ip": 7049,
      "tagne": 7050,
      "Ġpant": 7051,
      "Ġquad": 7052,
      "ĠnÃ´tre": 7053,
      "chestre": 7054,
      "lige": 7055,
      "Ġdign": 7056,
      "irait": 7057,
      "uiss": 7058,
      "autor": 7059,
      "Ġmartin": 7060,
      "Ġpharmac": 7061,
      "ĠmÃ©g": 7062,
      "Ġenvah": 7063,
      "Ġfaisions": 7064,
      "Ã®tre": 7065,
      "Ġ32": 7066,
      "mination": 7067,
      "ĠdÃ©veloppÃ©s": 7068,
      "bretagne": 7069,
      "ĠprocÃ¨s": 7070,
      "Ġbasi": 7071,
      "Ġopen": 7072,
      "ĠtÃ©lÃ©phon": 7073,
      "Ġmalades": 7074,
      "ĠcomposÃ©": 7075,
      "Ġparcours": 7076,
      "Ġanalyse": 7077,
      "Ġlaboratoires": 7078,
      "ĠÃ©quilibre": 7079,
      "exploration": 7080,
      "important": 7081,
      "Ġsusp": 7082,
      "Ġparking": 7083,
      "ministration": 7084,
      "ĠsystÃ©matique": 7085,
      "Ġthomas": 7086,
      "Ġplafond": 7087,
      "%,": 7088,
      "bie": 7089,
      "Ġlin": 7090,
      "Ġner": 7091,
      "Ġnage": 7092,
      "Ġbob": 7093,
      "arme": 7094,
      "Ġchr": 7095,
      "Ġalli": 7096,
      "ĠdÃ©col": 7097,
      "Ġ36": 7098,
      "ĠintÃ©grÃ©": 7099,
      "ĠintÃ©resse": 7100,
      "accro": 7101,
      "Ġconfir": 7102,
      "rammes": 7103,
      "Ġconstruite": 7104,
      "ĠuniversitÃ©s": 7105,
      "hiop": 7106,
      "ĠrÃ©unions": 7107,
      "Ġattaque": 7108,
      "Ġdiverses": 7109,
      "Ġconseils": 7110,
      "Ġfinancier": 7111,
      "Ġidentiques": 7112,
      "Ġhaw": 7113,
      "Ġattirer": 7114,
      "Ġmascul": 7115,
      "Ġreconstru": 7116,
      "Ġspatial": 7117,
      "Ġjoli": 7118,
      "ĠnigÃ©ri": 7119,
      "ĠproductivitÃ©": 7120,
      "ĠmystÃ¨re": 7121,
      "influence": 7122,
      "Ġtrajectoire": 7123,
      "mas": 7124,
      "nd": 7125,
      "oo": 7126,
      "pas": 7127,
      "Ġpdg": 7128,
      "Ġmos": 7129,
      "Ġquart": 7130,
      "cevez": 7131,
      "osphÃ¨re": 7132,
      "ald": 7133,
      "Ġinnovation": 7134,
      "ĠrÃ©agir": 7135,
      "Ġev": 7136,
      "orth": 7137,
      "Ġtraverse": 7138,
      "checs": 7139,
      "ĠprÃ©cip": 7140,
      "ĠmillÃ©": 7141,
      "Ġvieil": 7142,
      "Ġpoulet": 7143,
      "Ġexpert": 7144,
      "ĠrÃ©putation": 7145,
      "Ġinsp": 7146,
      "Ġvouliez": 7147,
      "Ġvivaient": 7148,
      "Ġdemandant": 7149,
      "Ġbron": 7150,
      "ĠsauvÃ©": 7151,
      "ĠintÃ©ressants": 7152,
      "Ġbarre": 7153,
      "ĠprÃ©fÃ¨re": 7154,
      "Ġemm": 7155,
      "Ġsacs": 7156,
      "ĠtÃ©moi": 7157,
      "ĠÃ©trangers": 7158,
      "ĠÃ©coutez": 7159,
      "Ġprimaire": 7160,
      "Ġallemand": 7161,
      "ĠÃ©chantillon": 7162,
      ".,": 7163,
      "aa": 7164,
      "gÃ©es": 7165,
      "ls": 7166,
      "Ġdent": 7167,
      "Ġcav": 7168,
      "Ġculti": 7169,
      "Ġquar": 7170,
      "union": 7171,
      "Ġpalu": 7172,
      "Ã¨tent": 7173,
      "Ġrot": 7174,
      "Ġrock": 7175,
      "Ġchanc": 7176,
      "ouvoir": 7177,
      "Ġeb": 7178,
      "Ġidi": 7179,
      "Ã©taires": 7180,
      "angleterre": 7181,
      "Ġservent": 7182,
      "Ġenfer": 7183,
      "ĠclÃ©s": 7184,
      "ĠÃ©valu": 7185,
      "Ġdemandais": 7186,
      "Ġador": 7187,
      "Ġpix": 7188,
      "Ġjouets": 7189,
      "ĠimaginÃ©": 7190,
      "Ġrespec": 7191,
      "Ġordinaire": 7192,
      "ĠrÃ©cente": 7193,
      "ĠapparaÃ®t": 7194,
      "ĠtombÃ©e": 7195,
      "ification": 7196,
      "ĠthÃ©ories": 7197,
      "ĠdÃ©mocratique": 7198,
      "ĠmÃ©canismes": 7199,
      "ĠnuclÃ©aires": 7200,
      "Ġvictime": 7201,
      "ĠsupÃ©rieure": 7202,
      "Ġreconstruire": 7203,
      "ĠcatÃ©gorie": 7204,
      "Ġbrevets": 7205,
      "ĠlÃ¨ve": 7206,
      "individus": 7207,
      "clavage": 7208,
      "Ġmusiciens": 7209,
      "Ġdauphins": 7210,
      "appareil": 7211,
      "ĠdÃ©sastre": 7212,
      "ĠdignitÃ©": 7213,
      "umes": 7214,
      "xe": 7215,
      "Ġpit": 7216,
      "erai": 7217,
      "Ġfar": 7218,
      "Ġchass": 7219,
      "allez": 7220,
      "agers": 7221,
      "Ġreten": 7222,
      "Ġhorm": 7223,
      "lication": 7224,
      "Ġexig": 7225,
      "lements": 7226,
      "Ã©ritÃ©": 7227,
      "copes": 7228,
      "Ġvivez": 7229,
      "Ġaigu": 7230,
      "ĠmontÃ©e": 7231,
      "Ġmanh": 7232,
      "Ġtransmis": 7233,
      "ĠrÃ©sol": 7234,
      "Ġrecycl": 7235,
      "Ġdemandait": 7236,
      "Ġboucle": 7237,
      "Ġlucra": 7238,
      "ĠtÃ©lÃ©char": 7239,
      "riblement": 7240,
      "ĠprÃ©cise": 7241,
      "Ġsupporter": 7242,
      "ĠsurvÃ©cu": 7243,
      "Ġuniversitaire": 7244,
      "Ġusa": 7245,
      "Ġfasc": 7246,
      "Ġreligieux": 7247,
      "ĠcaractÃ©ristique": 7248,
      "Ġsensibles": 7249,
      "Ġmicrosoft": 7250,
      "Ġcrev": 7251,
      "ĠrÃ©serves": 7252,
      "Ġphilosophie": 7253,
      "Ġtypique": 7254,
      "Ġniger": 7255,
      "ĠajoutÃ©": 7256,
      "Ġvieillissement": 7257,
      "Ġsculpture": 7258,
      "Ġgouvernance": 7259,
      "Ġlunettes": 7260,
      "Ġsn": 7261,
      "ĠvallÃ©e": 7262,
      "Ġunies": 7263,
      "Ġgras": 7264,
      "ĠdÃ©di": 7265,
      "ĠhÃ©li": 7266,
      "ĠsuÃ¨de": 7267,
      "Ġcesse": 7268,
      "Ã§aient": 7269,
      "ĠÃ©cri": 7270,
      "Ġarrivez": 7271,
      "alise": 7272,
      "adig": 7273,
      "attan": 7274,
      "Ã©rÃ©es": 7275,
      "ĠintÃ©ressÃ©s": 7276,
      "Ġinfant": 7277,
      "Ġinfini": 7278,
      "Ġvolant": 7279,
      "Ã©viter": 7280,
      "Ġrobotique": 7281,
      "ĠmÃ©tabol": 7282,
      "ĠapparaÃ®tre": 7283,
      "informatique": 7284,
      "ĠpoussÃ©": 7285,
      "incroy": 7286,
      "Ġsimulation": 7287,
      "Ġsouffrent": 7288,
      "Ġusines": 7289,
      "Ġconcentration": 7290,
      "ĠconsidÃ©rons": 7291,
      "ĠÃ©lab": 7292,
      "ĠsacrÃ©": 7293,
      "ĠbactÃ©rie": 7294,
      "Ġfroide": 7295,
      "Ġexamin": 7296,
      "Ġgamme": 7297,
      "ĠabandonnÃ©": 7298,
      "Ġfinanciers": 7299,
      "ĠmÃ¢le": 7300,
      "Ġinnovations": 7301,
      "ĠconfrontÃ©s": 7302,
      "Ġtribus": 7303,
      "Ġsatellites": 7304,
      "Ġinfrastructures": 7305,
      "Ġnorv": 7306,
      "Ġmanhattan": 7307,
      "ctives": 7308,
      "mage": 7309,
      "rite": 7310,
      "uie": 7311,
      "yt": 7312,
      "onu": 7313,
      "ouff": 7314,
      "Ġsinc": 7315,
      "entrer": 7316,
      "Ġvan": 7317,
      "Ġtop": 7318,
      "Ġeth": 7319,
      "Ġpatr": 7320,
      "Ġjob": 7321,
      "Ġrab": 7322,
      "Ġparadig": 7323,
      "Ġgris": 7324,
      "ĠentrÃ©e": 7325,
      "onnec": 7326,
      "ondance": 7327,
      "Ġphras": 7328,
      "ĠobsÃ©": 7329,
      "obÃ©sitÃ©": 7330,
      "Ġfemelle": 7331,
      "Ġmettant": 7332,
      "Ġferont": 7333,
      "Ġ65": 7334,
      "Ġpropose": 7335,
      "Ġoccasion": 7336,
      "Ġprincipales": 7337,
      "Ã©chapp": 7338,
      "Ġmarchent": 7339,
      "Ġexistence": 7340,
      "Ġbush": 7341,
      "Ġsilic": 7342,
      "ĠassociÃ©": 7343,
      "Ġintelligentes": 7344,
      "ĠirrÃ©": 7345,
      "ĠintÃ©gr": 7346,
      "Ġsauvage": 7347,
      "Ġconstruisent": 7348,
      "Ġplateforme": 7349,
      "ĠfenÃªtres": 7350,
      "Ġcardiaques": 7351,
      "ĠrÃ©vÃ©ler": 7352,
      "Ġpermanence": 7353,
      "Ġralentir": 7354,
      "inventer": 7355,
      "Ġastronom": 7356,
      "Ġspiritu": 7357,
      "Ġtraduire": 7358,
      "Ġgoutte": 7359,
      "ĠscÃ©nario": 7360,
      "Ġpingouins": 7361,
      "dessous": 7362,
      "Ġphrases": 7363,
      "ril": 7364,
      "ĠdelÃł": 7365,
      "Ġfit": 7366,
      "ala": 7367,
      "amis": 7368,
      "Ġdiss": 7369,
      "Ã©conom": 7370,
      "ĠcarrÃ©s": 7371,
      "obscuritÃ©": 7372,
      "illet": 7373,
      "Ġvache": 7374,
      "Ġclav": 7375,
      "Ġadam": 7376,
      "Ġenvironnements": 7377,
      "Ġprior": 7378,
      "exposition": 7379,
      "attendre": 7380,
      "Ġfaciles": 7381,
      "Ã©pidÃ©mie": 7382,
      "ĠproposÃ©": 7383,
      "Ġdisting": 7384,
      "Ġretourn": 7385,
      "Ġsecondaires": 7386,
      "Ġdescri": 7387,
      "Ġressource": 7388,
      "ĠbÃ©nÃ©v": 7389,
      "Ġcitoyen": 7390,
      "ositive": 7391,
      "Ġfaveur": 7392,
      "ĠconnectÃ©s": 7393,
      "Ġspectaculaire": 7394,
      "Ġquotidienne": 7395,
      "ĠÃ©chouÃ©": 7396,
      "Ġchocolat": 7397,
      "Ġsaint": 7398,
      "Ġfinancement": 7399,
      "Ġcircuit": 7400,
      "Ġobstacles": 7401,
      "Ġgigantes": 7402,
      "Ġpaludisme": 7403,
      "australie": 7404,
      "Ġcoins": 7405,
      "ĠmÃ©n": 7406,
      "anou": 7407,
      "Ġvap": 7408,
      "Ġnid": 7409,
      "Ġnormes": 7410,
      "ĠflÃ¨": 7411,
      "orp": 7412,
      "roite": 7413,
      "ĠparaÃ®tre": 7414,
      "Ġpardon": 7415,
      "Ġpassez": 7416,
      "Ġcho": 7417,
      "Ġplait": 7418,
      "cton": 7419,
      "Ã´ts": 7420,
      "Ġdiffus": 7421,
      "acement": 7422,
      "ĠÃ©cologique": 7423,
      "Ġcoch": 7424,
      "Ġconcentre": 7425,
      "Ġrevoir": 7426,
      "Ġprisonniers": 7427,
      "Ġsuperbe": 7428,
      "Ġindien": 7429,
      "humour": 7430,
      "Ġbanques": 7431,
      "Ġmarchand": 7432,
      "Ġimmun": 7433,
      "Ġtransporter": 7434,
      "affaire": 7435,
      "ĠrentrÃ©": 7436,
      "Ġindustrie": 7437,
      "ĠdÃ©penses": 7438,
      "Ġpartageons": 7439,
      "Ġaimez": 7440,
      "Ġtwe": 7441,
      "Ġoublier": 7442,
      "Ġremplir": 7443,
      "ĠcoopÃ©ration": 7444,
      "Ġprogrammation": 7445,
      "ĠcatÃ©gories": 7446,
      "Ġremercie": 7447,
      "Ġsurmonter": 7448,
      "!\"": 7449,
      ".Â»": 7450,
      "idi": 7451,
      "Ġpaire": 7452,
      "aid": 7453,
      "Ġjoy": 7454,
      "iteur": 7455,
      "cha": 7456,
      "olique": 7457,
      "Ġreine": 7458,
      "ouvre": 7459,
      "abl": 7460,
      "ulte": 7461,
      "Ġmec": 7462,
      "Ġentrent": 7463,
      "Ġmarques": 7464,
      "nip": 7465,
      "Ġserp": 7466,
      "Ġobama": 7467,
      "ĠcorrÃ©": 7468,
      "Ġpollen": 7469,
      "Ġincl": 7470,
      "Ġconcours": 7471,
      "Ġpires": 7472,
      "Ġsimpli": 7473,
      "Ġcinqui": 7474,
      "Ġmondiaux": 7475,
      "Ġproposer": 7476,
      "Ġoption": 7477,
      "interaction": 7478,
      "Ġsupermar": 7479,
      "Ġsupport": 7480,
      "Ġflui": 7481,
      "Ġdisposition": 7482,
      "Ġparlais": 7483,
      "ĠpoussiÃ¨re": 7484,
      "Ġjuin": 7485,
      "Ġjuge": 7486,
      "ĠlÃ©gumes": 7487,
      "Ġangleterre": 7488,
      "Ġessentielle": 7489,
      "ĠdÃ©clin": 7490,
      "Ġlutter": 7491,
      "Ġsatur": 7492,
      "ĠÃ©mergent": 7493,
      "Ġcongo": 7494,
      "Ġsinge": 7495,
      "Ġmobiles": 7496,
      "Ġmoustiques": 7497,
      "Ã©dition": 7498,
      "Ġtexas": 7499,
      "ĠdÃ©montrÃ©": 7500,
      "ĠÃ©tablir": 7501,
      "Ġmusulman": 7502,
      "Ġalternative": 7503,
      "Ġbourse": 7504,
      "Ġmiracle": 7505,
      "Ġcoca": 7506,
      "Ġstanford": 7507,
      "infrastructure": 7508,
      "tal": 7509,
      "ison": 7510,
      "inves": 7511,
      "Ġbur": 7512,
      "veillÃ©": 7513,
      "chait": 7514,
      "Ġretenir": 7515,
      "rÃ©t": 7516,
      "erser": 7517,
      "Ġdiable": 7518,
      "Ġdiront": 7519,
      "Ġentoure": 7520,
      "Ġconsist": 7521,
      "ignent": 7522,
      "Ġpersonnelles": 7523,
      "Ġregroup": 7524,
      "Ġamaz": 7525,
      "Ġvivait": 7526,
      "Ġvivante": 7527,
      "airage": 7528,
      "ĠrÃ©gler": 7529,
      "Ġcalme": 7530,
      "Ġhauts": 7531,
      "Ġracines": 7532,
      "Ġ800": 7533,
      "Ġcrimes": 7534,
      "ĠÃ©lÃ©g": 7535,
      "Ġangle": 7536,
      "Ġpotable": 7537,
      "ĠgÃ©omÃ©t": 7538,
      "ĠconstatÃ©": 7539,
      "essayais": 7540,
      "ĠnÃ©gatif": 7541,
      "Ġanalog": 7542,
      "Ġefficacement": 7543,
      "ĠcrÃ©atifs": 7544,
      "Ġ2011": 7545,
      "Ġmeurt": 7546,
      "Ġfortement": 7547,
      "Ġhyper": 7548,
      "Ġoccidentale": 7549,
      "Ġoiseau": 7550,
      "Ġ1980": 7551,
      "ĠidÃ©al": 7552,
      "Ġgolfe": 7553,
      "Ġparvenir": 7554,
      "Ġinvisibles": 7555,
      "Ġbaleine": 7556,
      "archie": 7557,
      "Ġparadox": 7558,
      "Ġzoom": 7559,
      "ĠdÃ©placent": 7560,
      "ĠstÃ©rÃ©": 7561,
      "Ġcompromis": 7562,
      "lan": 7563,
      "Ġdel": 7564,
      "ĠnÃ©s": 7565,
      "Ġtig": 7566,
      "Ġtim": 7567,
      "illement": 7568,
      "Ġpause": 7569,
      "Ġfan": 7570,
      "Ġjack": 7571,
      "Ġrh": 7572,
      "urance": 7573,
      "riers": 7574,
      "sim": 7575,
      "Ġallions": 7576,
      "Ġentendez": 7577,
      "Ġrestait": 7578,
      "Ġattentes": 7579,
      "Ġattraper": 7580,
      "Ġreviend": 7581,
      "Ġaccum": 7582,
      "ĠdÃ©fendre": 7583,
      "Ġsolaires": 7584,
      "Ã©pendant": 7585,
      "arth": 7586,
      "Ġapparaissent": 7587,
      "Ġpeindre": 7588,
      "Ġextraire": 7589,
      "Ġconnaissais": 7590,
      "timitÃ©": 7591,
      "Ġarrivons": 7592,
      "Ġcontinuons": 7593,
      "Ġmerveilleuses": 7594,
      "ectuer": 7595,
      "ĠpÃ©tro": 7596,
      "Ġouverts": 7597,
      "Ġchaude": 7598,
      "Ġcopie": 7599,
      "engagement": 7600,
      "Ġsuffisant": 7601,
      "Ġreproduction": 7602,
      "Ġouvre": 7603,
      "Ġsymboles": 7604,
      "Ġabandonner": 7605,
      "ĠpossÃ¨dent": 7606,
      "ĠemmenÃ©": 7607,
      "ĠÃ©loign": 7608,
      "Ġbrevet": 7609,
      "Ġsexuelles": 7610,
      "Ġconserver": 7611,
      "Ġennuyeux": 7612,
      "Ġchampignons": 7613,
      "ĠmystÃ©ri": 7614,
      "Ġantibiotiques": 7615,
      "asion": 7616,
      "col": 7617,
      "ji": 7618,
      "oz": 7619,
      "toi": 7620,
      "ye": 7621,
      "Ġlob": 7622,
      "ĠsÃ©n": 7623,
      "erait": 7624,
      "Ġtenu": 7625,
      "lev": 7626,
      "Ġpaquet": 7627,
      "ĠÃ©dit": 7628,
      "Ġchers": 7629,
      "atom": 7630,
      "tÃ©roÃ¯": 7631,
      "Ġsecteurs": 7632,
      "Ġdevienne": 7633,
      "Ġarb": 7634,
      "Ġarc": 7635,
      "ota": 7636,
      "Ġ28": 7637,
      "ĠcrÃ©ateurs": 7638,
      "ĠcachÃ©": 7639,
      "Ġessaient": 7640,
      "Ġkg": 7641,
      "Ġplani": 7642,
      "Ġsecours": 7643,
      "ĠfondÃ©": 7644,
      "Ġaffront": 7645,
      "Ġesc": 7646,
      "ĠÃ©change": 7647,
      "Ġreconnu": 7648,
      "Ġrefroid": 7649,
      "Ġappliquer": 7650,
      "ĠmÃ©lang": 7651,
      "Ġrayon": 7652,
      "Ġstatistique": 7653,
      "Ġchapitre": 7654,
      "Ġdiscussions": 7655,
      "Ġallemagne": 7656,
      "ĠsupplÃ©mentaire": 7657,
      "Ġaffecte": 7658,
      "ĠhypothÃ¨se": 7659,
      "Ġmythe": 7660,
      "ĠprivilÃ¨ge": 7661,
      "Ġhiggs": 7662,
      "Ġargument": 7663,
      "Ã©roport": 7664,
      "empÃªcher": 7665,
      "Ġghana": 7666,
      "Ġlucratif": 7667,
      "ling": 7668,
      "lantique": 7669,
      "uff": 7670,
      "Ġvus": 7671,
      "Ġnager": 7672,
      "Ġtiennent": 7673,
      "Ġuniques": 7674,
      "Ġfiction": 7675,
      "orde": 7676,
      "eler": 7677,
      "Ġrand": 7678,
      "ĠÃ©puis": 7679,
      "osex": 7680,
      "alle": 7681,
      "Ġtrace": 7682,
      "Ġsiff": 7683,
      "Ġiphone": 7684,
      "Ġdise": 7685,
      "Ġ26": 7686,
      "Ġactif": 7687,
      "Ġvoyages": 7688,
      "illons": 7689,
      "Ã©rale": 7690,
      "Ġclo": 7691,
      "Ġrecue": 7692,
      "Ġjouet": 7693,
      "ĠsimplicitÃ©": 7694,
      "Ġ195": 7695,
      "asseoir": 7696,
      "Ġinfin": 7697,
      "Ġ!\"": 7698,
      "ĠmÃ©tro": 7699,
      "Ġmenac": 7700,
      "Ġexplication": 7701,
      "ĠnÃ©cessite": 7702,
      "Ġmajeur": 7703,
      "Ġusage": 7704,
      "ĠinstallÃ©": 7705,
      "Ġinventer": 7706,
      "Ġtitres": 7707,
      "otechn": 7708,
      "Ġpeuples": 7709,
      "Ġexaminer": 7710,
      "Ġsauvages": 7711,
      "ĠÃ©tabl": 7712,
      "Ġvirtuel": 7713,
      "Ġconduite": 7714,
      "Ġbiodi": 7715,
      "Ġgolf": 7716,
      "Ġpierres": 7717,
      "ĠÃ©motionnelle": 7718,
      "Ġpatrimoin": 7719,
      "Ġmaternelle": 7720,
      "Ġterritoire": 7721,
      "Ġnigeria": 7722,
      "Ġinfantile": 7723,
      "can": 7724,
      "eil": 7725,
      "Ġsit": 7726,
      "ĠvÃ©tÃ©": 7727,
      "ĠtÃªtes": 7728,
      "intes": 7729,
      "Ġlaser": 7730,
      "iteurs": 7731,
      "arienne": 7732,
      "Ġgonf": 7733,
      "Ġjeff": 7734,
      "ciers": 7735,
      "ĠinÃ©galitÃ©": 7736,
      "aspect": 7737,
      "icitÃ©": 7738,
      "autom": 7739,
      "ĠimprÃ©": 7740,
      "Ġmary": 7741,
      "exam": 7742,
      "ĠpartagÃ©": 7743,
      "Ġautrefois": 7744,
      "Ġcoord": 7745,
      "Ġrepose": 7746,
      "ĠfermÃ©": 7747,
      "Ġcouple": 7748,
      "ĠÃ©pidÃ©mie": 7749,
      "Ġproposition": 7750,
      "ĠpÃ©riodes": 7751,
      "Ġballes": 7752,
      "ĠengagÃ©": 7753,
      "affaires": 7754,
      "Ġvariations": 7755,
      "Ġchinoise": 7756,
      "ĠÃ©vidence": 7757,
      "Ġfrappe": 7758,
      "tinction": 7759,
      "Ġtapis": 7760,
      "Ġafricain": 7761,
      "Ġanciennes": 7762,
      "ĠintÃ©grer": 7763,
      "Ġbaisser": 7764,
      "Ġconstruisons": 7765,
      "ĠÃ©tabli": 7766,
      "ĠdÃ©clarÃ©": 7767,
      "ĠavancÃ©e": 7768,
      "Ġrejoint": 7769,
      "ĠeuropÃ©enne": 7770,
      "aignÃ©e": 7771,
      "Ġeffrayant": 7772,
      "Ġneurolog": 7773,
      "Ġsanguins": 7774,
      "Ġintense": 7775,
      "ĠrÃ©guliÃ¨rement": 7776,
      "do": 7777,
      "ires": 7778,
      "jac": 7779,
      "lv": 7780,
      "Ġultime": 7781,
      "Ã©m": 7782,
      "Ġpoit": 7783,
      "Ġtun": 7784,
      "ties": 7785,
      "Ġlaver": 7786,
      "Ġjur": 7787,
      "onsci": 7788,
      "Ġenlever": 7789,
      "Ã¨ner": 7790,
      "ellu": 7791,
      "Ġbous": 7792,
      "Ġbol": 7793,
      "ardi": 7794,
      "onnaie": 7795,
      "agÃ©e": 7796,
      "Ġaventure": 7797,
      "acte": 7798,
      "Ġapport": 7799,
      "igner": 7800,
      "Ġdirections": 7801,
      "administration": 7802,
      "Ġvoyant": 7803,
      "imagerie": 7804,
      "Ġsuivantes": 7805,
      "Ġlaissent": 7806,
      "Ġapparu": 7807,
      "Ġarrivait": 7808,
      "Ġprovoque": 7809,
      "ĠÃ©tranger": 7810,
      "Ġ120": 7811,
      "Ġfassent": 7812,
      "Ġverts": 7813,
      "ĠpropriÃ©taire": 7814,
      "Ġvolontaire": 7815,
      "bliez": 7816,
      "Ġsensible": 7817,
      "Ġmensonge": 7818,
      "Ġcartograph": 7819,
      "ĠintÃ©rieur": 7820,
      "Ġminuscules": 7821,
      "Ġcircuits": 7822,
      "ĠalÃ©atoire": 7823,
      "Ġcontempor": 7824,
      "Ġpharmaceu": 7825,
      "arez": 7826,
      "itions": 7827,
      "ky": 7828,
      "Ġdh": 7829,
      "Ġlan": 7830,
      "ĠpÃ©r": 7831,
      "aitez": 7832,
      "Ġfal": 7833,
      "Ġbil": 7834,
      "Ġgi": 7835,
      "Ġgos": 7836,
      "osent": 7837,
      "osph": 7838,
      "ĠredÃ©": 7839,
      "ĠexÃ©cu": 7840,
      "essentiel": 7841,
      "autoritÃ©": 7842,
      "Ġsuisse": 7843,
      "phab": 7844,
      "Ġcommentaires": 7845,
      "Ġmillier": 7846,
      "ĠdÃ©passer": 7847,
      "Ġproduite": 7848,
      "Ġprisons": 7849,
      "Ġsensori": 7850,
      "intention": 7851,
      "Ġrio": 7852,
      "Ġesti": 7853,
      "ĠthÃ©rapie": 7854,
      "Ġobtenons": 7855,
      "Ġ95": 7856,
      "Ġcritiques": 7857,
      "ĠlÃ©gis": 7858,
      "Ġconscients": 7859,
      "Ġpromesse": 7860,
      "organiser": 7861,
      "ĠdÃ©pensÃ©": 7862,
      "Ġmouches": 7863,
      "ĠcÃ©rÃ©brale": 7864,
      "ĠÃ©coutÃ©": 7865,
      "Ġparcourir": 7866,
      "Ġcatastrophe": 7867,
      "individu": 7868,
      "Ġbiologistes": 7869,
      "Ġbulles": 7870,
      "Ġfermiers": 7871,
      "Ġinutile": 7872,
      "Ġdoctorat": 7873,
      "Ġdormir": 7874,
      "Ġbanlieue": 7875,
      "ĠdiabÃ¨te": 7876,
      "jou": 7877,
      "over": 7878,
      "oÃ¯": 7879,
      "ĠlinÃ©": 7880,
      "Ġcouvrir": 7881,
      "Ġcycl": 7882,
      "Ġmiss": 7883,
      "Ġjoin": 7884,
      "Ġraj": 7885,
      "ĠbiÃ¨re": 7886,
      "outent": 7887,
      "aband": 7888,
      "ĠÃ©tages": 7889,
      "Ġondes": 7890,
      "ĠmaÃ¯s": 7891,
      "Ġperc": 7892,
      "Ġvoyait": 7893,
      "illon": 7894,
      "Ġpublier": 7895,
      "Ġboul": 7896,
      "ĠdÃ©bats": 7897,
      "attente": 7898,
      "ĠÃ©lever": 7899,
      "Ġ2004": 7900,
      "Ġ700": 7901,
      "Ġdiscut": 7902,
      "Ġpoussent": 7903,
      "ĠbarriÃ¨re": 7904,
      "Ġsecondaire": 7905,
      "Ġfondamentales": 7906,
      "Ġconstante": 7907,
      "ĠguÃ©rir": 7908,
      "Ġcomparaison": 7909,
      "Ġvalley": 7910,
      "ĠÃ©mission": 7911,
      "ĠempÃªche": 7912,
      "Ġurbain": 7913,
      "Ġreprendre": 7914,
      "Ġfigure": 7915,
      "Ġolymp": 7916,
      "Ã©tranger": 7917,
      "Ġfootball": 7918,
      "ĠmolÃ©culaire": 7919,
      "Ġsignifiait": 7920,
      "Ġdevinez": 7921,
      "Ġpyramide": 7922,
      "heimer": 7923,
      "ĠcinquiÃ¨me": 7924,
      "ĠbiodiversitÃ©": 7925,
      "aqu": 7926,
      "aÃ§ant": 7927,
      "fond": 7928,
      "nam": 7929,
      "ool": 7930,
      "sa": 7931,
      "Ġmaire": 7932,
      "elier": 7933,
      "rol": 7934,
      "armes": 7935,
      "Ġglu": 7936,
      "Ġpli": 7937,
      "ĠavancÃ©": 7938,
      "ĠrÃ©duis": 7939,
      "Ġip": 7940,
      "copt": 7941,
      "adop": 7942,
      "Ġpeter": 7943,
      "fiÃ©es": 7944,
      "obre": 7945,
      "ĠrÃ©sumÃ©": 7946,
      "Ġvisiter": 7947,
      "Ġinclu": 7948,
      "ĠaccÃ©der": 7949,
      "ignor": 7950,
      "Ġassist": 7951,
      "ĠsÃ©v": 7952,
      "ĠsÃ©duis": 7953,
      "Ġprenait": 7954,
      "Ġpasserait": 7955,
      "Ġoptions": 7956,
      "Ġ2006": 7957,
      "ĠextrÃªmes": 7958,
      "ĠdÃ©tour": 7959,
      "Ġtechnologiques": 7960,
      "Ġsexes": 7961,
      "Ġconstater": 7962,
      "Ġvolontaires": 7963,
      "alimentation": 7964,
      "ĠÃ©clai": 7965,
      "ĠÃ©lÃ¨ve": 7966,
      "Ġattendent": 7967,
      "Ġbrillant": 7968,
      "right": 7969,
      "Ġarabes": 7970,
      "ĠplongÃ©e": 7971,
      "attaquer": 7972,
      "occupe": 7973,
      "Ġfaudra": 7974,
      "Ġoeuvre": 7975,
      "Ġautonome": 7976,
      "Ġpoitrine": 7977,
      "].": 7978,
      "enons": 7979,
      "quants": 7980,
      "ĠvÃ©n": 7981,
      "Ġvienne": 7982,
      "Ġsir": 7983,
      "ouvant": 7984,
      "Ġsupr": 7985,
      "ĠprÃ©co": 7986,
      "Ġmark": 7987,
      "Ġterriblement": 7988,
      "alisÃ©es": 7989,
      "Ġpaysages": 7990,
      "Ġking": 7991,
      "Ġinterf": 7992,
      "Ġtransmission": 7993,
      "ĠrÃ©sumer": 7994,
      "Ġboudd": 7995,
      "Ġassure": 7996,
      "Ġdurables": 7997,
      "ĠrÃ©gÃ©n": 7998,
      "Ġinformatiques": 7999,
      "Ġsignification": 8000,
      "ĠrÃ©pondent": 8001,
      "session": 8002,
      "Ġabstrait": 8003,
      "Ġparlaient": 8004,
      "ĠexcitÃ©": 8005,
      "Ġcamion": 8006,
      "ĠtotalitÃ©": 8007,
      "Ġfortes": 8008,
      "Ġtableaux": 8009,
      "ĠimpliquÃ©s": 8010,
      "ĠtroisiÃ¨mement": 8011,
      "Ġtension": 8012,
      "Ġglobe": 8013,
      "Ġalimentaires": 8014,
      "ĠÅĵuvres": 8015,
      "Ġinvestissement": 8016,
      "Ġinvestissements": 8017,
      "Ġtraditionnel": 8018,
      "ĠapprÃ©cier": 8019,
      "Ġvirtuelle": 8020,
      "huile": 8021,
      "ĠÃ©quipement": 8022,
      "ĠavancÃ©es": 8023,
      "aimais": 8024,
      "ĠÃ®le": 8025,
      "ĠsymÃ©trie": 8026,
      "Ġomnip": 8027,
      "Ġsandw": 8028,
      "Ġrendement": 8029,
      "Ġoccuper": 8030,
      "Ġintrins": 8031,
      "bien": 8032,
      "esclavage": 8033,
      "Ġpiste": 8034,
      "aiment": 8035,
      "Ġsonne": 8036,
      "ĠunitÃ©s": 8037,
      "Ġjo": 8038,
      "Ġgro": 8039,
      "ĠchÃ¨re": 8040,
      "allem": 8041,
      "ĠdÃ©ten": 8042,
      "Ġavan": 8043,
      "Ġhau": 8044,
      "Ġsection": 8045,
      "endroits": 8046,
      "Ġarchitecture": 8047,
      "Ã©cou": 8048,
      "Ġpercevoir": 8049,
      "Ġailes": 8050,
      "optimis": 8051,
      "Ġpuits": 8052,
      "Ġwilli": 8053,
      "Ġabus": 8054,
      "Ġrevue": 8055,
      "Ġcombatt": 8056,
      "Ġmuscle": 8057,
      "ĠtraversÃ©": 8058,
      "Ġpleurer": 8059,
      "afric": 8060,
      "Ġnourris": 8061,
      "Ġlibres": 8062,
      "azz": 8063,
      "ĠrÃ©cit": 8064,
      "Ġfabrique": 8065,
      "Ġretourne": 8066,
      "Ġcambri": 8067,
      "mensionn": 8068,
      "Ġdevenues": 8069,
      "Ġuniversel": 8070,
      "ĠuniversitÃ©": 8071,
      "ĠgÃ©niale": 8072,
      "ĠÃ©quiv": 8073,
      "ĠtÃ©moin": 8074,
      "ĠÃ©tonnamment": 8075,
      "ĠprÃ©fÃ©rÃ©e": 8076,
      "ĠdÃ©marrer": 8077,
      "attaque": 8078,
      "Ġconducteur": 8079,
      "Ġconservation": 8080,
      "Ġdiapositive": 8081,
      "ĠhiÃ©r": 8082,
      "absence": 8083,
      "ĠdÃ©truit": 8084,
      "ĠcÃ©rÃ©bral": 8085,
      "entraÃ®nement": 8086,
      "Ġpairs": 8087,
      "Ġpatrimoine": 8088,
      "ame": 8089,
      "cence": 8090,
      "cÃ´": 8091,
      "heures": 8092,
      "ieuse": 8093,
      "Ġpom": 8094,
      "Ġpomme": 8095,
      "Ġcath": 8096,
      "oue": 8097,
      "Ġvar": 8098,
      "Ġtat": 8099,
      "Ġtrot": 8100,
      "tiez": 8101,
      "Ġjoe": 8102,
      "Ġrendant": 8103,
      "uration": 8104,
      "ĠdÃ©l": 8105,
      "Ġinattend": 8106,
      "Ġvole": 8107,
      "amener": 8108,
      "Ġexige": 8109,
      "Ġapplaud": 8110,
      "Ġnobel": 8111,
      "Ġconcev": 8112,
      "Ġcarre": 8113,
      "Ġtravaillaient": 8114,
      "Ġserions": 8115,
      "ĠÃ©car": 8116,
      "ĠÃ©coute": 8117,
      "Ġvier": 8118,
      "Ġfinancer": 8119,
      "ĠannoncÃ©": 8120,
      "ĠmÃ©ch": 8121,
      "Ġbible": 8122,
      "Ġfrus": 8123,
      "Ġrecours": 8124,
      "ĠpiÃ©t": 8125,
      "Ġgenoux": 8126,
      "tÃ©rieure": 8127,
      "Ġsoign": 8128,
      "culaire": 8129,
      "Ġpuissantes": 8130,
      "Ġorganiser": 8131,
      "Ġbaseball": 8132,
      "ĠâĢľ": 8133,
      "Ġcroyance": 8134,
      "Ġlarmes": 8135,
      "Ġgagnent": 8136,
      "own": 8137,
      "Ġcrist": 8138,
      "hane": 8139,
      "ĠqualitÃ©s": 8140,
      "Ġembau": 8141,
      "Ġtradu": 8142,
      "ĠprÃ©voir": 8143,
      "Ġmouche": 8144,
      "Ġgratuit": 8145,
      "ĠrÃ©tro": 8146,
      "Ġlaissons": 8147,
      "ĠdÃ©montrer": 8148,
      "ĠadoptÃ©": 8149,
      "Ġschiz": 8150,
      "Ġcollectif": 8151,
      "Ġinvesti": 8152,
      "Ġaveugles": 8153,
      "Ġinstallations": 8154,
      "application": 8155,
      "ĠdiminuÃ©": 8156,
      "ĠÃ©limin": 8157,
      "irak": 8158,
      "Ġmaximum": 8159,
      "ĠÅĵufs": 8160,
      "ĠingrÃ©dients": 8161,
      "zheimer": 8162,
      "Ġdense": 8163,
      "enus": 8164,
      "reur": 8165,
      "Ġmign": 8166,
      "Ġmienne": 8167,
      "orph": 8168,
      "Ġbain": 8169,
      "Ġgab": 8170,
      "Ġrelever": 8171,
      "Ġhon": 8172,
      "ulent": 8173,
      "ĠprouvÃ©": 8174,
      "cts": 8175,
      "esseur": 8176,
      "Ã©cart": 8177,
      "Ġimpati": 8178,
      "ĠcrÃ©ative": 8179,
      "Ġphili": 8180,
      "Ã¢ts": 8181,
      "Ġvoyais": 8182,
      "onges": 8183,
      "Ġ33": 8184,
      "Ġcolomb": 8185,
      "ĠÃ©valuer": 8186,
      "Ġluci": 8187,
      "Ġferiez": 8188,
      "ribue": 8189,
      "effort": 8190,
      "Ġsurpren": 8191,
      "ĠmatiÃ¨res": 8192,
      "Ġsynt": 8193,
      "Ġsyndr": 8194,
      "Ġinstitution": 8195,
      "Ġperformances": 8196,
      "Ġphotographe": 8197,
      "ĠentourÃ©": 8198,
      "ĠmentionnÃ©": 8199,
      "Ġsignificative": 8200,
      "Ġ1960": 8201,
      "ĠÃ©crans": 8202,
      "Ġintellectuelle": 8203,
      "Ġcrucial": 8204,
      "ĠhÃ©ritage": 8205,
      "ĠmaÃ®trise": 8206,
      "Ġparadigme": 8207,
      "Ġclavier": 8208,
      "Ġschizoph": 8209,
      "ban": 8210,
      "gez": 8211,
      "Ġlumin": 8212,
      "Ġcrit": 8213,
      "etnam": 8214,
      "ĠvÃ´tre": 8215,
      "Ġnul": 8216,
      "Ġtribu": 8217,
      "ish": 8218,
      "isent": 8219,
      "istique": 8220,
      "Ã¨ve": 8221,
      "sey": 8222,
      "onnier": 8223,
      "agan": 8224,
      "Ġinond": 8225,
      "Ġdioxyde": 8226,
      "irm": 8227,
      "ĠÃ©thique": 8228,
      "diens": 8229,
      "Ġexter": 8230,
      "Ġcompt": 8231,
      "oton": 8232,
      "ĠcrÃ©dit": 8233,
      "Ġastu": 8234,
      "fient": 8235,
      "Ġaccidents": 8236,
      "mpleur": 8237,
      "Ġfemelles": 8238,
      "Ġcorri": 8239,
      "Ġtuy": 8240,
      "Ġregardait": 8241,
      "Ġreport": 8242,
      "Ġcasse": 8243,
      "Ġ191": 8244,
      "Ġbass": 8245,
      "ĠdÃ©mocr": 8246,
      "ĠsÃ©cher": 8247,
      "ĠvolÃ©": 8248,
      "ĠmagnÃ©tique": 8249,
      "Ġhautes": 8250,
      "ĠpoÃ¨te": 8251,
      "Ġfibres": 8252,
      "Ġcamions": 8253,
      "ĠsynthÃ¨se": 8254,
      "ĠtentÃ©": 8255,
      "Ġorigines": 8256,
      "Ġgraves": 8257,
      "ĠmangÃ©": 8258,
      "Ġhey": 8259,
      "Ġpertes": 8260,
      "Ġremercier": 8261,
      "Ġvaisseau": 8262,
      "Ġsurfaces": 8263,
      "ĠministÃ¨re": 8264,
      "ĠcrÃ¢ne": 8265,
      "Ġmunicip": 8266,
      "Ġhautement": 8267,
      "Ġwilliam": 8268,
      "gh": 8269,
      "nom": 8270,
      "Ġdram": 8271,
      "Ã©mission": 8272,
      "Ġciter": 8273,
      "Ġsar": 8274,
      "ilÃ©": 8275,
      "isÃ©es": 8276,
      "Ġfaute": 8277,
      "orique": 8278,
      "Ġral": 8279,
      "Ġratt": 8280,
      "Ġdesigner": 8281,
      "Ġparlement": 8282,
      "Ġhong": 8283,
      "Ġoeil": 8284,
      "âĢ¯": 8285,
      "Ġoutre": 8286,
      "ondes": 8287,
      "Ġactifs": 8288,
      "extra": 8289,
      "Ġstable": 8290,
      "Ġkar": 8291,
      "isses": 8292,
      "ĠdÃ©pense": 8293,
      "Ġregardais": 8294,
      "hÃ©li": 8295,
      "Ġjouant": 8296,
      "Ġbranche": 8297,
      "ĠtÃ©lÃ©comm": 8298,
      "Ġriz": 8299,
      "Ġroulant": 8300,
      "visi": 8301,
      "ĠindÃ©pendant": 8302,
      "ĠrÃ©cent": 8303,
      "enfance": 8304,
      "Ġvoudrait": 8305,
      "Ġcherchons": 8306,
      "guÃ©": 8307,
      "Ġmarchait": 8308,
      "Ġfondamentaux": 8309,
      "Ġreligions": 8310,
      "Ġinternationaux": 8311,
      "explorer": 8312,
      "ĠÃ©vidente": 8313,
      "Ġdiminue": 8314,
      "Ġremarquables": 8315,
      "Ġtaper": 8316,
      "ĠÃ©tranges": 8317,
      "Ġtournant": 8318,
      "Ġobservons": 8319,
      "Ġdivertissement": 8320,
      "Ġbombes": 8321,
      "Ġaimerions": 8322,
      "Ġadopter": 8323,
      "Ġsoldat": 8324,
      "ĠconÃ§us": 8325,
      "onfort": 8326,
      "Ġimpressionnant": 8327,
      "ĠhypothÃ¨ses": 8328,
      "ĠtragÃ©die": 8329,
      "Ġcontraintes": 8330,
      "ĠÃ©vÃ¨nement": 8331,
      "Ġnotamment": 8332,
      "Ġdiagramme": 8333,
      "Ġprogressivement": 8334,
      "ĠcentimÃ¨tres": 8335,
      "Ġrwanda": 8336,
      "dÃ©s": 8337,
      "gos": 8338,
      "nant": 8339,
      "Ġlot": 8340,
      "Ġscep": 8341,
      "Ġaustralie": 8342,
      "Ġmonnaie": 8343,
      "Ġjal": 8344,
      "ordi": 8345,
      "ĠÃ©chec": 8346,
      "Ġtraces": 8347,
      "Ġhall": 8348,
      "Ġanth": 8349,
      "Ġalgues": 8350,
      "âĢĿ": 8351,
      "Ġappels": 8352,
      "ĠprÃ©cieux": 8353,
      "Ġsach": 8354,
      "inson": 8355,
      "apporter": 8356,
      "Ġvietnam": 8357,
      "Ġutilisation": 8358,
      "Ġvoyag": 8359,
      "Ġdemie": 8360,
      "Ġcorde": 8361,
      "Ġcolonne": 8362,
      "ĠdÃ©passÃ©": 8363,
      "Ġincomp": 8364,
      "Ġcommunications": 8365,
      "Ġfermer": 8366,
      "Ġbateaux": 8367,
      "Ġprogrammer": 8368,
      "Ġ2001": 8369,
      "interprÃ©": 8370,
      "Ġformule": 8371,
      "Ġphysicien": 8372,
      "Ġmenaces": 8373,
      "Ġconnaissait": 8374,
      "Ġcherchent": 8375,
      "Ġnormaux": 8376,
      "Ġsouffre": 8377,
      "ĠramÃ¨ne": 8378,
      "Ġembras": 8379,
      "ĠkilomÃ¨tre": 8380,
      "ĠfrÃ©quent": 8381,
      "Ġdevoirs": 8382,
      "Ġsmith": 8383,
      "amÃ©lioration": 8384,
      "ĠdÃ©claration": 8385,
      "Ġtribun": 8386,
      "ĠautoritÃ©s": 8387,
      "Ġmassive": 8388,
      "Ġalternatives": 8389,
      "ĠvulnÃ©rabilitÃ©": 8390,
      "Ġnettoyer": 8391,
      "Ġagriculteurs": 8392,
      "ĠdÃ©cide": 8393,
      "Ġdialogue": 8394,
      "cite": 8395,
      "ja": 8396,
      "neu": 8397,
      "oÃ¯s": 8398,
      "Ġul": 8399,
      "Ġunis": 8400,
      "Ġfun": 8401,
      "Ã¨che": 8402,
      "archite": 8403,
      "auraient": 8404,
      "ĠÃ©checs": 8405,
      "Ġchats": 8406,
      "ĠdÃ©ce": 8407,
      "ĠhÃ©ro": 8408,
      "Ã©tant": 8409,
      "ĠextrÃ©m": 8410,
      "mies": 8411,
      "Ġconsult": 8412,
      "Ġmad": 8413,
      "ĠprÃ©diction": 8414,
      "Ġsovi": 8415,
      "Ġdiffusion": 8416,
      "Ġimprimer": 8417,
      "espÃ©rance": 8418,
      "ĠcrÃ©Ã©s": 8419,
      "Ġsaviez": 8420,
      "illent": 8421,
      "Ġcercles": 8422,
      "Ġattendant": 8423,
      "ĠdÃ©veloppÃ©e": 8424,
      "accum": 8425,
      "Ġ1950": 8426,
      "Ġimaginons": 8427,
      "Ġressort": 8428,
      "Ġagit": 8429,
      "envers": 8430,
      "Ġsalut": 8431,
      "Ġrespir": 8432,
      "Ġconventionn": 8433,
      "Ġ2003": 8434,
      "rupt": 8435,
      "Ġbattu": 8436,
      "ĠrÃªver": 8437,
      "Ġprovoquer": 8438,
      "Ġindividuelle": 8439,
      "Ġimmeubles": 8440,
      "Ġtraditions": 8441,
      "Ġsynch": 8442,
      "ĠcompliquÃ©e": 8443,
      "ĠdÃ©tection": 8444,
      "ĠassociÃ©s": 8445,
      "ĠenseignÃ©": 8446,
      "Ġtraditionnelles": 8447,
      "ĠhonnÃªtement": 8448,
      "Ġcommerciaux": 8449,
      "Ġgamins": 8450,
      "ĠcontribuÃ©": 8451,
      "Ġaborder": 8452,
      "ĠvulnÃ©rables": 8453,
      "oeil": 8454,
      "ĠÃ©liminer": 8455,
      "Ġhigh": 8456,
      "Ġarchives": 8457,
      "Ġinnoc": 8458,
      "hypoth": 8459,
      "Ġsquelette": 8460,
      "Ġorbite": 8461,
      "Ġcollision": 8462,
      "Ġoctobre": 8463,
      "ĠÃ©piniÃ¨re": 8464,
      "Ġchrist": 8465,
      "aussi": 8466,
      "cre": 8467,
      "hÃ´tel": 8468,
      "lets": 8469,
      "oeu": 8470,
      "ptions": 8471,
      "ueux": 8472,
      "Ã©par": 8473,
      "Ġpaires": 8474,
      "ĠpÃ¨res": 8475,
      "quettes": 8476,
      "Ġaqu": 8477,
      "etat": 8478,
      "inverse": 8479,
      "tivÃ©": 8480,
      "ortÃ©e": 8481,
      "atts": 8482,
      "Ġinj": 8483,
      "Ġintime": 8484,
      "Ġhur": 8485,
      "Ġdieux": 8486,
      "Ġanne": 8487,
      "dimensionn": 8488,
      "Ġcomptes": 8489,
      "Ġdeviez": 8490,
      "Ġdeviner": 8491,
      "espÃ¨ces": 8492,
      "Ġauth": 8493,
      "Ġpropag": 8494,
      "illÃ©e": 8495,
      "Ġeffond": 8496,
      "Ġcommunaut": 8497,
      "Ġrecru": 8498,
      "Ġrecette": 8499,
      "Ġpermettra": 8500,
      "ĠdÃ©for": 8501,
      "Ġversions": 8502,
      "ĠrencontrÃ©s": 8503,
      "interface": 8504,
      "Ġphysiciens": 8505,
      "Ġapprise": 8506,
      "Ġapparten": 8507,
      "ĠspÃ©ciale": 8508,
      "ĠspÃ©cialement": 8509,
      "Ġterrestre": 8510,
      "ĠlÃ©ger": 8511,
      "Ġcroyais": 8512,
      "Ġcherchez": 8513,
      "ĠÃ¢gÃ©": 8514,
      "Ġmental": 8515,
      "othÃ©rapie": 8516,
      "ĠcommenÃ§ait": 8517,
      "Ġpsychologique": 8518,
      "Ġvariole": 8519,
      "Ġinternationales": 8520,
      "ĠexaminÃ©": 8521,
      "entreprises": 8522,
      "invention": 8523,
      "Ġforcer": 8524,
      "Ġafricaine": 8525,
      "Ġbrillants": 8526,
      "Ġcostu": 8527,
      "Ġurbaine": 8528,
      "Ã©tudiants": 8529,
      "Ġradicale": 8530,
      "ĠrÃ©colter": 8531,
      "ĠcÃ¢ble": 8532,
      "claves": 8533,
      "Ġcouloir": 8534,
      "ĠisraÃ«l": 8535,
      "ĠdÃ©sespÃ©rÃ©ment": 8536,
      "histoires": 8537,
      "Ġdictionnaire": 8538,
      "ĠinfirmiÃ¨res": 8539,
      "ĠdÃ©charge": 8540,
      "Ġcultiver": 8541,
      "Ġsyndrome": 8542,
      "ĠdÃ©cembre": 8543,
      "bat": 8544,
      "ganda": 8545,
      "kin": 8546,
      "to": 8547,
      "wa": 8548,
      "Ġloup": 8549,
      "ĠpÃ¨se": 8550,
      "quante": 8551,
      "ilÃ©e": 8552,
      "Ġuni": 8553,
      "Ġjim": 8554,
      "Ġgore": 8555,
      "rich": 8556,
      "ĠrÃ©elles": 8557,
      "ider": 8558,
      "Ġlions": 8559,
      "Ġcommentaire": 8560,
      "Ġvictoire": 8561,
      "Ġattitude": 8562,
      "ĠgÃ©nÃ¨re": 8563,
      "ĠtuÃ©s": 8564,
      "oyÃ©": 8565,
      "oyers": 8566,
      "ĠrestÃ©e": 8567,
      "Ġadorent": 8568,
      "Ġconcer": 8569,
      "ĠespÃ©rer": 8570,
      "Ġbruits": 8571,
      "Ġverrons": 8572,
      "Ġsortez": 8573,
      "Ġblo": 8574,
      "Ġferai": 8575,
      "Ġendomm": 8576,
      "Ġcoucher": 8577,
      "Ġvenais": 8578,
      "icien": 8579,
      "ĠnommÃ©e": 8580,
      "Ġthon": 8581,
      "Ġsortis": 8582,
      "Ġapparence": 8583,
      "ĠamÃ©ricaines": 8584,
      "Ġtombent": 8585,
      "Ġvirgin": 8586,
      "Ġjuli": 8587,
      "Ġcamar": 8588,
      "Ġarrivera": 8589,
      "Ġdrones": 8590,
      "Ġweek": 8591,
      "Ġchauves": 8592,
      "marin": 8593,
      "Ġaccompli": 8594,
      "ĠimmÃ©di": 8595,
      "ĠtempÃ©ratures": 8596,
      "Ġhabitudes": 8597,
      "ĠtournÃ©e": 8598,
      "Ġambiti": 8599,
      "ustral": 8600,
      "oureuse": 8601,
      "Ġsatisfait": 8602,
      "objets": 8603,
      "Ġblogs": 8604,
      "augmenter": 8605,
      "ĠintÃ©rieure": 8606,
      "Ġintroduit": 8607,
      "Ġnoyau": 8608,
      "Ġattentivement": 8609,
      "ĠÃ©cosystÃ¨mes": 8610,
      "Ġsusceptibles": 8611,
      "hiopie": 8612,
      "ĠinÃ©galitÃ©s": 8613,
      "ĠintrinsÃ¨que": 8614,
      "burg": 8615,
      "ly": 8616,
      "raine": 8617,
      "vait": 8618,
      "Ġult": 8619,
      "ĠcancÃ©": 8620,
      "rey": 8621,
      "Ġventre": 8622,
      "Ġvagin": 8623,
      "Ġnarr": 8624,
      "esth": 8625,
      "tech": 8626,
      "usine": 8627,
      "ĠÃ©pr": 8628,
      "Ġgand": 8629,
      "Ġgates": 8630,
      "Ġparach": 8631,
      "alcool": 8632,
      "Ġplier": 8633,
      "atter": 8634,
      "onnant": 8635,
      "Ġrepar": 8636,
      "Ġii": 8637,
      "ultÃ©": 8638,
      "Ġgrille": 8639,
      "Ġtravaillez": 8640,
      "ĠcrÃ©ez": 8641,
      "Ġasp": 8642,
      "Ġposent": 8643,
      "Ġgrandissent": 8644,
      "Ġgrandissant": 8645,
      "ĠrÃ©pÃ©tÃ©": 8646,
      "Ġtube": 8647,
      "Ġallum": 8648,
      "Ġconnus": 8649,
      "Ġdemandons": 8650,
      "ĠadÃ©qu": 8651,
      "Ġcourbes": 8652,
      "ĠdÃ©brou": 8653,
      "Ġcombiner": 8654,
      "Ġfamine": 8655,
      "Ġfamilier": 8656,
      "Ġressens": 8657,
      "ĠsoirÃ©e": 8658,
      "oreille": 8659,
      "Ġestime": 8660,
      "Ġmondiales": 8661,
      "Ġmondialisation": 8662,
      "ĠthÃ©rap": 8663,
      "Ġconcepteurs": 8664,
      "ĠtestÃ©": 8665,
      "odeur": 8666,
      "Ġcroyait": 8667,
      "ĠtraitÃ©s": 8668,
      "ocide": 8669,
      "Ġbouts": 8670,
      "humains": 8671,
      "Ġproviennent": 8672,
      "Ġpromouvoir": 8673,
      "Ġchemins": 8674,
      "Ġatteints": 8675,
      "Ġtraduit": 8676,
      "ĠprÃ©venir": 8677,
      "Ġmalheureux": 8678,
      "ĠdÃ©gÃ¢ts": 8679,
      "Ġfrapper": 8680,
      "Ġbizarres": 8681,
      "ĠhabituÃ©s": 8682,
      "Ġmobil": 8683,
      "ĠattirÃ©": 8684,
      "Ġperturb": 8685,
      "disant": 8686,
      "Ġmagasins": 8687,
      "ĠspÃ©cialistes": 8688,
      "ĠcaractÃ¨res": 8689,
      "Ġaffirm": 8690,
      "Ġvingtaine": 8691,
      "Ġimprovis": 8692,
      "Ġdiscipline": 8693,
      "Ġsemblable": 8694,
      "identifier": 8695,
      "Ġcancers": 8696,
      "ĠÃ©lÃ©phants": 8697,
      "ĠfumÃ©e": 8698,
      "Ġenceinte": 8699,
      "Ġchanceux": 8700,
      "ĠomniprÃ©sent": 8701,
      "king": 8702,
      "pÃ©": 8703,
      "Ġurg": 8704,
      "escal": 8705,
      "Ã©tions": 8706,
      "Ġsab": 8707,
      "Ġmail": 8708,
      "ino": 8709,
      "inÃ©galitÃ©": 8710,
      "Ġfes": 8711,
      "Ġfau": 8712,
      "Ġfert": 8713,
      "Ġbin": 8714,
      "ĠdÃ©form": 8715,
      "agon": 8716,
      "Ġremb": 8717,
      "Ġsurveiller": 8718,
      "Ġhol": 8719,
      "raction": 8720,
      "ĠÃ©troite": 8721,
      "amÃ¨ne": 8722,
      "Ġcomptent": 8723,
      "utilisent": 8724,
      "ĠastÃ©roÃ¯": 8725,
      "Ġperdez": 8726,
      "Ġpersonnels": 8727,
      "emment": 8728,
      "Ġenvelopp": 8729,
      "Ġinconsci": 8730,
      "ĠdÃ©vo": 8731,
      "Ã´tres": 8732,
      "Ġspont": 8733,
      "Ġbrun": 8734,
      "Ġcontrat": 8735,
      "ĠdÃ©sespoir": 8736,
      "Ġagences": 8737,
      "Ġagressi": 8738,
      "Ġsalon": 8739,
      "Ã©vrier": 8740,
      "Ġnourrit": 8741,
      "Ġ85": 8742,
      "ecd": 8743,
      "Ġinvention": 8744,
      "Ġabsorb": 8745,
      "ĠlimitÃ©e": 8746,
      "Ġcollecter": 8747,
      "humain": 8748,
      "Ġ%.": 8749,
      "Ġisland": 8750,
      "ĠcommenÃ§a": 8751,
      "Ġexister": 8752,
      "Ġembar": 8753,
      "Ġapprenez": 8754,
      "ĠparticipÃ©": 8755,
      "Ġphilanthrop": 8756,
      "Ġpositifs": 8757,
      "Ġintervention": 8758,
      "ĠphÃ©nomÃ¨nes": 8759,
      "Ġgraphiques": 8760,
      "ĠchaÃ®nes": 8761,
      "Ġbrow": 8762,
      "Ġbrook": 8763,
      "Ġcontribution": 8764,
      "Ã©pendance": 8765,
      "Ġcapture": 8766,
      "Ġcapturer": 8767,
      "Ġ1970": 8768,
      "Ġblocs": 8769,
      "Ġmusicale": 8770,
      "Ġturqu": 8771,
      "ĠstupÃ©fiant": 8772,
      "ĠbÃ©ton": 8773,
      "ĠdÃ©range": 8774,
      "ĠhaÃ¯ti": 8775,
      "Ã©toiles": 8776,
      "Ã©motion": 8777,
      "Ġoncle": 8778,
      "Ã©quipement": 8779,
      "Ġimmunitaire": 8780,
      "ĠsuprÃªme": 8781,
      "allemagne": 8782,
      "sant": 8783,
      "Ġlo": 8784,
      "Ġpommes": 8785,
      "Ġcage": 8786,
      "Ġcray": 8787,
      "Ġsqu": 8788,
      "Ġsage": 8789,
      "Ġnic": 8790,
      "Ġfoyers": 8791,
      "Ġjon": 8792,
      "orment": 8793,
      "Ã¨vre": 8794,
      "Ġbis": 8795,
      "Ġbor": 8796,
      "ark": 8797,
      "cheurs": 8798,
      "Ġrelier": 8799,
      "Ġant": 8800,
      "âĢ¦": 8801,
      "Ġapple": 8802,
      "ocine": 8803,
      "Ġperdent": 8804,
      "pedia": 8805,
      "Ġmanuel": 8806,
      "extinction": 8807,
      "Ġwall": 8808,
      "Ġrepenser": 8809,
      "Ġmines": 8810,
      "Ġmince": 8811,
      "Ġbouill": 8812,
      "Ġsauve": 8813,
      "ĠÃ©gyp": 8814,
      "Ġroue": 8815,
      "Ġressorti": 8816,
      "aria": 8817,
      "Ġrendus": 8818,
      "agnol": 8819,
      "Ġobservez": 8820,
      "Ġexclus": 8821,
      "piers": 8822,
      "ĠdirigÃ©": 8823,
      "Ġpromet": 8824,
      "Ġcomposition": 8825,
      "Ġinstaller": 8826,
      "Ġpsychologues": 8827,
      "Ġbleus": 8828,
      "Ġneurone": 8829,
      "ĠdÃ©grad": 8830,
      "ĠdÃ©pendance": 8831,
      "Ġdossier": 8832,
      "Ġinspirer": 8833,
      "Ġaccompl": 8834,
      "Ġorgane": 8835,
      "Ġrestaurants": 8836,
      "Ġlaissant": 8837,
      "attendais": 8838,
      "Ġfonctionnait": 8839,
      "Ġarchitectur": 8840,
      "Ġdiviser": 8841,
      "Ġhomosex": 8842,
      "Ġblessures": 8843,
      "ĠeuropÃ©ens": 8844,
      "Ġcatastrophes": 8845,
      "ĠprÃ©dateurs": 8846,
      "Ġinfrastructure": 8847,
      "ĠenlevÃ©": 8848,
      "ĠÃ©ducatif": 8849,
      "Ġminimum": 8850,
      "Ġtremblement": 8851,
      "ĠÃ©cosystÃ¨me": 8852,
      "Ġsubstance": 8853,
      "ĠprospÃ©ritÃ©": 8854,
      "Ġfloride": 8855,
      "Ġcorpore": 8856,
      "Ġtromper": 8857,
      "Ġluxe": 8858,
      "Ġsilicon": 8859,
      "Ġdescription": 8860,
      "Ġtrott": 8861,
      "aÃ©roport": 8862,
[...]
